#version: 0.2
á »
á º
n g
Ġ t
Ġ c
Ġ Ä
ĠÄ ĳ
n h
Ã ł
Æ °
Ġ v
Ġt h
Ã ¡
Ġ l
Ġ h
Ġc h
i á»
Ġ b
Ġ m
Ġ k
Ġt r
Æ° á»
Ã ´
Ġ s
Ġ nh
áº ¿
áº ¡
Ġ n
Ġ g
á» Ļ
Ġk h
Ã ³
Ã ª
áº £
Ġ ng
Ġ d
á» ĳ
áº ¥
Ġ p
Ã ¢
Ġ T
Ġp h
iá» ĩ
Ã´ ng
Ãª n
á» §
Ã¡ c
ĠÄĳ á»
Ġv á»
Ã ¬
Ġv Ãł
Æ ¡
áº Ń
q u
Ġ qu
áº §
Ġl Ãł
Ġt á»
i áº¿
Æ°á» Ŀ
Ġ r
Ġ N
Ġg i
Ľ i
Ġ x
Ġth á»
Ã Ń
u y
áº¡ i
Ġ C
Ġc á»§
Æ°á» £
Ġcá»§ a
Ä ĥ
Ã £
a n
o ng
Ġc Ã³
Ġh á»
Ã¢ n
á» ĭ
áº¥ t
Ã º
Ġ H
áº ¯
Ġc Ã¡c
á»Ļ t
Ã¬ nh
iá» ģ
Æ°á»£ c
Ġch á»
á» ±
Ãł y
á» Ł
c h
Ġ B
ĠÄĳ Æ°á»£c
Ġm á»Ļt
Æ°á»Ŀ i
á» ¯
Ġkh Ã´ng
a y
Ã ²
i Ãªn
Ġ V
Ġtr ong
Ġ 1
a i
Ġch o
Æ°á» Ľ
a nh
Æ° Æ¡
Ġ M
iá»ĩ n
Ã ¹
ĠÄ Ĳ
á» ¥
i nh
Ġvá» Ľi
Ġng Æ°á»Ŀi
áº§ n
ĠT h
áº ·
a o
o n
Ġng h
iá» ĥ
a m
Ġ L
iá»ģ u
a ng
Æ°Æ¡ ng
ĠÄĳ Ã£
Ġ 2
áº£ i
Ãł nh
© ng
Ã´ i
i n
á» ĩ
o Ãł
á» ĵ
Æ°á»Ŀ ng
áº§ u
Æ°á»Ľ c
© c
á»Ļ i
Ġnh Æ°
áº¿ n
u á»ĳ
Ġ S
á»¯ ng
u ng
Ã¢ y
áºŃ n
á» ķ
Ġn Äĥ
Ġ P
Ġm á»
áº£ n
áº¡ n
Ãł ng
áº¿ t
â Ģ
ĠT r
Ġnh á»¯ng
ĠÄĳá» ĥ
a u
Ġhá» į
Ġn Ãły
áºŃ t
Ŀ i
. .
iáº¿ t
ĠÄĳ á»Ļ
Ġ K
ÃŃ nh
Ġl á»
ĠÄĳ Ã³
Ġ á»Ł
Ã¹ ng
Æ¡ n
Ġtá» «
Ġg iá»
ĠN g
Ã¡ n
Ġ A
áº ½
Ã¡ t
Ġr a
ĠC h
iáº¿ n
Ġc Ã´ng
áº¥ y
ĠÄĳ áº¿n
Ã¡ i
e r
e n
Ã ½
Ã ©
á» Ń
Ġ (
iá»ĩ t
Ġthá» ĥ
Ġs á»ĳ
á» į
0 0
Ġvá» ģ
á»ĳ i
Ġkh i
ĠnÄĥ m
Å ©ng
ĠvÃł o
e o
ĠÄĳá» ĭ
áº ±
Ġc áº£
Ã¡ ng
Ġ D
Ġ -
Ġ Q
Ġn Ã³
Ã¡ o
Ġt áº¡i
Ġh o
áºŃ p
Ġl áº¡i
Ãł i
uy á»
Ãª u
ĠlÃł m
áº ©
Ġs áº½
e m
Ġc Å©ng
ĠÄĳ áº§u
ĠP h
Ġ G
ĠÄĳá» ĵ
Ġth u
áº «
Ġtr Ãªn
Ä ©
Ãł o
Ġm Ãł
oÃł n
Ġb á»ĭ
iá»ĩ u
iá»ĩ c
Ġnh iá»ģu
Ġchá» ī
Ã¡c h
Ġ .
Äĥ ng
Ã² ng
Ä Ĳ
a r
Ġt Ã´i
ĠN h
á»Ļ c
± c
Ġph áº£i
Ãº ng
Ġ ,
áº± ng
Ġs á»±
ĠÄĳá»Ļ ng
Ã² n
Ġth Ãłnh
Ġh iá»ĩn
Ġnh Ãł
Ã¢ u
Ġqu y
áº£ o
Ġng Ãły
Ġv iá»ĩc
Äĥ n
iá»ĥ m
ĠÄĳá»ĵ ng
i a
ĠÄĳ i
áº¯ c
Æ° a
Ġ 3
Ġ Ġ
Ã¢ m
Ġhá»į c
áº »
á»± c
Ã¡ nh
Ġt iáº¿
áº¡ o
Æ°á»£ ng
áº¥ p
Ġd á»¥
Ġnh Ã¢n
Ãº c
Ã´ n
ĠÄĳá»ĭ nh
Ġb áº¡n
áº ¹
á» ı
áº¯ t
Ġc on
ĠN am
ĥ n
ÃŃ ch
áº¡ t
Ġ2 0
áº¥ n
áº« n
uy á»ĩ
ģ n
ħ n
Ġn Æ°á»Ľc
Ġh Ãłng
Ġqu an
Ġkh o
áº£ ng
Ġ y
áº· t
á»ĳ c
a l
áº· c
Ġnh áº¥t
uy Ãªn
Ã¡ p
Ġ Ã´ng
Ġd o
o r
ĠnÃ³ i
e s
Ġth Ã¬
Ġh Æ¡n
T h
Æ°á» Ł
Ġgi a
Ġc Ã²n
á»ĭ ch
ĠV iá»ĩt
Æ°á»Ł ng
Æ¡ i
Ġs au
2 0
oÃł i
Ġ âĢ
á»¥ c
Ġ anh
Ġ "
Ġgi Ã¡
Ġch ÃŃnh
Ãª m
Ġth áº¿
Ġm Ã¬nh
iá»ģ n
Ġk á»
á»ĵ i
Ġb iáº¿t
á» ©
á»ĳ ng
Ġthá» ±c
iá»ĥ n
á»ķ i
Ãł n
£ p
Ġc Æ¡
Ġmá» Ľi
Ġt a
Ġth eo
Ġd á»±
Ġdá»¥ ng
Ġthá» Ŀi
ĠÄĳá» ģ
Ċ Ċ
uá»ĳ c
Ġhá» £p
Ġl Ãªn
âĢ Ŀ
Ġth Ã´ng
i m
ĠnhÆ° ng
Ġngh iá»ĩ
ĠÄĳ iá»ģu
C h
ĠÄĳ ang
uyá»ĩ n
i Ãªu
.. .
Ġl u
Ġtr Æ°á»Ŀng
áº¥ u
iá»ĥ u
o t
á» ©c
áº¡ nh
Ġnh áºŃn
o áº¡i
ĠK h
á»ĩ nh
Ġd Ã¢n
Ġqu a
Ġt in
e l
Ġc Ã¹ng
Ġvá» ¥
Ġv iÃªn
Ġs inh
N g
u áº¥t
a t
Ġh Ãłnh
Ġph Ã¡t
áº¡ ng
á» £
Ġh Ã¬nh
Ġc ao
Ġtr Æ°á»Ľc
áº¿ u
ĠÄĳ Ã¢y
ĠâĢ ľ
ĠQ u
Ġr áº¥t
á» «
ĠcÃ¡c h
Ġ U
Ġ em
Ġt u
Ġ 4
T r
Ġh á»Ļi
Ġn Ãªn
Ġth áº¥y
i s
Ġtá» ķ
Ġb á»Ļ
Ġ R
Ġlá» Ľ
u á»Ļc
e t
Æ°á»Ľ ng
Ġv Ã¬
Ġx e
Ġchá» ©c
Ġs áº£n
Ġh ai
áºŃ y
Ġl Ã½
Ġs á»Ń
Ġkh Ã¡c
Ġtiáº¿ p
á»ĵ n
Ġtr Ã¬nh
Ġ 5
ĠÄĳ á»ĳi
Ġtá» Ľi
Ġn á»¯
i t
Ġn Ãło
Ġt áº¿
o m
Ġch Ãºng
áº¯ n
ĠÄĳ iá»ĥm
Ġc Ã´
áº£ m
ĠQ uá»ĳc
Å ©
u a
Ġk áº¿t
áº£ nh
ð Ł
áº© m
i d
Ġch á»§
Ġth Ã¡ng
Ġg Ã¬
Ġc áº¥p
Ã¡ y
ī nh
iá» ħn
áº¯ ng
Ã³ ng
Ġx uáº¥t
a s
Ġt Ã¬nh
áº¡ m
Ġ &
Ġtá» ±
Ġ an
Ġch á»ĭ
Ġ Ã
á» ¹
á»ĳ t
Ãº t
ĠÄĳ Æ°á»Ŀng
Ġnghiá»ĩ p
Ġl Æ°á»£ng
Ġv áº«n
uyá» ĥn
Ġc áº§n
Ġt Æ°
u á»ĵn
uá»ĳ n
Ġt Ã¡c
Ġm áº·t
i c
Ġt oÃłn
Ġr á»ĵi
Ġb áº£o
Ġc áº§u
ĠTr ung
Ġ á»
Ã ¨
Ġvá» ĭ
Äĥ m
ĠnÄĥ ng
Ĺ i
Ġgiá» ¯
Ġgi áº£i
Ġt Ã¢m
áº¡ c
Ġc á»©
Ġth á»§
Ġlá»Ľ n
Ã³ a
Ġthá» ĭ
« a
Ġph Ã²ng
Ġd á»ĭch
Ġn ay
Ġb áº£n
Ġb áº±ng
Ġt iá»ģn
h i
Ġph ÃŃ
ĠÄĳ áº¡i
á» ģn
Æ° ng
Ġ 6
Ġkh Ã¡ch
Ġ F
Ġb á»ĩnh
áº¡ ch
áº ³
Ġgiá» Ľi
Ġt áº¡o
á»Ļ ng
ĠG i
Ġc uá»Ļc
iá»ĩ m
Ġl á»±c
Ġgi an
u s
áº§ m
Ġ X
Ġh ay
Ġ I
Ġ Ã½
Ġt Äĥng
Ġqu á»ĳc
Ġr áº±ng
i l
Æ° u
á»ĵ ng
Ã µ
Ġt o
ĠH Ãł
Ġkh u
Ġnh iÃªn
Ġb Ã¡o
N h
a c
Ġl áº§n
Ġk inh
uyá» ģn
áºŃ u
o l
Ġt ay
ĠA nh
Ã¡ m
Ġtr iá»ĥn
Ġtr á»Ł
Ġt ÃŃnh
ĠÄĳ á»Ļi
ĠÄ ĥn
Ġqu Ã¡
á»į ng
Ġv áºŃy
Ġm uá»ĳn
Ġhá» ĵ
Ġtá» īnh
Ġ1 9
Ġ áº£nh
Ġch Æ°a
ĠÄĳá» ķ
Ġ E
Ġt Ãłi
Ġph áº§n
Ġy Ãªu
Ġth Æ°á»Ŀng
Ġth á»ĳng
Ãº p
áº© n
Ġtr á»ĭ
Ġ Ã¡n
Ġngh Ä©
ĠB á»Ļ
áº³ ng
uá»ĳ ng
Ġsá»ĳ ng
Ġth i
á»Ł i
Ġhá» ĩ
¥ c
Ġ 0
Ġs ao
iáº¿ u
ĠĠ ĠĠ
Ġgiá» Ŀ
2 3
uyá» ħn
Ġthá» ©
Ġqu áº£
Ġthá» ©c
qu ot
Ġc Ã¡i
Ġx Ã£
00 0
Ġt áºŃp
Ġcáº£ m
Ġ :
á» Ľ
Ġ1 0
Ã¬ m
Ġch iáº¿n
Ã¬ n
Ġqu Ã¢n
Ã© t
Ġl Ã£
Ġth Æ°Æ¡ng
Ã³ c
Ġ20 1
Ġph Æ°Æ¡ng
ĠÄĳá»ĭ a
Ġm Ã¡y
Ġs Ä©
Ġt iÃªn
Ġtiáº¿ ng
á» Ŀ
ĠÄĳ iá»ĩn
Ġquy áº¿t
o p
Ġl iÃªn
á»Ń a
Ġph Ã¡p
áº¹ p
ĠM á»¹
Ġt iÃªu
t h
Ġvá» «a
Ġch áº¥t
Ġho áº·c
Ġtr á»įng
Ġs o
Ġ 7
Ġdo anh
Ġd iá»ħn
Ġph áº©m
Ġ Y
Ġgi ao
Æ°á» Ľi
Ġh iá»ĩu
á» ī
Ġtr iá»ĩu
Ġgi Ãºp
ĠC Ã´ng
Ġb Ãªn
Ġd Ã¹ng
Ġtu á»ķi
áº¯ m
ĠÄĳ áº¡o
áº· p
Ġth iáº¿t
Ġb ao
ı i
Ġb áº¥t
á» Ŀi
Ġb Ãł
t r
ĠN á»Ļi
u r
Ġb Ã¡n
ĠÄĳá»ķ i
e d
Ġtr ang
Ġt á»ĳt
Ġ W
Ġnh au
Ġb áº¯t
ĠÄĳ áº¥t
) .
ĠNg uyá»ħn
Ġch iáº¿
ĠÄĳ Ã¡nh
Ġt Ã¬m
Ġl o
Ġ 8
Ġtá» ¥c
ĠÄĳá»ģ u
áº§ y
Ġho áº¡t
á»ķ ng
Ġth am
Ġtr ung
Ġb á»ĳ
Ġth Ãªm
ĠÄĳ Æ°a
Ġv áºŃt
Ġtr áº»
Ġtr a
o s
u n
Ġl oáº¡i
2 2
ĠÄĳ o
ĠÄĳ Æ¡n
Ġb iá»ĩt
ĠT P
Ġth Ã¢n
a d
Ã² a
áº· ng
Ġch u
Ġm áº¡nh
Ġkh á»ı
Ġs á»Ł
Ġch uyá»ĥn
Ġg áº§n
Ġh Ã³a
Ġá» ©ng
Ġkh Ã³
P h
ĠÄĳ áº¹p
Ġlu Ã´n
Ġs Ã¡ng
ĠÄĳ áº¥u
Ġch i
á»į c
Ġt Ãªn
1 9
l e
en t
i ng
Ġng oÃłi
uy áº¿n
uá»ĳ i
Ġ J
Ġm áº¯t
Ã© p
Ġthu á»Ļc
Ġ áº¥y
Ġtr Æ°á»Łng
) ,
Ġ 9
á»« ng
Ġv áº¥n
Ġl áºŃp
Ġká» ³
áº¥ m
áº¡ y
á»į i
Ġm áº¹
Ġv i
a g
o v
Ġquy á»ģn
Ġd áº«n
Ġvá» ±c
Ġl Ãºc
Ġtr á»£
Ġná»¯ a
Ġcáº£ nh
Ġh oÃłn
Ġm ua
áº± m
Ġchá» į
Ġh áº¿t
Ġnh iá»ĩm
Ġch áº¿
Ġm ang
Ġgi áº£m
Ġnh Ã¬n
áº£ y
Ġlá» Ŀi
Ġmá» į
Ġtá»« ng
Ġph á»ĳ
Ġx em
Ġs Ã¡t
Ġng uá»ĵn
Ġkh iáº¿n
Ġtá» Ń
Ġch uyá»ĩn
Ġ f
Ġt ÃŃch
Ġch ÃŃ
Ġt y
Ġkh ai
Ġngh á»ĩ
Ġs á»©c
Ġn Æ¡i
Ġcá»© u
Ã´ m
Ġdá»± ng
ĠÄĳ Ã¬nh
Ġ O
Ġchá»į n
Ġv Äĥn
á» ģ
Ġs Ã¡ch
ĠÄĳ oÃłn
Ġph á»¥c
Ġh Æ°á»Ľng
Ġtá» ·
Ġn áº¿u
Ġnh áºŃp
Ġk iá»ĥm
Ġk áº¿
Ġb Ãłn
Ã¡ u
£ i
Ġmá»į i
Ġb Ã¬nh
Ġkho a
Ġl iá»ĩu
á»ĳ n
ĠÄĳ áº·c
Ġd iá»ĩn
Ġtr ÃŃ
Ġb á»ı
oÃł ng
Ġhá» ıi
Ġth Æ°
Ġph á»¥
ĠV Äĥn
Ġt Æ°á»£ng
Ġgiá»¯ a
Ġk iáº¿n
Ãł u
Ġb iáº¿n
áº¯ p
Ġth ay
o a
Ġg áº·p
u m
Ġchiáº¿ c
Ġkho áº£ng
Ġtr áºŃn
Ġc a
Ġm áº¡ng
ÃŃ t
Ġx Ã¢y
o o
Ġ ai
Ġng ay
Ã£ i
Ġg á»įi
Ġg Ã¢y
Ġv Ã´
ĠA n
Ġl á»ĭch
Ä© nh
Ġtr uyá»ģn
K h
Ġgi Ã¡o
Ķ ng
i on
Ġv iá»ĩn
á» Ĺ
áº« u
Ġk Ã½
" .
Ġchá» ©ng
Ġd i
Ġmá» ©c
Ġc Ã¡
Ġngh á»ĭ
Th eo
Ġth ÃŃch
Ġnh á»ı
Ġb an
Ġb Ã³ng
ĊĊ Ċ
Ġl Ã²ng
į ng
Ġd Ãłi
Ġx uá»ĳng
Ġ o
á» ħ
e b
Ġch uyÃªn
Ġm á»Ł
t er
Ġl áº¥y
Ġn á»Ļi
Ġc á»Ńa
Ġb ay
á» ³
Ġth áºŃt
Ã³ m
Ã¹ a
Ġh á»Ļ
1 0
Ġthu áºŃt
a p
ai l
ĠÄĳ áº·t
ĠM inh
i Ãªm
ĠB Ã¬nh
Ġ in
Ġx Ã¡c
r o
Æ°á»£ t
ðŁ ĺ
Ġl oÃłi
Ġnghiá»ĩ m
Ġch ia
Ġvá» ĩ
ĠTh anh
Ġm áº¥t
ĠÄĳá» Ŀi
Ġc Ã¡o
Ġg Ã³
ĠÄĳ á»§
Ġb Ãłi
ĠCh ÃŃnh
e c
Ġmá» Ĺi
Ġho a
Ġtr áº£
Ġth anh
Ġb á»Łi
2 1
iáº¿ m
u i
Ġn á»ķi
Ġb a
ĠphÃŃ a
Æ°á» ¡
Ãª ng
Ġnh anh
N D
á» Ľi
Ġt Æ°á»Ľng
Ġg Ã¡i
Ġph Ã¢n
ĠÄĳ Ã¢u
Ġch ung
Ġk iá»ĩn
áº ¢
ĠT Ã´i
Ġh uy
Ġc á»ķ
Ġt iáº¿n
Ġd Æ°á»Ľi
Ġc ung
Ã£ y
á»į n
Ġ1 2
Ġph áº¡m
Ġd anh
Ġ& #
Ġ w
Ġph á»§
ĠÄĲ áº¡i
Ġng uyÃªn
ĠÄĳ Äĥng
o i
Ġd u
á»§ y
Ġhá» Ĺ
Ġtr anh
Ġngh e
ĠTr ong
Ġb Ã©
Ġh uyá»ĩn
Ġch Ã¢n
Ġqu áº£n
uyá»ĩ t
Ġm Ã´
á» ĥ
Ġt iáº¿t
Ġkh ÃŃ
Ġm á»¥c
i g
Ġv Ã¹ng
Ġb iá»ĥu
Ġlá» £i
Ġc uá»ĳi
Tr ong
Ġch Æ¡i
Ġb u
Ġx á»Ń
Ġh áº¡n
á»ĵ m
Ġtá» ĭ
áºŃ m
Ġt áº¥t
¯ u
i Ãªng
an d
Ġgi áº£
Ġb iá»ĥn
Ġr Ãµ
C M
Ġch áº¿t
Ä ĳ
Ġtr á»±c
Ġch á»ĳng
áº© u
âĢĿ .
9 3
c om
Ġvá» £
Ġh iá»ĥu
Ġc á»ĳ
Ġc Ã¢u
on e
Æ°Æ¡ i
Ġlu áºŃt
in k
" ,
Æ°á»¡ ng
Ġ1 1
Ġ1 5
Ġ a
Ġs ang
Ġtá»ĭ ch
á»± a
Ġm inh
Ġhá» ¯u
ĠNg a
Ġth e
© a
Ġchu áº©n
Ġtá»ķ ng
C Ã¡c
iá»ĩ p
Ġch Æ°Æ¡ng
Ġt á»ĳi
Ġchá» ĵ
ĠÄĳ Ãºng
ĠT á»ķng
u Ã¢n
Ġph im
Ġt inh
Ġg á»ĵm
ĠÄĳ Ã¡
Ġs áº¯c
ĠT uy
« ng
Ġká» ĥ
Ġth áº§n
Ġt Æ°Æ¡ng
Ġ1 8
Ġch Ãº
ĠÄĳ áº£m
ĠmÃł u
Ġd Ã¹
áº¢ nh
ĠnghÄ© a
Ġh Æ°á»Łng
Ġchá»ĵ ng
Ġ2 00
20 23
Ġ e
ĠÄĳ áº¡t
Ġch áº¡y
Ġng Ãłnh
l o
Ã¢ ng
Ġv Ã²ng
ÃŃ n
Ġx Ã©t
ĠNg h
n e
Ġc Ã¢y
ĠvÃł ng
Ġk Ã©
r e
u t
ĠH áº£i
Ġm áº«u
á» Ĺi
N G
Ġs Ã¢n
Ġ3 0
Ġnh Ã©
Ġth oáº¡i
Ġth o
ĠÄĲ á»©c
ĠÄĳo áº¡n
u l
Ġt uyá»ĥn
Ġkhá»ı i
Ġb Æ°á»Ľc
Ġth áº¯ng
Ġd á»ħ
ĠÄĳá» ©ng
Ġs áº»
a k
Ġ ÃŃt
Ã³ n
áº µ
ĠB áº¯c
u p
Ġv ui
á»ĭ p
Ãł m
i e
á» ©ng
ĠÄĳ Ã¡ng
Ġc Ãłng
Ġph ong
Ġc Æ°á»Ŀi
i v
o d
Ġkh áº£
1 2
Ġt Æ°á»Łng
ĠU S
t p
Ãº i
ĠÄĳá»Ļ c
v n
Ġho áº¡ch
Ġv áºŃn
ĠÄĳ áº§y
ĠNh Æ°ng
Ġx in
Ġg hi
Ġc á»Ļng
Ġc áº¡nh
ĠH oÃłng
Ġhá»ĵ i
a e
1 1
Ġh Ã´m
i p
Ġph Ã©p
Ġv iáº¿t
ĠTh Ã¡i
Ġd ung
Ġl Æ°u
Ġh áºŃu
ĠTh á»ĭ
Ġ Ã¡p
Ġl ao
ĠÄĲ Ã´ng
Ġc á»±c
ĠV i
ĠâĢ ĵ
: -
ĠlÃ£ nh
Ġc á»¥
Ġ Ã¡o
T Ã´i
ĠB an
Ġx a
u b
ĠC Ã¡c
in e
Ġká» ¹
Ġy áº¿u
ĠT Ã¢y
ĠÄĳÃ³ ng
á»Ń i
Ġkh áº©u
ĠD Æ°Æ¡ng
Ġr á»Ļng
ĠH á»Ļi
áº© y
ĠÄĳ Ãªm
m ail
Ġ ?
Ġkho áº£n
ĠCh á»§
Ġh áº¡
ĠQu Ã¢n
Ġnh Ã³m
ĠKh Ã´ng
o w
áº¿ p
ĠS Æ¡n
Ġt áº£
Ġt Ãłu
i r
Ġg h
Ġchá» ¯
Ġvá» įng
Ġn Ãłng
ĠTh Ãłnh
ĠL an
H CM
Ġch áº³ng
Ġr iÃªng
Ġtr Ã¡i
áº¡ p
ĠÄĳ Ã´i
Ġv ay
Ġdá»¥ c
ĠNh Ãł
Ġchá»ĭ u
Ġtr ai
Ġl á»Ļ
ĠÄĳ Ãłn
ĠÄĳ a
Ġn áº±m
ĠH oa
Ġl á»ĩ
Ġ áº¡
Ġtr Ã²
âĢĿ ,
Ġg á»Ńi
uy áº¿t
Ġkh Äĥn
a b
Ġlu áºŃn
Ġm Ã¹a
Ġth uá»ĳc
Ġk iáº¿m
ĠUS D
o c
/ /
ĠTh u
ĠH á»ĵ
Ġv á»ĳn
Ġng Ã¢n
Ã£ o
t tp
ĠL ong
L ink
Ġx áº£y
Ġl Ã¢u
o b
Ġtu áº§n
Ġ '
ĳ ng
Ġtr áº¡ng
ĠTh á»§
: //
Ġs Æ¡
Ġká» ·
Ġnh á»Ľ
ĠÄĳ áº£o
Ġ i
ĠNg á»įc
Ġkhá»ı e
ĠNh áºŃt
ĠÃ ģ
ĠÄĲ áº£ng
Ġt á»ĳ
ĠS au
Ġth Ã´i
Ġv áº»
iá» ħ
a v
ĠT H
Ġch Ãłng
ĠI n
Ġth iáº¿u
Ġtr Ã¡ch
Ġph Ã¡
Ġn áº¡n
Ġch iá»ģu
ĠN áº¿u
į c
Ġ [
Ġtá» ©c
Ġng oáº¡i
Ng uá»ĵn
Ġkh Ã¡
Ġch áº¯c
Ġn am
ĠÄĳ Ã´
Ġt áº¥n
Ã¹ i
Ġv ai
Ġnh u
á» ¡
Ġm Ã´n
is t
ĠTr áº§n
M á»Ļt
or t
Ġph áº£n
ĠgÃ³ p
Ġqu ay
Ġs Æ°
Ġt uyáº¿n
Ġ20 22
ĠÄĳ Ã´ng
Ġd Ãłnh
Ġh Ã²a
Ġlá»Ľ p
Ġt áº£i
á»§ ng
Ġd a
Ġc Äĥn
ĠL Ãª
Ġto Ã¡n
ĠÄĳ Ã¡p
Ġnh áº¡c
Ġgiá» ĳng
Ġm Ã´i
Ġlá» ħ
Ġ Ã¢m
Ġng uy
Ġs á»£
ĠÃ Ķng
ĠM á»Ļt
G i
u áº¥n
Ġb Ã¡c
Ã³ i
ĠĠĠĠ ĠĠĠĠ
p h
oo k
Ġph Ãºt
Ġo f
Ġng á»Ŀ
ĠTr Æ°á»Ŀng
Ġ1 4
ĠvÃł i
ĠC Ã³
Ġ Ã´
Ġh iá»ĥm
Ġng á»ĵi
S au
5 0
Ġtr á»Ŀi
Ġch Ã¢u
Ng Ãły
3 0
Ġ1 6
Ġph á»ĳi
Ġph Ã¹
Ġchá» ©
ĠÄĳ á»ĳc
á»Ľ m
Ġtá» ı
Ġm Ã³n
9 1
Ġph iÃªn
Ã£ n
Ġc Ã¡n
u Ã´i
ĠK á»³
Ġd Æ°á»¡ng
Kh Ã´ng
es t
ĠGi ang
Ġthá» Ń
âĢ ľ
Ġm áº·c
Ġn Ã¢ng
am p
Ġchá» Ĺ
Ġ ;
Ġngh iÃªn
Ġ Æ°u
ttp s
Nh á»¯ng
Ġt iá»ĩn
Ġc Ã¡nh
Ã£ ng
Ġt ÃŃn
Ġn á»ģn
ĠgiÃ¡ m
Ã¨ o
ĠÄĲ iá»ģu
Ġs uáº¥t
Ã Ķng
Ġs ai
Ġ ÃŃch
Ġnh áº±m
ĠkÃ© o
Ġn áº·ng
Ġl á»±a
iá»ģ m
Ġth Æ¡
Ġx anh
ĠÄĳ au
Ġh áº¡i
es s
T T
Ġv Æ°á»£t
Ġth áº¥t
Ġc á»Ń
ĠKh i
Ġh Ã£y
Ġb á»ķ
Ġ1 7
ĠÄĲ á»ĵng
á»¯ a
Ġl áº¯m
Ġ Æ°Æ¡ng
uá»ĳ t
Ġch áº¥p
Ġl á»ĩnh
Ġngh á»ī
ĠÄĳ áº©y
Ġ1 3
Ġ uá»ĳng
il l
Ġs á»Ľm
ĠC Ã´
ĠPh Ã¡p
Ġm ong
Ġ á»§y
Ġt á»Ļi
Ġd uy
Ġc áºŃp
Ġth iá»ĩn
ĠVi et
Ġl Ä©nh
Ã¨ n
Ġd Ã²ng
Ġth Ãºc
ĠNg Æ°á»Ŀi
Ġm áº¥y
Ġqu Ã¡n
i k
r a
Ġs h
Ġs Ã¢u
Ġc Æ°
s t
Ġng Ã´i
Ġ1 00
Ġx Ãºc
d i
ĠL e
Q u
Ġv Å©
Ġc áºŃu
Ġt Ã¹
ĠH Ãłn
Ġt ai
Ġkh á»Łi
ĠL iÃªn
Ġso Ã¡t
ov id
áº· n
c e
Ġk ÃŃch
Ġbu á»ķi
Ġqu Ã½
Ġlá» Ń
Ġth Äĥm
Ġn iÃªn
iá»ħ m
Ġt iá»ĥu
B ND
Ġd áº§u
Ġ áº¢nh
Ġch a
ĠH u
ĠÄĳá» įc
Ġm áº¯c
Ġtr áº£i
Ġd áº¡ng
Ġt á»ĳc
Ġd á»¯
Ġan d
ĠPh Æ°Æ¡ng
Ġl áº½
ĠÄĳá» ı
ĠNh á»¯ng
ĠlÃ£ o
Ġ Æ¡n
Ġngh á»ģ
Ġb inh
ĠÄĳ em
Ġth Æ°á»Łng
ĠB áº£n
ĠÄĲ Ã¢y
ĠL oÃłi
ĠPh Ã³
Ġqu áºŃn
ĠK im
ĠÄĳ Ãło
iáº¿ p
Ġt uyá»ĩt
á»ĭ nh
Ġ á»ķ
Ġ Æ¡i
Ġtr Ã¬
ĠL u
r ai
Ġh áº¡ng
Ġm áºŃt
) )
2 4
Ġth Ã¡i
Ġth áº¥p
Ġm a
ĠÃ Ĥ
Ġh Ã¡t
Ġlá»Ń a
ĠC ovid
C Ã³
Ġh Ãºt
ĠX uÃ¢n
ĠL inh
ĠQu áº£ng
Ġchá» Ŀ
A N
ĠmÃł n
t e
á» ·
Ġthu áºŃn
áºµ n
ĠA l
Ġ2 4
Ġch Äĥm
Ġch Ã¡u
Ġnh áº¹
Ġm iá»ģn
k h
á Ģ
Ġs Ã´ng
Ġk áº»
Ġ20 23
i f
Ġqu anh
o u
ĠV Å©
Ng Æ°á»Ŀi
e w
Ġ !
Ġl uyá»ĩn
Ġngh iÃªm
ĠNg uyÃªn
l y
Ġchá»ī nh
ĠU BND
eb ook
Ġng á»§
A nh
o an
Ġn á»ĳi
9 0
Ġth áº©m
Ġb Ã¡nh
Ġc áº£i
ĠnÃ³ ng
Ġx uyÃªn
Ġn Ã´ng
ac ebook
Ġd áº¥u
Ġlá» Ĺi
u e
? .
Ġ ung
20 1
ar d
Ġtr ao
Ġs áºµn
Ġh áº¯n
ĠTh áº¿
Ġnh iá»ĩt
Ġ2 5
Ġt Ã´
Ġnh á»Ŀ
Ġqu en
Ġh Ã´n
20 22
ĠÄĳ áº¥y
k rai
Ġm Ã£
e p
ĠH á»ĵng
Ġm Æ°a
á»£ i
ĠCh ÃŃ
ĠÄĳÃ³ n
Ġb iÃªn
id ae
Ġb áº£ng
Ġm Ã¡u
er s
Ġtr Ã¡nh
ĠA r
Ġgi áº¥y
Ġc Æ°á»Ŀng
ar t
Ġ Z
Ġt uyÃªn
Ġtr áº¯ng
Ġgi Ã¡c
q d
Ġc oi
Ġl Æ°Æ¡ng
áº ¤
Ġph áº¡t
Ġkh áº¯c
ĠPh Ãº
ĠQu ang
e v
ĠCh Ãºng
á»« a
Ġm áº¡i
Ġc Å©
Ġngh i
ĠCh Ã¢u
Ġgi ai
ĠÄĲ Ãł
áº§ ng
Ġth iÃªn
Ġx áº¿p
Ġb á»©c
Ġk ia
Ġs iÃªu
Ġt áº·ng
at ion
Ġl y
krai ne
Ġb áºŃt
a h
Ġc am
ĠTh eo
ĠT á»«
ĠPh áº¡m
ðŁ ĳ
Ġth ÃŃ
el l
Ġgi áº£n
Ġph Ã³ng
o k
Ġth áº³ng
K hi
Ġs áº¯p
Ġnh iá»ħm
w w
ĠgÃ³ i
Ġth áº£o
Ġm ay
Ġ5 0
Ãµ i
Ġh Æ¡i
ĠE m
Ġth Ãº
ĠH Ã²a
Ġ: -
Ġch Ãºt
Ã² i
L V
ĠS á»Ł
Ġn iá»ĩm
Ġt áº§m
Ġl áº¡
Ġx ong
Ġthu áº¿
Ġb uá»Ļc
áº¹ n
Ġgi Ãłnh
Ġk Ãª
ĠÄĳá»ĭ ch
Ġqu áº§n
Ġs Ã³c
Ġl áº¡c
ĠCh á»ī
n d
Ġk o
ĠTh iÃªn
ĠD o
Ġhá»į p
Ġ \
Ġn uÃ´i
id eo
ĠC on
Ġ2 1
Ġd áº¡y
Ġ Ã¡nh
Ġkh Ã¡m
u á»ķi
ĠN inh
iáº¿ ng
ĠU kraine
Ġs uy
ĠB áº£o
Ġthu Ãª
¦ y
Ġnh áºŃt
Ġt áºŃn
Ġsá»Ń a
.. ..
ĠT iÃªn
s h
Ġl áº¡nh
Ġm á»ĳi
ĠV Ã¬
Ġb áº§u
Ġ /
ĠM ai
ĠÄĳ á»Ļt
Ġ áº¥n
Ġth ao
Ġchiáº¿ m
Ġtá» ī
e x
Ġn Ãºi
r y
Ġm iá»ħn
ĠÄĳ en
it y
Ãº y
Ġt á»Ļc
Ġth áº§y
Ġng Æ°Æ¡i
ĠlÃł ng
Ġt áº§ng
Ġ2 2
Ġkh áº³ng
Ġl iá»ģn
Ġch uyáº¿n
ĠT áº¿t
0 8
Ġá»ķ n
Ġl Ã¡i
ĠB a
Ġc áº§m
Ġthá»ĭ t
Ġá» ¦y
Å© i
0 6
N H
Ãº a
r i
Ġh áº¥p
20 21
Ġph iáº¿u
N áº¿u
Ġkh áº£o
ĠT Ã¢n
Ġchá»¯ a
Tr Æ°á»Ľc
u c
Ġ2 3
n am
Ġc Ã¢n
ģ m
or e
ĠC H
Ã¨ m
Ġs uá»ĳt
á»ĭ a
Ġt áº¡m
P T
Ġtr uy
á»© t
ag e
ĠÄĳá» ©a
Ġh ttps
ĠB Ãł
ĠV Ãł
Ġc á»¥c
Ġc á»©ng
Ġh Æ°Æ¡ng
Ġt im
Ġh oÃłng
Ġlo áº¡t
á»Ļ n
á»³ nh
Ġl Æ°á»£t
Ġch Ã³ng
Ġph Ãª
Ġt Ã¡i
ĠÃĤ u
ig h
o g
2 5
á»¥ ng
¯ ng
ĠS h
Ġr á»«ng
b o
V á»Ľi
9 9
ĠL Ã½
Ġb ÃŃ
an k
â Ŀ
Ġng on
or d
Ġs ung
ar k
ĠH ai
Ġph Ãºc
Ġs Ãłng
Ġnh a
Ã³ t
ĠV á»Ľi
Ġk á»ĭp
Ġn á»£
Ġh Ãłi
Ġn inh
Ġc áº¯t
Ġk iá»ĥu
ĠH á»
Ġt Ã³c
ı a
in a
Ġl Ã¡
t on
en s
ĠL Ã¢m
Ġch áº¯n
Ã Ķ
Ġh Ã£ng
ac k
Ġr Ãºt
Ġmá» «ng
0 7
T áº¡i
am e
Ġnh áº¥n
Ġc áºŃn
Ġl á»¥c
ĠPh ong
Ġb Ãły
ĠPh Ã²ng
Ġg á»ĳc
Ġqu Ãª
Ġl ai
Ġkh Ã³a
i ch
al l
Ġd Ãłng
B á»Ļ
g mail
Ġy Ãªn
1 5
ĉ ĉ
T uy
ĠÄĳo Ã¡n
Ġh áº¡t
âĿ ¤
ĠS t
. -
it e
e a
Ġthá»§ y
Ġg iáº¿t
1 7
Ġvá» ¯ng
f f
Ġs ong
Ġchá» £
Ġd á»«ng
ĠV Ã¢n
- -
Ġm Ã¡i
i an
Ġ Æ°á»Ľc
áºµ ng
Ġtá» ĵ
i z
Ġb uá»ĵn
Ġr Æ¡i
Ġm Ã£i
Ġtr Äĥm
ĠNg oÃłi
Ġd áº§n
il e
Ġch Ãło
ĠV Æ°Æ¡ng
Ġb áº¡i
Ġ ðŁĺ
Ġh áº¡nh
Ġng á»¯
Ph one
Ġmá» Ŀi
âĢ ĵ
Ġchá» ¥
ĠT á»ķ
1 6
Ġm Ãły
Ġph á»ķ
p p
Ġc an
e g
Ġmá» ģm
Ġthá» «a
Ġkh á»ķ
Ġk Ãªu
Ġ2 6
Ch Ãºng
Ġx áº¥u
Ġc Æ°á»Ľi
ĠT uáº¥n
Ġgiá» įng
ðŁ Ĵ
Ġgi Ã³
Ġl iá»ĩt
ĠG ia
Ġv ong
0 9
Ġch Ã¡y
ĠlÃ£ i
Ġng Äĥn
1 8
a z
ĠÄĳ Ã¡m
Ġchá»¥ p
i b
ĠN Ã³
Ġkh Ã¡n
Ġd Ãµi
Ġm Ãª
ĠNh Ã¢n
Ġr u
Ġd Ã¢y
4 5
l ine
Æ°á»Ŀ n
Ġt Ã²a
ĠNg Ãły
ï ¸
ï¸ ı
Ġtá» ¥
Ġchá» ©a
Ġb ang
Ġd á»ĭ
Ġnh áº¯c
ĠNh a
Ġs Ã³ng
Ġch áº·t
Ġhá»į a
Ġ20 20
Ġd á»ĭp
Ġd Æ°Æ¡ng
Ġkh á»ĳi
ĠB á»ĩnh
ĠN áºµng
Ġtho Ã¡t
ĠTr ang
Ġb á»įn
iá»ĩ ng
ĠH LV
a x
Ġb áº¡c
Ġth áºŃm
C Ã´ng
Ġk ÃŃnh
ai n
Ġtr á»¥
ĠN Äĥm
as s
á»± u
Ġh áº§u
ĠÄĳ ÃŃch
Ġg áº¯n
Ä© a
ec t
e e
Ġng áº¯n
ĠCh i
Æ°á»£ u
l d
ĠC á»¥c
Ġng Å©
ĠNgh á»ĭ
ĠT Ãłi
Ġm u
ĠM an
Ġth iá»ĩu
ÄĲ á»ĥ
Ġl Æ°á»£c
Ġb iá»ĩn
ĠH Æ°Æ¡ng
ĠD Ã¢n
ĠTh Ã´ng
Ġl inh
ĠT iá»ĥu
Ġx ung
á»į t
Ġ ...
ĠNg Ã¢n
Ġ20 21
Ġn áº¯m
Ġthá» Ł
r an
2 7
ĠPh i
Ġ4 0
Ġ0 9
8 8
th g
ĠT áº¡i
Ġr á»Ŀi
Ġph Ã³
ĠH á»į
Ġph i
á» īnh
Ġmá» ¹
ĠÄĳá» £i
Ġ áº¤
ĠÄĳá» «ng
Ġm á»Ļ
uy en
ĠR e
Ġs áº¡ch
Ng oÃłi
Ġtá» Ŀ
in d
Ġm iá»ĩng
Ġgi Ãł
Ġb áº¯n
ĠÄĳá» ¡
ĠB r
Ġb Ã¢y
T á»«
ĠÄĳÃ£ i
1 4
Ġn á»Ńa
ĠB áº¡n
ĠKh Ã¡nh
Ġc áº¥u
ĠÄĲ á»Ļ
ĠM ar
ĠC up
B áº¡n
Ġr Æ°á»£u
Ġh y
Ġt áº¯c
Ġg áº¯ng
Ġd Ã¡ng
at e
u d
Ġnh iÃªu
Ġph Æ°á»Ŀng
2 6
á»ĩ t
Ġth áº»
ÄĲ iá»ģu
Ġkh uyáº¿n
ĠÄĲ Ã¬nh
Ġ Ãł
ı ng
Ġh áº£i
ĠH o
Ã© o
Ġsh op
0 3
0 5
Ġkh Ãºc
I N
Ġng áº¡i
on d
20 20
ĠNh Æ°
ĠY Ãªn
Ġ2 7
ĠK inh
Ġth Ã¡c
Ġnh áº¯n
N am
Ġn iá»ģm
Ġkh á»§ng
Ġqu Ãł
Ġt Æ°Æ¡i
1 3
en d
I D
Ġw eb
E m
Ch á»ĭ
ĠÄĳ Æ°Æ¡ng
Ġth iá»ĩt
Ġt Ã´n
Ġd áºŃy
Ġt iÃªm
Ġt áº¡p
e y
Ġt áº¥m
ĠLu áºŃt
er v
ĠC Æ¡
O V
Ġt uy
ĠB iÃªn
Ġl áº¯ng
at a
Ġph áºŃn
t s
ĠGi Ã¡m
Ġm Å©i
ĠG iá»
Ġtá»ĵ n
2 8
Ġ on
Ġ2 8
Ġd Ã¡m
Ġc uá»ĳn
Ġm iÃªu
Ġng ang
un d
o ur
Ġn á»Ĺi
Ġthu a
ĠkÃ© m
ĠS A
ĠN ew
á»Ļ p
Ġb á»ĳi
i i
Ġc áº·p
Ã Ĭ
I I
Ġn á»ķ
al d
Ġb Äĥng
ĠL a
Ġx inh
ĠÄĲ iá»ĩn
Ġto p
Ġhuy nh
Ġqu Ãªn
Ġr Ãłng
Ġm ai
N Äĥm
ĠC Ã²n
Ġk im
Ġth uyáº¿t
Ġtr Ãº
į t
ðŁ ¤
ÄĲ T
Ġgi Ãłu
Ġl an
Ġtr Ã´ng
Ġv ideo
er a
i o
0 4
Ġbá»ĳ n
Ġm Æ¡
Æ ¯
ĠÄĳ ua
Ġch iáº¿u
ĠÄĲ Ã³
Ġ á»§ng
Ġkh áº¯p
Ġd uyá»ĩt
Ġng uyá»ĩn
Ġth Ã´n
Ġáº¤ n
Ġb Ãło
y r
Ġk Ã¨m
Ġthá» ¥
Ġch áºŃm
Ġngh Ã¨o
Ġn á»Ĺ
Ġv ua
ĠT op
Ġng á»«ng
ĠH Æ°ng
T V
ĠTh Æ°Æ¡ng
Ġc l
or ld
o y
Ġv Ã©
as t
Ġx u
ĠPh an
n et
C on
ĠH y
ag ue
ÄĲ Ã¢y
Ġng Æ°á»£c
ĠÄĳ Ã¨n
ĠH Ã¹ng
ĠB ÃŃ
Ġx o
Ġh iá»ĩp
Ġc o
ĠV N
Ġ2 9
Ġc Ãº
Ng uyá»ħn
Ġdá»± a
Ġc áº¥m
ĠÃ Ĳ
ĠÄĲ oÃłn
Ġhá» ģ
âĢ Ļ
Nh Æ°ng
Ġx Äĥng
Ġng o
Ġd á»©t
á»Ĺ ng
ĠM y
Ġng Ã´n
ĠtÃ¹ y
Ġb á»Ŀ
ac e
H iá»ĩn
H Ãł
b er
Ġl á»ĳi
Ġk á»ĭch
ĠÄĲ Ãło
Ġtr á»ĵng
Ġl áº«n
Ġthá» ķ
Ġ uy
Ġs Ãºng
ĠNg oáº¡i
Ġh Ã¨
Ġm áº¡ch
Ġph a
Ã Ģ
Ġi Phone
ĠT R
Ġtr á»«
ĠT Æ°
T H
ÃĶ NG
Ġs á»©
ĠH uy
ic k
Ġf or
el lo
Æ°á»Ľ p
Ġt ung
ĠT á»Ń
ĠPh Ãºc
an t
Ġth Ã¹
V N
S Ã¡ng
Ġh uáº¥n
ĠÄĲ á»ĥ
Ġk m
ĠH Ã³a
Ġv Ãµ
áº³ n
ĠD u
as ia
C Ã´
ĠC á»Ļng
Ġtr áº¥n
G iá»
ĠS p
Ġn áº¯ng
ar e
s ite
ĠÄĳ áº£ng
Ġl a
ĠÄĳ Ã²i
Ġm Æ°u
ĠT iáº¿n
Ġc Ãł
ĠTr iá»ģu
Ġtr Ãºc
o h
ĠÄĳá» ĩ
Ġl Å©
Ġkh Ã³c
ĠTh e
Ġgh áº¿
L Ãł
ĠÄĲ á»ĭnh
ĠP r
Ġngh Ã¬n
Ġh Ãło
2 00
Ġ áº©n
Ġchá» ¥c
ap p
ĠGi Ã¡o
0 1
Ch Ãło
Ġtá» ĩ
Ġs á»¯a
Ġth uyá»ģn
iáº¿ c
2 9
m ar
4 4
ĠC ao
7 8
Ġthá» ıa
Ġg Ã³c
i es
Ġm áº½
Ġtr Æ°Æ¡ng
Ġ19 9
Ġh áº¹n
ĠM ob
Ġn Ã©t
Ġb Ã¨
ĠÄĳ Ã¡o
s on
Ġt Ã¡
Ã© m
ĠD Å©ng
Ġá» ŀ
Ġhuy áº¿t
Ġ201 5
ĠV iá»ĩc
Ġth áºŃn
ĠÄĳ uá»ķi
Ġl áº·ng
Ġg ame
Ġg Ãł
ÃĬ N
m an
Ġg Æ°Æ¡ng
á» ŀ
Ġt Ãºi
Ġvá» Ŀi
ĠÄĲ áº¿n
ĠH iá»ĩn
it h
Ġs á»ķ
ĠH iá»ĩp
Ġchá»§ ng
ĠS Ãłi
Ġch áº¡m
ĠN G
Ġb á»¯a
Ġng á»įt
Ġ19 8
ĠKh oa
ĠW orld
ĠTh i
áºŃ c
Ġhá»ĵ ng
ĠV Ä©nh
Ã¹ m
ĠcÆ¡ m
Ġn Ãªu
Ġh Ã¹ng
ĠTh Æ°á»£ng
t el
ĠĠ Ġ
a ch
Ġl Æ°ng
Ġh áº³n
Ġ áº¥m
Ġsá»ĳ t
Ġnh áº£y
Ġb á»¥ng
Ġb Ã£o
Ġqu áº£ng
Ġc Æ¡n
l ist
Ġl Æ°á»Ľi
ort en
Ġtr Ã¹ng
Ġch áº·n
Nh iá»ģu
Ġm áº¡c
Ã ģ
ĠTr Æ°á»Ľc
ĠlÃł nh
qd nd
á»¥ y
ĠTh Æ°á»Ŀng
sh orten
Ġv ÃŃ
Ġ6 0
iv e
Ġt áº£ng
T P
Ġ u
Ġ201 8
Ġ al
Ġ201 9
Ġr á»ĳi
Ġth Æ°á»£ng
Ġtr Ãºng
Ġhá»ĵ n
ĠV Ãµ
% .
er n
Ġb áºŃc
s k
£ t
ĠÄĳá» īnh
ent u
Ġg áº¥p
Ġ im
on ald
ĠÄĳ Ãłi
3 5
V Ãł
di ent
ĠC áº£nh
Ġdi entu
ub qd
Ġth ai
dient ubqd
Ġ201 6
Ġv á»Ļi
Ġph Ã¡n
Ġr au
Ġchá» Ł
Ġlo áº¡n
Ġ3 1
ĠViet nam
um p
ec k
á»Ļ m
Ġl Ã¢m
Ġh á»§y
Ġth áºŃp
Ġtr i
c o
TT O
á»§ i
ĠTr Æ°Æ¡ng
Ng h
Ġs áº¯t
Ġg Ã£
ĠT áºŃp
ĠÄĳá» £t
ĠTh á»§y
Ġv Æ°á»Ŀn
ĠA pp
Ġc Äĥng
k g
ĠF acebook
Ġm áº¯n
Ã© n
T á»ķng
ic e
ĠG Ã²n
ĠC ity
or k
Ġch áº¥n
Ġch áº¥m
u ch
áº¥ c
Ġx Æ°a
0 2
Ġlá» «a
u g
ĠNh iá»ģu
ĠL I
ĠÄĳ Ãł
i en
ĠB ar
Ġn á»Ļp
Ġhá»Ļ p
, ...
Ġgi áºŃn
t y
Ġph á»©c
ĠTr á»įng
i et
Ġtr Æ°ng
od e
ĠV iá»ĩn
Ġph Ã¡i
V á»ģ
Ġkhu Ã´n
Ġd Æ°
Ġb Ã²
A M
ĠKh u
Ġho Ã¡
Ġph u
6 0
Ġgi áº£ng
ĠG r
5 5
Tr ung
á»į a
ĠV áºŃy
Ġ j
ĠV inh
Ġ5 00
Ġng Ãłn
Ġth Ã¡ch
' .
ĠT Ã¢m
Ġv Æ°Æ¡ng
B Ãªn
ĠD uy
Ġg á»¡
Ġp r
Gi Ã¡
ĠM a
ĠB Ãªn
Ġm Ã¡t
ðŁĺ Ĥ
Ġkh Ã¡ng
Ġv áº¿t
Ġb Ã£i
Ġc á»±u
Ġx á»©
ĠNgh á»ĩ
S E
Ġb á»ģn
Ġhá» ©ng
á»Ľ t
Ġc om
Ġk iá»ĩm
Ġth áº±ng
! !
Ġh Ãłm
Ġt Ã¡n
Ch iá»ģu
ĠT IN
Ġtr á»¯
el s
ĠIn d
Ġ201 7
in es
Ġkh ung
Ġhá» ķ
Ġth áº£i
Ġk Ã¬
Ġch Ã³
Ġph Ãº
3 3
u k
Ġqu ang
Ġng á»±a
E N
ĠÄĲ H
6 6
C B
Ġgiá» ıi
ĠAn d
Ġs áº¡n
bo x
ĠD i
r os
ĠTop list
H ai
ac t
ĠPh Ã¡t
g le
is s
Ġvá» ¡
4 8
ĠTH PT
Ġc Æ°á»Ľc
at h
U Y
á»¯ u
ĠCh á»ĭ
ĠIn ter
ĠL Ãło
ĠlÃł n
Ġh uá»ĳng
ĠCh iáº¿n
Ġr áº»
r id
Ġth áº£m
Ġd inh
ĠPh áºŃt
ÄĲ áº¡i
Ġtá»ı a
Ġs Ãłn
Ch á»ī
ĠC áº§n
ĠG D
am es
Ġkh iá»ĥn
on es
ĠthÆ¡ m
4 7
Ġkh Ã´
ĠTr ump
an s
oo gle
ĠThu áºŃn
Ġgi áºŃt
ĠÄĳ áº¿
g i
H ello
ĠNh i
al ia
Ġ Ã´m
Ġng Ã£
áº¯ k
ĠÄĳ Ãłm
t a
V Ã¬
Th Ã´ng
Ġc Æ°á»Ľp
ĠB Ã¡o
ĠTP HCM
V iá»ĩc
B Ãł
ĠLI ÃĬN
ĠÄĳo áº¡t
ĠHá» Ĩ
l l
g e
Ġ19 7
s ia
Ġch áº£y
Ġn Ã£o
Ġkh en
D o
ĠGi áº£i
Ġch Ãºc
Nh Ãł
e ar
Ġb á»ĵi
Ġkh áº©n
ÄĲ Æ°á»£c
a w
. \
ĠH CM
k m
i er
Ġtr áº§m
ĠTh iáº¿u
ĠB Ã¡c
ĠÄĲ á»ĳi
Ġ3 5
ĠQu á»³nh
ĠHu áº¿
Ġb Ã³
Ġlá» Ĺ
Ġkho Ã¡n
Ãª nh
ĠD á»±
Ġd Ãły
OV ID
áº« y
Ġchá» «ng
Ġl áº»
Ġg á»Ĺ
3 9
Ġg á»£i
M á»¹
ĠLe ague
ĠL Æ°u
ĠÄĳ áº¡n
6 8
ĠB áº¡ch
Ġm Æ°á»Ŀi
Ġth áº§u
ĠÄĲ áº·c
Ġnh i
TH ÃĶNG
ĠH Ã£y
Ġr es
ĠS a
ĠNg uyen
Ġf an
ĠL Æ°Æ¡ng
ĠÄĲ Ãłi
Ġm Ã¹i
ĠC OVID
p age
Ġt Æ°á»Ŀng
f acebook
ĠC Ã¡i
Ġt Ã¢y
Ġd ao
Ġng áº¡c
L B
Ġthá» Ŀ
ip p
r am
Ġ0 8
ĠNg Ã´
ĠH áº¡
m ent
ðŁĳ ī
ĠT áº¥t
ĠS á»±
ĠM al
ĠM Ã£
Ġtiáº¿ c
Ġtho áº£i
ĠCh u
ĠL Ãºc
ion s
Ġtr á»ĳn
Ġ 000
ĠTh áº£o
Ġs t
Ġph Ã¡o
ĠQ uy
Ġx áº¿
Ġth iá»ĥu
Ġ7 0
ĠÄĲ Æ°á»Ŀng
3 8
Ġl áº§m
ĠCh Æ°Æ¡ng
en n
3 7
Ġho ang
ĠV in
ĠD ung
Ġng áºŃp
Ġ á»ĳng
ÄĲ ND
ĠP H
âĿ¤ ï¸ı
Ġh Ã´
oo d
ÄĲ áº¿n
ðŁ¤ £
ĠkÃª nh
Ġc Ãłi
Ġt an
Ġgi Ã¢y
Ġh áº£
ĠH á»¯u
Ġ201 4
4 0
ĠL ai
ĠÄĳ c
Ġr Äĥng
ĠÄĳ áº³ng
Ġt áº¯t
Ġ áº©m
1 00
Tr Ãªn
ĠC ar
ĠD Ã¹
Ġx Æ°Æ¡ng
Ġqu á»¹
ĠH á»įc
Ġth ang
ĠÄĳ áºŃp
ĠApp le
e z
Ġkh ÃŃch
Ġh iáº¿m
Ġtr Ãło
r us
Ġk ÃŃn
ĠL oan
as h
Ph Ã¡t
Ġc u
Ġch á»ĳi
Ġho áº£ng
Ġt Ãºy
i x
Ġth Æ°á»Ľc
o ol
us tr
ĠS ao
Ġ Ã©p
ol l
Ġt ao
Ġm á»ĩnh
Ġm á»ĩt
Ġd á»įa
ĠTh á»Ŀi
ĠC an
am s
Ġb áº¡o
ĠH áºŃu
Ġ Ã¡c
ĠTr Æ°á»Łng
Ġ201 0
I á»
ĠB l
Ġn on
ĠT am
ĠÄĳ ai
ĠU y
Ġv a
Ġ3 7
ĠÄĳá» ©c
4 9
Ġch e
Ġc á»Ļt
3 6
á»¥ i
os t
ĠÄĳ áºŃm
Ġnh Ã¡nh
Ġtr áº¡i
Ġb Æ°á»Ľ
ww w
ĠTh Æ¡
Ġb áº¯c
ĠH Ãłng
Ġt Ä©nh
Ġch á»ĳt
c t
Ġhá» ©a
ĠT a
Ġn áº¥u
Ġkh áº¥u
Ġd e
ĠA m
ĠC Æ°á»Ŀng
Ġc á»Ŀ
ĠM áº·t
Ġb á»Ĺng
ĠĠĠĠĠĠĠĠ ĠĠĠĠĠĠĠĠ
ĠÄĳ áºŃu
X H
Ġ3 6
Th á»Ŀi
s en
ĠM U
Ġtr Ã²n
ðŁĺ į
Ġb áº¿p
Ġ3 00
â ľ
Ġl ÃŃnh
ĠÄĳ Ã¢m
ones ia
5 8
Ġtr ÃŃch
Ġd Ã¢u
c a
Ġchu á»Ĺi
Ġtá»ķ n
Ġx Ã¢m
ĠH ar
Ġ6 8
Ġru á»Ļt
Ġd iá»ĩt
Ġc áº£n
Ġs áº¯m
Ã¹ y
Ġng á»±c
3 4
Ġc áº¥t
ĠÄĲ á»ĭa
Th e
S G
Ġd áº¡
5 00
Ġv ang
Ġf ile
ĠM áº¡nh
ĠQ uyáº¿t
Ġn Æ°Æ¡ng
f t
iv er
ĠA i
ind ow
Ġtr Ãł
ĠNh áº¥t
ĠTh áº¯ng
Ġs a
Ġt iá»ģm
Ġ8 0
Ch o
Th anh
ĠÄĳ á»ĳt
S á»±
Ġtr áº§n
ĠC LB
Ġg á»įn
ĠQu Ã½
ĠÄĳ iá»ĩu
on a
Ġtr á»©ng
Ġr o
ĠC amp
A T
ĠPh il
er t
ĠS á»ĳ
ĠÄĲ áº§u
Ġr Ã¡c
Ġb om
Ġph áº«u
Ġch im
Ġvi Ãªm
iá»ħ u
T in
Ġkho e
Ġh áº£o
ĠÄĳ e
Ġch iÃªu
ĠKh o
Ġv áº½
ĠM ad
B Ãłi
r om
Ã£ nh
an page
Ġth áº§m
in i
Ġt Ãłn
Ġi b
Ġ: ))
Ġx uÃ¢n
Ġh Ã¢m
Ġl áº¯p
ĠM á»Ĺi
Æ°á»Ľ t
ã ģ
Ġv Ã¡y
Ġc á»ı
Ġchá» Ľ
ĠÄĳ iá»ĥn
Ġg an
ĠH uyá»ģn
ĠTh á»±c
T C
ĠC l
Ġg áº¡o
ĠP l
Ġv inh
ĠTh á»©
Ch á»§
Ġt áº¯m
ĠQu an
áº¹ o
Th á»§
ĠB Ã¹i
ia l
ĠGi ao
ĠA d
Ġch eck
C Ã¡ch
indow s
ĠÄĳá»ĵ n
â Ī
us t
Ġtr á»Ļm
-- --
Ġph áº¥n
Ġs u
ĠP ro
Ġgi Æ°á»Ŀng
ĠNgh Ä©a
ĠÄĲ á»Ĺ
Nh Æ°
Ġb e
Ġ3 8
o x
ĠbÆ°á»Ľ m
ot a
Ġ =
ĠNh Ä©
Ġ z
Ġtr Ãłn
C Å©ng
ĠC á»ķ
ĠN H
igh t
; .
Ġt ÃŃ
7 7
ÄĲ á»ĳi
ĠE l
Ġmá» ī
ĠP ark
Ġm á»±c
Ġbu Ã´n
áº± n
Ġ áº£o
ĠS Æ°
Ġlá» įc
ad a
Ġe x
Ã¹ n
C Ã²n
ĠTh á»ķ
ac c
Ġs Äĥn
n a
ĠS ing
ĠInd onesia
Ġ0 6
Ġgi Ã¡p
Ġ ad
Ġ9 0
ĠP ar
Ġng áº§m
ĠL á»ħ
Ġm Æ°Æ¡i
Ġm áº£nh
Ġ201 3
an a
Ġcam era
Ġc Æ°Æ¡ng
âĪ Ĵ
Ġg a
Ġc á»ķng
Ġth áº£
ĠTr Ãªn
ÄĲ á»ĭa
áº¹ t
Ġv áº¯c
á»ı ng
Ġc Ã£i
ĠT iá»ģn
ĠchÃº a
ĠPh Æ°á»Ľc
SE AN
am b
ĠB á»Łi
Ġr á»Ńa
Ġx Ã³a
p l
ĠT Ã¹ng
ĠG oogle
Ġk iÃªn
ĠH oÃłn
Ġt iá»ĩc
Ġl Ã¢y
) :
Ġin box
ĠÄĲ Äĥng
ĠQu áº£n
Ġs ay
20 19
Ġ +
ĠH oÃłi
ĠT u
ĠC áº£
Ġc anh
uch ia
i um
C C
S ao
Ġl Ã´ng
oc k
ĠE d
Ġtr á»ĳng
Ġgi am
! .
onald o
Ġng Æ°á»¡ng
D Ã¹
T S
) ;
ĠS E
Ġmá» ıi
Ġth an
ĠH áº±ng
Ġkh uyÃªn
ĠC áº§u
Ġtr eo
e i
Ġ201 1
h one
ĠÃ Ŀ
Ġd Æ°á»Ŀng
ĠL á»Ļc
p r
Ġh Æ°
Ġth Ã¡o
ĠW indows
y l
áº« m
% ,
c on
ĠN Ãłng
Ġt áºŃt
ĠÄĳá» ģn
ĠMob i
v er
ĠQu áºŃn
ÄĲ iá»ĩn
Ġch Ã¹a
ap ore
á»¥ t
els ea
or n
4 6
eb site
Ġ is
ðŁ Ļ
V Ãło
ĠT oÃłn
ĠC Ã¡ch
Ġb áº¡ch
ic o
Ġcáº£ ng
b ank
ĠCh o
Ġth Äĥng
Ġnhu áºŃn
ĠM áº¹
Ġth a
ĠT Ãº
Ġh iá»ĥn
Ġgi áº¥u
ĠViet tel
ol d
g h
ĠT Ä©nh
ĠchÃŃ n
ĠU n
ĠÄĲ a
Ġng á»įn
yr ia
e al
ĠT á»īnh
et h
ĠÄĳ áº¡p
ĠA s
is a
S N
ĠK H
ĠÄĲ á»Ļi
ĠCh Ãºa
ar a
Ġs á»¹
Ġc á»ĳt
ĠB áº±ng
ĠGi Ã¡
ĠY áº¿n
Ġtr uyá»ĩn
Ġp ro
ot h
ĠRe al
Ġk ÃŃ
Ġt á»ĳn
Ġ201 2
Ġb á»į
kh Ã´ng
Ġv áº¯ng
ĠC uá»Ļc
ĠB iá»ĥn
Ġgi áº¥c
ĠTh áº§n
ĠB Ã¡n
Ġh iáº¿n
ÄĲ á»ĵng
Ġs Ã¡u
p ort
Ġl Ã´
Ġs Æ¡n
Æ°á»£ n
5 6
ĠÃ ļ
ĠTh iáº¿t
m a
Ġh a
e am
ĠTr iá»ĩu
Ġl ang
ĠA SEAN
Æ°á»¡ i
igh ts
ĠÄĲ T
Ġvá» ı
Ġb á»ģ
Ġd á»įc
Ã½ t
ĠbÃ© o
Ġx á»©ng
Ġh á»ĳi
Ġl áº¯c
Ġngo Ã¡i
Ġt Ã¢n
Ġvi rus
ĠÄĳ áº¯t
ĠlÃ£ ng
Ġn Ãºt
I b
Ã¬ a
á»© a
5 7
Ġhá» ıng
ay sia
k y
ĠTh á»¥y
Ġtr áº¡m
ĠT Ã´n
m p
ĠM ua
C N
ĠCamp uchia
Ãº n
á» µ
e k
ĠTh Æ°
© t
Ġgi Ã£n
ĠÄĳ eo
4 3
ic a
Ġm i
ĠC r
Ġnh Æ°á»£ng
c el
Ġtr á»įn
ĠA ir
ar y
Ġcl ip
le y
ĠI s
ĠPh Æ°á»£ng
Ġsh ow
ĠHu á»³nh
ĠN Ã´ng
m m
ĠK áº¿t
ĠL Ã£o
Ġc á»¡
ĠK iá»ģu
: âĢĵ
O S
Ġp in
Ġch ua
ĠSing apore
ro id
£ n
h a
l a
ĠT Ãłu
Ġd Æ°á»£c
Ġ Ã¡i
Ġch Äĥng
ĠTh Ãºy
as hi
Ġtr Æ°a
Ġt Ãºc
ĠB H
e ng
ĠÄĲ Æ°á»£c
ĠK iá»ĥm
ĠC T
á»Ľ p
oh n
ur e
ĠPhil ipp
ÄĲ Ã³
ĠG al
Ġhá» ıa
Ġg áºŃt
Ġch áº½
ĠL y
ĠA ustr
Ġb Ã¹ng
ess i
3 1
am a
Ġtr á»¥c
Ġw ith
Ġt Ã¡ch
ĠlÃ£ m
Ġb á»Ļt
ĠS yria
Ġm Ã¡
Ch Æ°Æ¡ng
ĠG ames
ie u
Ġd uyÃªn
Ġh áº§m
ĠS Ä©
± ng
l and
ÃŃ a
Ġnh Ãłng
Ġgi Ãły
Ġvá»£ t
Ġm iáº¿ng
Ġph á»ıng
Ġm Ã¢y
Ġqu Ã¡i
h o
ĠÄĲ inh
Ġx Ã³m
ĠN a
Ġt Ãłng
Ġtr Ã´i
Ġr Ã£i
Ġm áº¡o
Ġn á»Ł
or m
ĠT T
ĠM i
Ġl ink
Ġs Ã¡nh
Th áº¿
5 4
am in
Æ°Æ¡ n
ĠS ong
Ġtr iá»ģu
Ġc áº©n
ĠG u
6 7
á»Ń u
Ġng áº¯m
ter s
s e
Ġtá» ©
ĠM áº·c
Ġr á»§i
á»ĳ p
ĠD N
? -
ĠN ai
ĠC P
t o
ĠT im
Ġr Ãło
Ġm Ã¬
ĠÄĳ iá»ĩp
th Ã¡ng
Ġl á»ĵ
Ġon line
Ġt ang
V iá»ĩt
Ġ #
ĠMal aysia
Ġm y
á»ĭ n
Ġl iá»ģu
Ġ Ã¢n
Ġr áº¯n
op h
Ch ÃŃnh
Ġkhu áº©n
ĠNg hi
ĠÄĲ áº·ng
ĠAl l
Ġs Ãºt
Ġs Ã³t
Ġ4 5
Ġ Ã¡m
A n
ro up
ĠS inh
Ġc Ã¡t
ĠTr uyá»ģn
ĠTh áº¡ch
Ġng u
Ġ app
Ġb á»ĳc
Ġs Ã´i
Ġc ode
ĠC Å©ng
L Ãłm
ĠNg ay
e ch
ĠI I
Ġv iá»ħn
ĠC M
Ġt Ã´ng
ĠX Ã¢y
ĠO n
Ġtho Ã¡ng
y m
Ġm Ã£n
Ġso áº¡n
5 9
Ġn Ã¨
is h
C o
ĠD e
G B
ĠL ao
ĠÄĳ Ä©a
L e
Ľ t
ĠPh áº£i
ĠC Ã¡t
Ġb Æ¡i
ĠS u
Ġnh á»ī
ĠR á»ĵi
Ġng á»«a
Ġth Ã³i
c k
ĠTh á»į
erv ed
Ġkh Ã¡t
Ġ3 2
Ġv Ã¢y
Ġn Æ°á»Ľng
ĠCh Ãłng
D á»±
ĉĉ ĉĉ
Ġng Ãłi
ĠHu á»ĩ
ĠTr á»ĭnh
B V
ĠC á»¥
u ong
Ġh i
ĠE r
L iÃªn
C H
Ġl ong
ond a
Ġr á»¡
in o
T iáº¿p
Ng ay
ĠGi áº¥y
Ġm á»ĳc
' s
Ġk g
le x
Ġxo ay
ĠÄĳá» ±ng
Ġph un
F one
ĠV á»ģ
ĠN á»¯
ĠT iÃªu
Ġlá» £n
Ġkh á»ķng
V áºŃy
o ut
C S
ĠC am
Ġd Ã¢m
ĠB Ãłi
á»ĳ m
ĠCh ung
Ġnh á»ĭp
ĠCh elsea
Gi áº£i
áº ¾
ur o
Ġng Æ°
Ġm á»¥
S á»ĳ
C á»¥
ĠMad rid
Ġl ÃŃ
ot e
ÄĲ Äĥng
ĠGiá» Ŀ
ik e
3 2
ams ung
t u
ĠT Ã¬nh
M áº·c
an i
Ġb á»Ľt
V á»¥
ĠS c
Ġv áº£i
ĠI t
Ã Ĥ
C T
n Äĥm
ĠTr inh
Ġtr áºŃt
Ġl Ã¹i
Ġt Ã¡o
Ġl Ã¹ng
ĠH á»ĵi
n er
Ġh ung
Ġc m
ist an
Ġb áºŃn
Ġh Ã²
Ġb Ã¡
Ġ %
Ġd Ã£
Ġ at
ĠT áº¥n
Ġb á»¥i
Ġs Æ°u
E mail
ĠS er
ĠM S
l or
Ġb áº£y
Ġb ia
ĠÄĳ iÃªn
C uá»Ļc
Ġng á»Ļ
Ġv Ä©
S h
ĠS an
ĠK iÃªn
. âĢĿ
Ġb Ã¡m
Ġth Ã©p
Ġb i
Ġm uá»ĳi
T Ãłi
ĠTr Ãł
ĠÄĳ am
Ġm Ã©t
Ġd Ãłn
Ġh Ã£i
Ġ200 8
Th á»±c
E U
sen al
k k
Ġl eo
ĠH iáº¿u
ar l
Ġnh Ã£n
Ġh áº±ng
nh ttps
ax y
Ġch uyá»ģn
Ġt á»§
Ġchá»£ t
ĠN Ã³i
á»ı i
ĠH a
ĠMobi Fone
ĠÃ Ķ
K áº¿t
p ool
r on
Ġmu á»Ļn
ĠC om
C P
ĠH áº¡nh
it s
Ġdá»ĭ u
ĠT uyÃªn
ol a
Ġn Ã©m
Ġnh áº«n
Nh Ã³m
ĠV I
Ġb Ã¡t
ĠCh amp
Ġtu Ã¢n
Ġd áº¯t
ĠInter net
mar tp
N Ã³
hi p
H oÃłng
Ġb áº¿n
Ġb Ã¹
C Ã¹ng
âĢ į
es ter
ĠJ ohn
martp hone
Ġch áº©n
oy ota
ĠH iá»ģn
A S
en c
Ġ as
Ġs et
Ġlá» įt
Ġr Ãł
o ft
ĠAnd roid
N Ã³i
o e
ĠPh áº§n
ĠTh am
ĠX in
ĠPhilipp ines
ĠÄĲ áº¯k
al o
iver pool
Ġch Ã¬m
Ġh Æ°u
Ġm Ã³c
Ġph áºŃt
ĠC o
er m
an e
Tr Æ°á»Ŀng
ĠAustr alia
ĠHá» £p
Ġnh Å©ng
Ġchu á»Ļt
ens is
6 9
ĠT á»±
C Æ¡
ĠX Ã´
Ġm au
NH H
ak e
Ġx á»ī
Ġth iá»ĩp
Ġ á»ĳc
ul l
ĠT o
ĠT iáº¿ng
ĠK áº¿
Ġgh Ã©
Ġ0 90
Ġb Ã´ng
Ch i
201 8
Th u
x i
ĠÄĳÃ³ i
ĠC Ã¹ng
ĠÄĳá» Ľi
Ġ0 5
ĠT NHH
Ġmá» Ŀ
Ġv u
V iet
Ġv áº¹n
Æ ł
d a
ng Æ°á»Ŀi
Ġt Ã´m
Ġm Ã¹
ĠV Ãło
Ġnh an
á»ĩ n
Ġth Æ°a
an n
Ġtr iá»ĩt
ĠM in
Ġl Ãºa
M Ã¬nh
Ġch Äĥn
ĠL á»ĩ
ĠH O
ĠTH I
Ġtr á»«ng
Ġd ÃŃnh
H oa
ðŁĳ ĩ
Ġs tr
4 1
Ġ3 9
ĠL Ãłm
ĠM essi
ĠR onaldo
Ġn á»¥
v ent
t i
ĠÄĲ Ã´
ĠY ork
ĠTh áºŃt
Ġtá»± a
Ġr ights
A O
ĠTuy áº¿t
ĠSE A
ĠB Ã¢y
Â ©
ĠG eo
Ġqu Ã¡t
ĠÄĳá» Ĺ
Ġr á»±c
7 0
Ġs p
b um
Ġthá» £
Ġmá» ¡
Ġb á»įc
á»§ a
6 5
ĠC N
S C
Ġv Æ°á»Ľng
ĠE x
Ġ200 9
ĠÄĲ áº¥t
Ġlu i
Ġch Ã¡n
Ġng á»£i
Ġres erved
Ġth Ã¢m
X e
om e
ĠH á»ĩ
Ġb Ãª
S á»©c
Ġp l
ly mp
c Ã³
k e
ĠS ch
Ġt iá»ħn
er c
ĠM Ã¬nh
â Ļ
ĠI ran
as e
Ġl Ã¡t
ĠX Ã£
Ġho an
al e
Ġweb site
Ġm en
R S
Ġx áº¡
c c
Ġ4 00
Tr áº§n
Ġm an
7 9
j ect
Giá» Ŀ
os e
ic t
S D
ĠTr á»ĭ
H Ã£y
Ľ n
ĠL am
Ġd á»įn
Ġth at
ĠTr á»Ŀi
ov ic
ĠB áº¥t
v e
Ġv áº£
X in
Ġ Æ°a
Th Ãłnh
7 5
á» ĥn
er e
ĠM á»įi
o áº£ng
B Æ°á»Ľc
ĠH Ã¡n
ĠChamp ions
ÄĲ V
Ġh ttp
F F
ĠÃģ nh
p t
ra z
N á»¯
Ġnh áº¯m
I C
acc ine
4 2
ĠCh áº³ng
ĠH Ãłnh
I n
T M
Ġn á»ĵng
ĠÃļ c
ĠÄĳ Ã¹a
t ain
áº ł
Ġmá»ī m
ĠTr áº»
Ġs martphone
Ġsá»£ i
BV CB
Ġh Ã´i
er o
ĠðŁĺ Ĥ
Ġr Å©
Ġd Ã¢ng
Ġk em
Ġ á»©c
ov er
g o
av e
Ġnh áº¡t
Ġlá»ĩ ch
O NG
Ġsá»ĳ c
Ġr un
V ay
ĠTh á»ĥ
Ġn á»ģ
Ġb á»ķng
ĠB Ã¡
ĠS te
ĠU ng
y a
B ank
Ġd c
ĠÄĲ áº¡o
C l
au l
v a
Ġqu Ã©t
ĠT Ã´
ĠB á»ĵ
Ġm áº¡n
ĠH Æ¡n
Ġ Æ°
Ġng Ã³n
âĢ ĭ
ub e
ĠC ol
Ġv s
ĠE U
Ġh áºŃn
t Ã´
Ġn iÃªm
ĠGal axy
A r
us e
ĠV iÃªn
ace ae
Ġtr Äĥng
ĠO lymp
ĠPh á»¥
Ng uyÃªn
Ġ >
Ġd áº¡o
g g
Ġm áº¿n
Ġl Äĥn
Ġthá» ±
ĠÄĳ Ãłnh
ĠA P
Ġh áº¹p
Ġ15 0
A Y
c l
Ġkh uyáº¿t
Ġlá» ¡
Ġm á»ĵ
* *
ng Ãły
ic ros
Ġho t
V ideo
Ġv en
ig n
Ġgi ang
Ġc ay
H á»į
it amin
W ebsite
Ġ 00
et r
ĠD I
Ġd Ã²
ĠTr ÃŃ
Ġv Æ°Æ¡n
Ġ0 1
Ġto i
Th Ã¡ng
Ġch áº£
L Ãºc
ĠS eo
ĠV á»¥
ĠM os
id e
Ġkh Ã´i
ĠPar is
ĠM ac
ĠM au
B áº¯t
Ġc áºŃy
áº· m
k a
ĠTr Ã¡i
Ġt iá»ĩm
ar i
er r
ĠV an
ĠC áºŃu
Ġn áº¡p
Ph Æ°Æ¡ng
ĠÄĲ Ãºng
en a
ĠL á»£i
ĠH Ã¬nh
ĠÄĲ á»ģ
5 3
ðŁĺĤ ðŁĺĤ
H Ã´m
p er
ĠÄĳ áº»
H Ã¬nh
Ġtu á»ĩ
Ġv áº¡n
Ġh ang
ĠKh Ã¡ch
Ġnh áº§m
id en
ĠÄĳ áº¯c
ĠM on
o áº¡n
ĠkhÃ³ i
Ġng á»¥
Ġkh á»©
ĠTh Ã¡ng
ĠM ail
ad e
or s
Ġg Ã¡nh
Ġt Ã¡m
Ġthu áº§n
Ġm á»Ļng
ĠL á»¥c
Ġw ww
in t
ĠM il
ĠÄĳ áº§m
R E
Ġl Ã´i
a a
Ġtá» Ľ
ĠH onda
Ġ0 7
ĠL Äĥng
ĠTh Ã¹y
ĠK iáº¿m
ĠF r
Ġ200 7
ÄĲ á»Ļi
.... ....
Ġc ai
c ar
á»ĭ t
ut in
Ġch inh
; #
ĠT U
ur g
Ä Ĥ
ã Ĥ
ĠP V
w s
ation al
Ġph iá»ģn
Ġm Æ°á»£n
Ġgh Ã©p
Ġth Ã¡nh
H Ãłng
ĠA b
? ?
Ġn Ã¡t
ell a
ĠB ang
Ġd á»ĳc
ĠÄĲ áº¡t
ĠL iverpool
Ġ4 8
T áº¥t
Ġd á»ĵn
e ad
% )
ĠT Ã²a
h ttps
Ġmá» ıng
Ġph á»ķi
ĠB ÃŃch
Ġkh Ã©o
Ġs áº¡c
Th á»©
ĠM o
ĠL áº¡c
Iá» Ĩ
ĠAr senal
e en
Ġthu áº«n
Ġmá» ı
Ng a
ĠS amsung
ĠT uá»ķi
Ġquy áº¿n
Ġl áº¡m
icros oft
Ġ |
C Ã¡i
ÄĲ áº·c
C Ã¢u
G S
Æ¡ m
Ġch Æ°á»Łng
at ch
Ġlá»Ļ n
Ġch ai
Ġm áº§m
Ġbu Ã´ng
Ġb Ãºt
ĠT Æ°á»Ŀng
Ġin ch
ĠV Ã´
Ġnh á»±a
Ġcá»¥ m
Ġx áº£
ĠH áº¯n
ĠL Ãł
ĠR ob
ĠKh anh
6 3
ĠQu a
M á»Ľi
5 2
N á»Ļi
ðŁ Į
Ġc áº¯p
Ġh uyá»ģn
l in
ĠT oyota
Ġv oi
ĠÄĳ uÃ´i
ĠI S
H i
I A
Ġn o
Ġng á»įc
F anpage
Ġc áº¯m
ĠV Å©ng
Ġt est
Ġm áº£ng
ĠÄĲ an
ĠNg Æ°Æ¡i
on y
Ġnh o
m en
Ġs im
B Ã¬nh
Ġc ua
Ġl Ã²
or y
H á»Ļi
raz il
Ġkho áº£nh
Ġb Ã¨n
Ġg áº¥u
ĠTh á»ĳng
ĠV y
M áº¹
á»¥ p
âĢį âĢį
ĠÄĳá»ĵ i
Ġh oÃłi
ĠH an
x y
et t
ĠL áº¡t
e h
ĠC ai
ĠH ÄĲ
Ġv áº¥t
Ġng Ãło
B Ã¡o
ÄĲ iá»ĥm
ĠCan ada
Ch Äĥm
G ia
M á»Ĺi
9 8
Ġth Ã¹ng
A i
ÄĲ i
g ent
Ġd Ä©
Ġd á»ĳi
iz e
Ġgh Ãª
B á»ĩnh
ĠCM ND
ĠOn line
Ġm e
g iá»
Ġc Æ°á»¡ng
Ġv accine
Ġbá»ı ng
ĠĠĠĠ Ġ
Ġh Ãł
ĠT S
Ġtr á»Ļn
ðŁ¤£ ðŁ¤£
ĠC ung
ĠNh u
Ġt Æ°á»Ľc
ĠS o
ĠC a
ĠA ng
H o
y n
ah a
A I
Ġl á»Ł
Ġhá» Ł
t op
Ġin ter
Ġd á»Ļi
el d
Ġchi p
Ġl áº¥p
Ġ <
Ġh u
Ġc á»ĳc
ĠPh á»§
Ġb y
ie w
il d
Nh Ã¢n
ĠCh Ã¡nh
Ġ Ã¡
Ġt áº¿t
ÃŃ u
E D
X em
E T
ĠM ay
F A
ĠS al
ĠP utin
ĠB u
C áºŃp
ĠC al
Ġm á»ķ
Æ¯ á»
ĠM C
201 7
en z
Q uÃ¢n
Ġh iá»ģn
á» Ĳ
b a
u ters
i us
Ġy áº¿t
Ġch Ã©m
Ġc á»ĳng
T a
ã ĥ
ðŁĺ ĺ
Ġtr Ã¡ng
L Ã½
Ġkho Ã¡ng
Nh Ã¬n
ĠC áº©m
H Æ¡n
T Ã¬nh
Ġch Ã©p
ĠX e
C áº£m
O N
M inh
Ġkho Ã¡c
ĠD á»ĭch
ĠTh á»«a
ĠC uá»ĳi
201 6
Ġmá»į c
Ġkh iáº¿u
ar ia
Ġg á»ĳi
Ġh oÃł
ĠB ao
Ġo i
H Æ°á»Ľng
ĠNg Ã£i
ĠThá»ĭ nh
ĠÄĲ Ã£
ĠÄĲ á»«ng
Ġgh Ã©t
u di
ĠC Ã¢u
Ġm Å©
D inh
Ġh eo
ĠH Ã´m
es e
ĠB iden
ĠB áº¿n
Ġc Ãºi
al y
an ce
Ġthá»ķ i
ĠD anh
ĠDo anh
áº ¬
Ġ2 000
Ġr áº¡ng
ĠÄĲ iá»ĥm
ashi ng
B an
ĠâĢ ĺ
at t
Ġtr Ã¢n
Ġal bum
. &
7 6
į a
Ġch Ã¢m
Ġnh áº¡y
ĠOlymp ic
is e
em ent
Ġl áºŃt
âľ ħ
ol f
Q ÄĲND
Q ua
ĠÄĳá» Ľn
ĠO p
ĠV Ãłng
ĠH ang
Ġhá»Ĺ n
ĠM art
ashing ton
ĠM c
Ġ1 20
ĠTh Ã¡nh
Ġm Ã¨o
ak a
ĠÄĲ i
ot t
ĠD AN
Ġtho áº£ng
ĠÄĳ ao
Ġ3 3
Ġcom p
ĠD av
V OV
ĠNh ung
D áº¡
Ġ ong
im e
Ġs erv
ÄĲ áº§u
ev el
Ġ200 6
ĠTh Ã´i
Ġt uyáº¿t
ĠUy Ãªn
Ġth Ã´
Ġd áºŃp
Ġgi Ã¡n
B C
ĠT iáº¿p
ĠÄĳ áº±ng
Ġkh Æ¡i
Ġtr Æ°á»£t
Ġl á»ĵng
ĠY ou
L Ãª
ĠA I
ĠA t
y o
âĿ¤ï¸ı âĿ¤ï¸ı
Ġc j
Ġs c
w it
Ġcá»§ ng
ĠC S
Ġl áºŃu
Ġth Ã¡p
Ġm Ã¢u
ĠS Ã¡ng
s o
Ch Ãºc
A l
Ġl am
ĠT áº§n
ĠTh Äĥng
ĠB razil
ĠT inh
ĠÄĳá» ©t
i u
Ġb áº¿
UY EN
Ġl Æ°á»¡i
Ph Ã³
ĠO b
gent ina
ĠB ay
ĠV ÃŃ
ov e
Ġm Ã²
Ġx Ã¡ch
ĠS áº£n
5 1
Ġr Ã¨n
Ġ up
ĠBH XH
Ġb áº¥m
201 5
ra el
ĠA lex
ĠM á»Ļc
Æ°á»Ł i
H LV
Ġv itamin
r ist
Ġc ong
Tr áºŃn
Ġv áº·t
e an
Ġ8 4
Ġkh áº½
m y
ap h
3 00
Ġng Æ¡i
Qu áº£ng
t d
ĠC áº£m
Ġm Ãłng
m er
ĠK iáº¿n
ĠCh Ã¢n
ĠW ashington
ĠM ich
Ġm á»Ļc
ĠN Æ°á»Ľc
ĠB Äĥng
ĠQu Ã¡n
ber g
ĠM Ã´n
C áº£
ĠC Ãł
Ġ áº¥p
ĠTr Ãºc
C áº£nh
p e
v ov
Ġm ÃŃt
ol e
ÄĲ Ã£
Ġthá» į
Ġtr Ã¹m
l et
Ġt Ã²
ĠH ay
Ġlu á»ĵng
Ġkh á»Ľp
Ġs Æ°á»Ľng
ðŁĺį ðŁĺį
ĠTh áºŃm
SG T
TV T
âĿ¤ âĿ¤
ch e
Ġkh Ã¢u
Le ague
im a
iv es
ĠRe uters
B á»ĭ
K im
ĠC á»Ńu
ĠC á»©
f ord
Ġd Ã¬
Ġtho Ã¡i
ro w
6 4
C áºŃu
r is
S t
8 0
Ġtá» įa
Ġhá» ¥
lo w
ĠL á»±c
Ġd ata
m á»Ļt
ot te
ĠX II
Ġlá» ģ
Ġl Äĥng
Ġm áº»
Ġm Ãºa
B S
Th Ã¡i
ĠM as
Ġtr á»į
ĠO s
Ġs Æ°Æ¡ng
Ġc Ãºng
C uá»ĳi
I M
ĠQu á»¹
Ġmu á»Ļi
ĠP al
m e
Ġl Æ°á»¡ng
B a
ĠA g
ĠX uyÃªn
ĠT Äĥng
Nh áºŃn
ĠR om
ĠNg uyá»ĩt
Ġem ail
ie v
Ã į
et a
ĠtÃŃ m
T á»ĳi
ĠGr and
ĠM Ã´i
inh o
ic s
H á»ĵi
h am
ul a
Ġvá» Ł
ĠH C
Ġn áº£y
E O
Ġcu á»ĵng
Ġth Ã¨m
Ġg Ã¡c
ĠÄĲ á»
ĠS tr
B áº£o
Ng á»įc
ĠM icrosoft
Ġn áº§y
8 9
ĠK á»¹
Ġth áº¯t
a el
Tr ang
D C
Ġchá» Ń
. "
ĠO anh
Ġng Ãµ
Ġx Ã´ng
ĠA c
v an
Ġ âĪĴ
1 000
ĠS un
ĠC Ãºc
ĠÄĳ áº¯p
? &
ĠH ong
ĠE n
ĠgÃ¬ n
Ġf rom
ov a
_ _
ĠCh a
e u
A G
y c
Ġn áº¥m
Ġkh Ã´n
it or
Nh áºŃt
cel ona
at er
H á»ĵ
ing s
AT O
Ġkho áº»
Ġx Æ°á»Łng
Ġlá» ıng
w ard
ĠB e
Ch Ãłng
el a
ĠQ U
ĠNg Ãłi
Ġ3 4
Ġv Ãº
M á»įi
Ġtr á»Ļi
Ġc á»±
b ia
ĠT á»ĳng
k o
Ġ5 5
/ .
f r
AN H
C áº§n
Ġ it
ĠNh Æ¡n
ĠM us
I nd
ĠAr gentina
ĠL áº§n
Ġngh iÃªng
Ġg Ã£y
Ã² m
Ġth áº¥u
Ġr e
ĠT V
ĠG re
Ġd áº·n
Ġs uá»ĳi
Ġph anh
l Æ°á»£ng
Ġb á»Ļi
ĠSh op
Ġch Ãª
¯ a
Ġng á»Ļt
Ġl Æ°á»Ľt
Ġ Ãło
Ġm od
ne y
ĠB Ã¡ch
ĠÃ´ tÃ´
Ġho Ã£n
E C
M Ã£
Ġc áº¯n
ĠÄĳá» ¥
ĠTh Ã¡p
ul t
Ġ7 5
E X
ĠF anpage
ĠBar ca
Ġkh Ã¡i
ĠÄĲ á»Ļng
ĠÄĳ iá»ģn
ĠT ÃŃnh
ĠK iá»ĩt
9 5
ĠS m
ĠD iá»ħn
áº» o
Ġl áº¥n
Ch uyá»ĩn
Ġr ung
ĠHar ry
it ed
Ġkh e
ĠL áº¯k
al a
ĠÄĲ áº¿
ill a
Ġ am
6 2
ĠÄĲ iá»ĥn
Ġl áº·p
op er
ÄĲ á»«ng
s inh
y d
ĠPh Ã¹ng
b lo
Ph áº¡m
A ND
k s
I S
ĠM or
8 7
Ġh Ã©t
Ġth áº¡ch
Ġh iáº¿p
Ġ6 00
ĠM V
Ġ á»ĵn
Ġt am
Ġqu á»·
j ok
ĠTh iá»ĩn
ĠL ang
Ġv Ã³c
ation s
Ġh Ã²n
H á»įc
if one
Ã Ŀ
Ġb áº¯p
Ġb o
ĠB á»ĳ
áº ¦
ĠKh ang
u x
ĠH e
ĠV Ã¹ng
ĠTR I
Ġd Ã£y
Ġb áº¥y
ĠG TVT
ĠÄĳ Ã²n
Ġkh iáº¿p
ĠC Æ°Æ¡ng
ch o
an th
ĠCh áº¯c
V Äĥn
is tr
S á»Ł
Ġng Ã¢m
op ter
un t
Ġk áº¹t
Th áºŃt
Ġc áº¡n
c m
ĠO r
Th á»ĭ
Ġl Æ°á»Ŀng
Ġx ao
ĠvÃł nh
ĠÄĲ iá»ģn
" )
ĠJ u
Ġb n
ak h
ĠR a
jok ovic
Ġd áº¡i
ĠK ar
Ġth áº¯c
Ġk iá»ĩt
an o
Ġ200 5
Ġto ur
ĠC SGT
. )
B áº£n
ĠNh á»Ŀ
ĠP et
Ġg áº¯t
ch á»ĭ
ĠLe e
á»ı a
os s
on t
ĠH áº§u
ĠH ol
ĠV al
D anh
uc t
u z
ĠIs rael
Ġd Å©ng
ĠT Ãªn
s tr
Ġ( "
Co V
ĠĠĠĠ ĠĠĠ
Ġchá»Ľ p
H ot
ĠF ed
ĠÄĳ Ã¡y
ĠL iÃªu
áº¿ ch
Tr iá»ĩu
Ġ0 93
á»£ t
os a
Ġ6 5
Ġhá»¥ t
ĠD r
---- ----
ĠC áºŃp
ĠM Ãł
ĠT Ã´ng
ĠR es
s s
ĠNh Ã¬n
it al
Ġnh á»ĭ
N et
Ġm áº·n
Ġd á»Ł
? âĢĿ
Ġng á»±
Ġkh á»ĳng
Ph áº£i
Ġ are
Tr ao
ĠS am
b y
Ġk Ä©
Ġl au
Ġng oan
m l
Ġquy á»ĥn
ĠB AO
ĠCh Æ°a
Ġv Ã¢n
T iá»ĥu
Ph áº§n
ĠPh á»¥ng
d e
Ġmá»¥ n
er y
it t
ĠL áº¡p
ĠphÃŃ m
ĠL áºŃp
Ġm m
ĠQ uyá»ģn
H O
Ã ĵ
ed ia
M Ã¡y
Ġr á»Ļn
j a
Ġn á»ĵi
ĠMail isa
Ġru á»Ļng
ĠÄĳá»¥ ng
Ġk iÃªm
Ġkh Ã©p
B Ã¡c
Ch iáº¿c
Ġc ar
und ai
ĠH iá»ĩu
h oc
ĠL Ã£nh
r en
ch i
Ġof f
Ġ Æ°ng
ĠK r
Ġm ÃŃ
ĠL iÃªm
H áº£i
Ġt Ã¹ng
Ġ200 4
ur a
Ġh iáº¿u
Ġchu á»Ļng
r l
ĠT in
Ġb áº©n
ĠTo Ã¡n
Ġ Ã³c
s p
ĠTh áº¥t
S ND
ĠOp en
ĠÄĲ á»ĵ
qu e
Ġt áº¡
ĠP C
ĠV áº¡n
ĠR o
ĠS l
Ġv an
ab le
T R
Ġvu Ã´ng
ig a
Ġ Ã´n
ĠTr Äĥng
J C
tr a
id a
Ġkh uy
Ġso i
¨ ng
ĠD iá»ĩp
Ġc Æ°ng
ÄĲ Æ°á»Ŀng
ĠL á»¯
re e
ĠC or
M ai
Ġn áº¿p
ĠV iá»ħn
Ġt áº§n
ĠQ uyÃªn
Kh u
ĠD uyÃªn
Ġg Å©i
Ġngh iá»ĩn
wit ter
Ġlá» ©a
Ã ¼
ĠB áº¡c
ĠPr em
ĠTr áº¯ng
ark et
ĠW ill
ÄĲ Ãºng
Ġx Ã´
T B
ĠG roup
ĠB en
ĠNh Ã³m
ĠS U
M BVCB
l er
Ġ Ãºy
Ġg en
Ġqu Ã£ng
4 00
8 6
Ġs on
Ġx Æ°ng
Ġs áºŃp
Ġtr Ã¢u
Ġá» Ľt
ĠkÃ¬ a
Ġnh á»Ł
Ġ or
Ġd áº·m
i re
Ġb á»ĥ
Ġc Ã´n
Ġg áº¡ch
A NG
ĠTh áº©m
Ġd Ã¡n
Ä ±
Ġ2 50
Ġtu i
pr ess
Ġt Ãª
ĠP SG
Ġch Ã©n
ĠS H
ĠTh áº§y
Ã ©c
f e
Ġs áº¡t
á»« u
Ġd á»«a
ĠV u
ĠH ÄĲND
ðŁ Ķ
K inh
Ġt ia
ĠH i
Ġr á»ĥ
Ġvá» įt
Ġvá» Ĺ
N N
Ġkho an
Q S
U ng
Ġnh Ã¬
ĠNh Ã£
ĠJ ack
ond on
Ġc á»Łi
ot o
ers on
ĠD áº¡
ĠP er
Ġx Ãł
Ġw ill
9 7
Ġth á»ĳt
Ch ia
Ġs an
w ood
ĠB inh
ĠH D
ĠU td
l ad
G áº§n
ĠB er
Ġbu Ã½t
ĠCh uyá»ĩn
Ġ= ))
Ċ ĠĠĠĠĠĠĠĠĠĠĠĠĠĠĠĠ
ĠDI EN
Ġn áº¡i
ne ws
c ow
ĠI II
ĠM á»¥c
ĠT ok
Ġ0 3
ĠSp ort
us s
Ġx Ã¡m
Ġb á»ĵ
Ġ á»ĳm
Ġtr á»ħ
el o
Ġnh á»ĩn
L á»Ŀi
ĠL uÃ¢n
Ch Æ°a
ĠR áº¥t
Ġkh Ã¡nh
ĠTh áº¡nh
ĠÄĲ Æ¡n
Ġh Ã¡i
ĠNgh e
ĠTh ay
ĠTh Ã¢n
ĠG en
ĠR iÃªng
h uyá»ĩn
Ġch áº·ng
ĠB ÄĲ
tain er
ĠD áº§u
Ġx Äĥm
Ġho áº¡i
ĠT ay
Ġtr e
á»¥ a
ĠQu áº£
ĠÃĤ m
8 5
ĠS iÃªu
z a
ĠBar celona
Ġd iá»ĩu
ĠF ran
r ip
T ÃŃnh
I V
Th uá»ĳc
in s
Ġx Ã¡
Ġo an
Ġ4 2
r es
ĠCh iáº¿c
ðŁ ı
Ġh as
Ġ6 7
ow n
A R
d ong
t á»«
ĠF C
nh am
al i
Ġm anh
Ġ ^
ĠD on
X Ã£
ĠS á»Ń
ðŁĳĩ ðŁĳĩ
Ġch Ã´n
Ġd á»Ŀi
ĠSA RS
v ay
ĠPh am
Ġch Ãªnh
Ch u
ar m
ĠD onald
ĠT ÃŃn
Ġgiá» įt
Ġy ou
Ġc Ã¡m
ðŁ ¥
Ġth áº¥m
ĠT witter
Ġg áº§m
Ġm Ã³ng
ĠT á»©
ĠÄĳ uá»ĳi
H á»Ĺ
Y Ãªu
H u
ĠÄĲ á»Ļc
Q T
Ġt áº©y
n C
ĠÄĳ á»ĳng
i ent
Ġtá»¥ i
Ġb Ã¬
ĠT I
ĠV ua
ĠÃģ o
ĠKho áº£n
en tr
Ng Ã¢n
el e
an mar
ĠG I
H y
Ġs en
Ġtá»± u
A C
Ġg á»¥c
Ġt á»ĳng
ĠN ATO
n y
Ġc Ã¡p
ed es
ī a
ĠY o
x Ã£
Ġr á»ī
ĠL ondon
P hi
ĠL áº¡i
Ġd áº¹p
6 1
e et
T Ãªn
l es
L u
Ġ19 99
Ġr áº¯c
Qu an
ic al
ðŁĻ ı
Ġng Æ°ng
Ġchá»Ń i
. /.
Ġl Ãµi
Ġnh ÃŃ
Ġn Ã¢u
an c
ad al
ĠMos cow
Ġkh inh
D Æ°á»Ľi
Ġm áº¯m
Ġthá» īnh
Ġ Â
Ġn Ã©n
Ġx Æ¡
ĠÃĤ n
Ġr áº½
Ġn á»į
it ion
f orm
Ġl Æ¡
ĠÄĳ Ãºc
ĠM ax
g an
ĠIn st
Ġ *
Ġth Ã¡m
Ġc Ãłnh
Ġ ac
tr ong
ou th
ĠÄĳ ÃŃnh
ĠHÃł m
m i
Ġd Æ°a
ĠW al
Ġ8 00
Ġta xi
D A
B áº¥t
Ġ us
ĠG ar
Ġch ay
ÄĲ á»ģ
Ġr á»§
I ND
Ch iáº¿n
ĠL á»ĭch
áº¿ m
at us
Ġ Æ°á»Ľt
Ġnh Æ°á»Ŀng
ĠcÃ³ c
ĠVi blo
otte nham
Ġ áº¢
ĠD iá»ĩu
ĠS en
ĠF or
ĠU A
201 4
X Ã©t
Ġhá»į ng
Ġgh en
Ġs ize
Ġru á»ĵi
Ġtr inh
Ġa h
ĠC Äĥn
8 4
Ġnh á»¥c
ĠS on
Ġm á»ĭn
Ġx ÃŃch
Ġv Ã£
Ġr Ã©t
ĠBan k
ĠS Ã³c
Ngh e
â ĺ
Ġ200 3
ie f
ĠÄĳ Ãª
it a
Ġ ar
Ġ Ãªm
ĠT om
L Ã£o
Ġ eo
ĠDav id
v iet
ĠH Ã¢n
m t
giá» Ŀ
Ġo xy
Ġph e
one y
at ar
ap os
and er
Ġngh á»ĭch
ĠNgh iÃªn
iá»ģ ng
at es
Ġ4 3
Æ°Æ¡ m
th eo
Ġm á»ĵi
ðŁĳ į
ĠK iev
Ġt Ãº
Ġtr Ã¡n
Ġnh áº·t
or a
S áº£n
Ġl ive
Æ ¯u
eo p
ĠMob ifone
ĠH oan
il le
ĠTh áº¥y
ag on
ex t
Ġ ao
Ġh Æ°á»Ľc
ĠK ong
Ġs á»¥p
Ġká» ģ
ĠT ik
Th ay
us h
Ġthá»ĭ nh
Ġb Ãłng
IND EX
Nam Net
ow er
o ch
ĠM od
V Å©
Ġ Ã¢u
ĠV á»«a
ĠB V
ut e
Ġg ay
Ngh á»ĩ
ĠÄĲ Ã´i
ĠD Æ°á»Ľi
ÄĲ Ã¡nh
ar di
ĠS ol
ĠKh áº¯c
Ġa k
in c
ÄĲ oÃłn
ĠV á»ĭ
Th am
H ay
Ġch Ã¨
ĠW h
Ġch iÃªn
T á»·
Ġtá»ĵ i
ĠD jokovic
Ġr áº¡p
Ng oáº¡i
6 00
ĠM á»Ľi
H N
Th iÃªn
L Æ°u
Ġb Ãºn
Ġl ÃŃt
ĠJ ong
Ġx Ã³t
k i
Ġl áº·n
ia t
x it
Ġtr Ãłng
ĠD iá»ħm
7 2
M an
!! !
Ġn Ã´n
ĠYou T
Ġs Ã©t
I NH
c al
ĠM iss
Ġt Ãºng
ĠA F
ag ram
Ġ4 1
88 9
Ġká» ī
Ġr Ã¢u
ĠC á»Ńa
ĠB o
T áºŃp
ĠS e
L áº§n
ĠKh ai
B ÃŃ
Ġs Æ°á»Ŀn
D á»ĭch
b l
ĠS ang
Ġb á»±c
Ġchá»į c
Ġkh uáº¥t
ĠCh Ãºc
C a
Ġcon tainer
ĠM Ã´ng
g r
ĠÃĲ á»©c
en ce
ĠTr an
ĠUn ited
ĠB el
Ġx Ã´i
) \
Ġlu Ã¢n
V á»£
ĠT M
Ġg Ãµ
y s
V á»«a
ĠN Ãªn
Ġc Ãºp
ĠK on
ĠMy anmar
Th Ãªm
x in
ian o
ĠBl ack
ĠH am
ĠÄĲ Ãłm
Ġd ai
Ġ200 1
ĠÄĳ áº¯ng
j i
7 3
ĠF T
h h
Ġv Ã¡ch
ĠGiá» Ľi
Ġlo g
Ġbu á»ĵng
ĠD el
av a
Ġchu Ã´ng
7 1
ĠÄĳ áº¯m
E S
id es
ĠKh áº£i
w ay
ĠOb ama
ub a
P ad
Ġp er
Ġb á»«ng
d o
ĊĠĠĠĠĠĠĠĠĠĠĠĠĠĠĠĠ ĠĠĠ
P V
ĠNG UYEN
ĠK i
ct ion
9 2
Ġv Ä©nh
Ġ op
ĠCh áº¥p
ĠCh Ãº
Ġ ðŁĴ
7 00
9 6
ĠV ÄĲV
Ġkh á»ĳn
qu áºŃn
Y T
lo ck
ĠMil an
ĠĠĠĠ ĠĠ
Ġd á»¡
ĠV ND
g on
Ġvá»ĭ t
Ġch uá»ĳi
ra q
B ao
u u
Ġl Ã¢n
á» ¦
Ġl ay
ĠÄĳ Ã¡n
ĠF ord
A ll
ĠNg Å©
Th iáº¿u
B Ã¢y
Ġh ave
ĠR á»ĭa
b on
v Ãł
ĠTr iá»ĥn
ÃĤ N
Ġs á»¥t
Ġph áº¿
A d
ĠHy undai
ĠTH CS
op s
ex ico
ĠÄĳ áº¯n
ĠH iáº¿n
Ġr anh
ĠV TV
l ic
ĠGeo r
Ġlo a
Ġd áº£i
Ġs áº§u
B áº¥m
' ,
K á»³
Ġch anh
ĠS Ã´ng
Ġn Ã£y
Ġl ives
Ġi OS
Ġl Ã¡nh
T iá»ģn
Ġh am
Ġch Ã¬a
c ong
erc edes
ĠT á»ĳi
Ġ6 4
Ġr á»ĵng
Ġr Ã¡p
Ġg áº¡t
Ġk iá»ģu
O C
Ġc au
Ġh áº¡m
A D
ĠS w
b iz
Ġ0 45
Ġ200 2
Ġ19 90
S c
R á»ĵi
Ġm o
T Äĥng
Ġb Ã¡ch
Ġch á»ĳn
Ġ Ã¹n
ĠCh á»£
ĠPh Æ°á»Ŀng
U SD
d r
os h
ĠV P
Ġkho ai
Ġg ai
ĠTh Ã¬
Ġs e
ĠP ol
Th áº¥y
Qu Ã¡
Ġe uro
Ġho Ãłnh
Ġtr áº¯c
Ġs ex
Ġl á»Ļi
ĠA f
Ġtr Æ°á»£ng
Ġr oi
Ġng áº¥t
ĠV ay
ĠH ung
ap top
ĠM Ã¡y
8 00
Ġt áº·c
an ia
i eld
ĠT Æ°Æ¡ng
Ġh á»ĳ
. ,
Ġth áº£n
Ġx en
Ġk Ã©p
Ġmu Ã´n
ig er
L Ã£nh
Q uá»ĳc
ĠB i
ĠTr Ã¬
m it
Ġs Ã¡p
ĠF l
ĠH Æ°á»Ľng
com bank
ĠE mail
Ġm Ã²n
vent us
8 1
M á»¥c
Ph Ã²ng
Ġ19 00
ĠN i
Ġ au
ĠGi Ã¡p
Ã Ĳ
H á»ĩ
Ġl ung
ĠC áº£ng
Ġl Ãª
% /
ĠD an
rip t
Ġto as
Ġ q
M W
ch ief
Ġk iáº¿p
Ġ> >
Ġgi áº·c
Ġtoas oan
Ġr ao
E L
Ġb á»Ļc
ĠB á»įn
Ġgi Æ¡
ĠS ai
M S
Ġthá»§ ng
ĠJ oe
Ġ4 7
ĠQu Ã¡
Ġgi áº·t
Ġb áº¡
ĠT áº¡
vov news
ĠlÅ© y
L oÃłi
is hi
ĠT y
ĠV en
Giá» Ľi
Ind ex
Ġ5 1
ĠC op
Ġn Ã´
er ry
Ġvá» īa
Ġc á»ĵn
Ġs er
ĠB á»ī
evel op
C Äĥn
Ġ9 9
E x
Ġnh Äĥn
H Ãłnh
ĠF PT
ĠÄĳi Ãªu
ĠV á»¹
ĠS up
Ġ4 6
ĠCh Ã¡u
ĠD a
Ġxo áº¯n
ĠM ag
A g
D iá»ħn
F ast
Th áº£o
ĠQ L
N Ãłng
Ġf l
Do anh
ĠNew s
201 3
Ġtá»¥ ng
ĠP an
Ġd Ã´ng
Ġb áº©m
Ġm áº¯ng
n ational
at s
N T
t in
ĠÄĳáº¿ m
Ġph á»Ł
Ġy ear
Ġ7 00
ĠT ottenham
Ġng á»¡
ĠB Ã¡i
ĠQu Ã¡ch
ĠH oÃł
Ġng Ã³
Ġr ec
ĠÄĳ inh
ĠTr Ã¢n
ĠN o
Ġng Ã¢y
N AM
if orn
Ġkho Ã¡i
ĠYouT ube
áº ¨
S iÃªu
ĠHC V
y st
ĠPrem ier
Ġ20 30
Ġb ar
Ġo k
ĠM Ã¹a
Ġ4 9
ai r
Ġkh ao
Ġl á»¥a
ĠA TM
Ġl áº©u
ĠG S
Ã£ m
Ġh uyá»ĩt
Ġm Ã´ng
Ġgi Ã²n
Ġh Ãłn
th u
Ġg u
Ġkho ang
R O
ĠÄĳ Ã¨
T u
Ġc á»Ľ
Ġv e
ĠB O
ian a
Ġ0 2
ĠN Æ¡i
on ia
D u
Ġ4 4
lo b
ĠCh arl
ĠCH QS
Kh oáº£ng
an y
j s
Ġkho Äĥn
ĠHÄĲ QT
ĠS Ã¡u
r ic
ĠV ina
R áº¥t
ĠBay ern
ĠI raq
Ġl Ã©o
U NG
ĠXII I
Ġl áº§u
od y
l ines
av el
ÄĲ á»©c
ĠTh Ãªm
kh oáº£ng
ĠT á»ĳ
20 10
ĠGi Ã¡ng
ĠcÃº m
ĠC er
Ġt Ã³m
iforn ia
iv ers
T ok
Ġx Ã¬
Hot line
V ÃŃ
ĠX anh
Ġng áº¯t
á» £p
i am
udi o
Ã ¶
ĠTr áº¥n
C á»©
Ġ5 4
ĠM exico
ii ii
ĠH uyá»ĩn
ĠNh iá»ĩt
Ġd ep
Ġv uá»ĳt
ĠTr e
ĠÄĲ Ã¡ng
Ġv ung
ĠN adal
D Æ°Æ¡ng
Ġt Ã¡t
ĠCh á»©ng
t t
8 3
our inho
Ġ un
ĠM u
y y
Ġv áº¡ch
Ġnh áº¥p
Ġg om
Ġt i
B Ã©
Ġch áºŃt
Ġ el
ĠK o
ĠViet NamNet
ĠNh áº¡c
Ġh Ã¡n
L ÄĲ
( (
Ġm s
ĠGi Ãª
ĠCh rist
ĠIt alia
Ġ20 25
Ġkho Ã¡
et w
! &
Ġhá»ķ ng
ĠW est
Ġcu á»Ļn
ce ae
Ġqu áº¡t
Ġl en
Ġl ike
T á»ķ
H á»ĵng
à ¸
Ġk á»ĩ
n ing
Ġb Äĥn
Ġnh e
Ġnh Ã£
Ġsu Ã½t
Ġthi Ãªng
Ġ6 3
Ġth is
ĠPh iÃªn
ĠM áº¡ch
Ġm Äĥng
ĠT AND
Ġl á»¥t
ĠH ot
Ġm áºŃp
L inh
ĠT N
ĠE uro
uk i
ĠG B
Ġ )
ĠÄĲ áºŃu
Ġc á»įc
at ed
uc k
ay a
ĠM áº«u
A P
ĠH á»Ĺ
Ġr Ã²ng
Ġserv er
ĠQu áº¿
in ess
ĠD Æ°á»£c
cong dong
ĠH iá»ĥn
gh an
ĠL Ä©nh
Ġt áº£n
M áº·t
hoc congdong
ĠJ o
ĠTh Æ°a
Ġtr iáº¿t
Ġn á»ĳt
Ġl áºŃn
ang e
ĠI P
ent er
ĠX em
h u
ĠL iá»ħu
Ġ á»§i
Th Æ°Æ¡ng
Ġ9 5
ĠW ebsite
Ġchu i
ĠB Ã³ng
ĠV á»
ĠCal ifornia
ĠTim es
ĠN or
ĠTok yo
ĠL áº¡ng
y ll
S inh
sk i
Cl ip
Ġb Ã¡u
ĠAr ab
ĠC EO
ĠB áº£y
Ġx Ãło
ĠAir lines
Ġkhuy a
ĠV ol
. âĢĵ
B á»ĳ
ĠS il
e in
Ġr áº£i
Ġ199 7
Ġh Ã©
Ġ Ãª
ÄĲ Ãł
un tr
Ġn ot
T A
Ġn áº¡
Ġthá» ģ
T E
ĠInst agram
Ġr ep
Ġph áº³ng
Ġl Ã³t
Ġph Æ¡i
ĠR ed
ĠÄĲ á»ĳng
l i
D I
á»Ľ c
ðŁĺĺ ðŁĺĺ
7 4
Ġ5 2
áº¬ T
ĠG áº§n
ĠJ ames
Th iáº¿t
ir a
Ġn i
âľ Ķ
Å© a
al is
ĠY Ãªu
ĠO ne
Ġl e
N Æ°á»Ľc
C áº§u
áº¦ N
ĠG P
ĠG h
Ġw as
> >
Ġd á»ĵi
ĠTu áº§n
ĠPh á»ķ
ag en
Ġb áº«y
ðŁ İ
Ġnh áºŃu
Kh Ã¡nh
Ġvá»ĭ nh
Ġb á»ĵn
ĠÄĳ áº¥m
ĠC uba
UY á»
A pp
ĠM áº¥y
Ġc á»Ĺ
eal and
Ġm Ã¢m
ĠNg á»¯
Ġng áº§n
K H
ĠV áºŃn
T Ã¬m
Ġk áº½
á»Ľ n
Ġch Ã¡o
Ġt oÃł
Ġd á»Ĺ
ĠP aul
ĉĉ ĉ
Ġn uá»ĳt
P r
T Ãłu
opter a
ĠSU V
ĠKh Ãª
c ao
if ic
Ġv Ã¡n
qu an
it ies
ĠK á»·
Ġng Æ¡
ĠL H
Q G
b ao
n es
D Ã¢n
ĠL Ã¢n
ĉĉĉĉ ĉĉĉ
ĠTr Æ°ng
ghan istan
ar g
ar s
e ed
ĠV Ã¢ng
Ġg olf
H Ãłn
lo g
S áº½
Ġho i
Ġb Æ¡m
ĠM un
ng h
ĠM ed
ĠPh Ã¹
Tr uy
ĠV iáº¿t
ĠM á»©c
ĠS ant
! âĢĿ
U BND
Ġthá» ģm
h an
Ġh ao
Ġw hi
Ġs á»Ŀ
ĠmÃ£ nh
; ,
ĠÄĳá»ĩ m
ĠN ov
am i
ĠV Iá»Ĩ
ĠÄĲ á»ĵn
Ġth iáº¿p
ĠZ ealand
ÄĲ Ã¡ng
Ġb Ã³n
Ġb á»ī
Ġs áº¿p
ote in
K á»ĥ
Ġb Æ¡
Tr Æ°Æ¡ng
Ġng áº¡ch
as c
Ġv iá»ĩt
el y
ĠM Ã´
er er
il y
Ġh á»ĳt
ph Ãºt
á» Į
ĠL in
3 20
L á»±c
ev er
em a
az da
Ġ199 8
Ġg áº§y
Kh á»Łi
âĢįâĢį âĢįâĢį
Ġkhi Ãªu
enc y
Ġ0 91
Ġs anh
Ġ8 5
ĠÄĲ áº£o
ĠTr Ã¢m
ĠÄĳ áº¡m
p o
Ġlá» į
Ġng á»¥c
ĠÄĲ en
Ġinter net
ĠM áº¡c
E d
Q uy
ĠÄĲ Ãªm
ros s
ĠNg uá»ĵn
Ġ1 10
I FA
ail y
ĠH uÃ¢n
ðŁ¥ °
or ia
ĠC ap
ĠG o
9 4
Ġx oa
l ing
ob ot
ĠT ao
Ġ5 6
Ġb á»ĩ
L á»ħ
ĠM ercedes
Ġ1 30
Ġx i
ĠH iá»ĥu
t á»īnh
Ġl iá»ħu
Ġ:)) )
S o
L áº¥y
ĠM Æ°á»Ŀi
Tr áº£
ĠE ver
ĠPl ay
ĠbÃ³ p
ĠP a
ĠS im
ill ion
Ġngh iá»ĩt
L C
H áº¯n
Ġh Ã´ng
M Ã¹a
Ġl á»Ļt
T Æ°Æ¡ng
Ġn ao
M T
ĠD ao
ĠM B
ĠJu ventus
Ġl anh
Ġ6 6
ĠVietnam ese
Ġn áº¥y
og a
Ġp art
Ġqu á»³
Ġh áº¡ch
m etr
ch er
Ġsai d
T op
Ġkh á»ĳc
ĠC Ã¡
ĠV á»ĩ
ĠCh uyÃªn
b r
ÃŃ p
y e
ĠP GS
ĠHol ly
enn is
Q ÄĲ
us iness
Ġfor m
ĠAng el
ĠS á»¹
if e
Ġ5 3
Ġ uá»ĳn
ur r
Ġx Ã©
R a
ĠB á»ĭ
Ġd ang
Kh Ã¡ch
p s
B r
Ġ ag
Ã ļ
ĠD ang
Ġn áº¯p
S á»Ń
Ġt Ãł
ĠK á»ĥ
Ġl á»Ļc
M B
ĠT um
ĠðŁĺ į
ĠPh u
Viet nam
Ġng Ã´
ĠTh o
T iáº¿ng
ĠÄĳá» įng
Ġw h
: \
Ġph Ã¬
78 6
Ġth iÃªu
Ġvi ew
Ġgi rl
ĠGeo metr
ĠH al
T oÃłn
Ġn an
ĠSau di
z z
a ff
K S
ĠGeometr idae
ĠH Ã£ng
G D
Sh op
ĠU N
ĠC áº¥p
ĠB Ãłn
Ġd ay
P C
Ġthu á»·
l Ãłm
Ġt Ã¡ng
ĠT al
Ġcl ass
en e
ĠPh ÃŃa
Ġx uÃ´i
ur n
ĠB ill
Ġi Pad
ĠV ideo
ĠAf ghanistan
ol og
ĠÄĳ Ã¹i
Ġch Ã¡nh
K T
ĠS n
ĠRob ert
ĠB Æ°á»Ľc
ĠT ai
b urg
lo ad
ĠB Ã¡nh
ðŁ į
ĠKho áº£ng
Ġv Ã²
ĠO l
ĠM at
Ġ áº£
Ġs Ãºc
Kh o
á» ª
Ġx Ã´n
ĠÄĲ B
ĠC as
Ġl Ã©n
Ġl á»ĳp
á»£ n
O k
er g
Ġb Ã¹n
Ġnh Ã¡t
Ġch áºŃu
Ġs ub
Ġl aptop
Ġ7 2
ĠT el
ĠNhu áºŃn
P l
ĠB iáº¿t
ĠA FF
Gi Ã¡o
ĠL and
ĠB S
ĠB Ã©
ĠM á»Ł
AG L
Ġd Æ°ng
T iÃªu
Ġl áº«y
ĠH ÃĢ
Ġqu á»µ
ĠVin Fast
Ġs hip
nC mt
el le
17 3
Ġvá» Ŀ
Ġv iáº¿ng
8 2
áº¾ T
at or
Ġd es
Ġkh á»Ń
Ġr á»¥ng
ÄĲ Ãªm
end er
Ġn Ãłn
Ġm á»ĳt
Ġph Ã´
Ġl á»Ļng
Ġc á»«u
ain t
l ÃŃt
ĠTik Tok
áĢ ¹
ĠT ech
ur y
Ch Ãº
Ġm arket
Ġnh á»įn
Ġc r
C á»±u
m in
ĠKh Æ°Æ¡ng
M á»Ł
w ei
Ġk iÃªng
Ġt w
Ġ0 4
ĠX V
Ġr Ã¡ch
C ÄĲ
Ġk áº¹o
ĠMich ael
N ÄĲ
Ġn Ã£
ĠPl us
ĠV á»ĭnh
Ãº m
ĠR ich
ĠV á»£
D O
Ġng áº«u
T Ã¢y
n n
ĠGu ardi
R onaldo
Q L
Ġp ol
M C
Ġkh á»ī
Ġto an
p a
Ġn á»©t
ĠCh iá»ģu
ĠJ ul
ĠS outh
Ġho áº¡n
9 00
Ġs Æ°ng
ĠTh om
ens e
C á»¥c
ch á»ī
Ġch á»ĳc
ĠM b
on s
ĠKh á»Łi
tr ang
ĠC Ã´n
Ġn á»©c
ĠKh a
Ġco untr
ĠNh áºŃn
Ġh e
Ġ en
Ġnh á»įc
Ġo b
ern and
on i
ĠK y
ĠT Ã¡c
b áº¡n
f l
ĠG Ã£
Ġu á»·
D T
ia ceae
Ġ á»§
kh á»§ng
az on
ÄĤ n
ĠKh áº£
ĠB Ã¡t
ĠL au
Ġ1 000
Ġnh á»ĭn
Ġtá» ıi
ĠI V
ĠVI ET
ĠP at
v est
Ġpr otein
Ġin d
o z
Ġb Æ°u
Ġ5 8
ĠS Ã¢n
Ġs Ã¢m
Ġa xit
y an
F acebook
Ġs up
Ch áº¯c
ĠL ou
M U
ĠA z
er b
Ãģ o
b it
ĠGi áº£
áº» m
Ġqu áº§y
ĠM áº¯t
Ġth áº¯n
Ġ199 5
ĠÄĳ áº¡c
ĠL ÄĲ
ĠT Ã¡m
ĠL iga
ar ao
Ġr á»Ļ
ĠL ib
Ġng áº·t
Ġn á»Ļ
ðŁ ĵ
iv i
Ġ20 24
X X
ĠCh inh
T iáº¿n
ĠC u
ĠM Ãły
Ġd á»ĩt
Ġtr Æ¡n
ĠD is
ĠC ong
Ġshow biz
ĠÄ Ĥ
w are
ĠH en
n áº¿u
ĠAs s
ĠL Æ°á»£ng
á» ¢
Ġcm t
ĠÄĳ áº·n
Ġd evelop
ĠÄĳ u
ĠNh á»ĭ
Ġlá» Ŀ
v en
U S
Æ¯á» ľ
Ġn Ã¡o
Ġc Ãµi
Ġ ..
Ġká» µ
u an
ĠCh áº¥t
f er
Æ¯ Æł
g ia
h t
ĠM ot
Ġg áºŃy
ĠK Ã½
Ġt Æ¡
ĠM el
B ar
Ġta b
ĠN oc
ĠB al
ua wei
ĠI d
ĠTh á»¥c
Ġnh á»§
Ãµ m
Ġn Ã©
ĠHolly wood
b e
Ch a
ĠD inh
ĠE ur
Ġ5 9
Qu ang
Ġt Äĥm
áĢ Ļ
ĠJ un
es h
ĠS erv
Ġc á»į
Ġr eg
Ġl á»ĳc
ĠS hi
g er
ĠÄĳ an
ĠI r
ĠV AY
ĠY en
ĠAnd re
ĠTh ÃŃch
ĠD O
á» °
Ġl i
ĠPh á»¥c
Ġr á»Ľt
Ġá» ¨ng
tr eam
ĠÄĲ Ãłn
T W
Ġbá»ķ n
ĠV ict
ĠĠĠĠĠĠĠĠ ĠĠĠ
i ao
ĠBH YT
ĠM áº«n
on ent
ĠJ e
s c
Ġc or
Ġt em
ĠL á»Ļ
Tr iá»ĥn
Ġ6 2
ÄĲ Æ¡n
ĠL á»ĩnh
ĠN S
ear ch
áĢ ±
ĠM Æ°á»Ŀng
re ak
ĠQ atar
á» ĺ
ĠTr áº¡ch
ĠNoc tu
X uáº¥t
ĠT or
Ġt ien
ĠNoctu idae
as er
x x
ak i
ĠÄĳ Å©a
Ġ5 7
ĠIt aly
Ġch en
ĠT á»·
ir st
Ã Į
ĠK Ã´ng
E R
Ġv Ã¢ng
ĠPh á»ĳ
C Ã¡m
Ġ: )
Ġ á»ĳp
Ph ong
th Ã¹ng
t Æ°Æ¡ng
Ġnh Æ°á»£c
L áº¡i
app e
out ube
RE M
ĠTh áº±ng
if t
Ġnh á»©c
ak istan
ed it
ch ester
c Ã¡c
B á»Łi
ĠL o
Ġx ÃŃ
J I
Ġkh an
ĠC R
Ġd r
ĠGD P
and a
Ġqu e
ul ar
ĠC Ã¢y
ĠC á»ĳc
Æ¯Æł NG
Ġpro d
k in
ĠTr áºŃn
ĠS Æ°Æ¡ng
786 06
Ġng áº©n
Ġgi up
Ġal so
ĠCom p
ĠGiá» įng
Ġo ut
173 78606
Ġch iáº¿t
man n
Ġr Ãªu
Ġt áº¥p
Ġh ÃŃt
Ġ7 8
eop le
ĠD aily
Ġs al
Ġqu áº¥y
ĠVN PT
Ġhá» Ŀ
ĠH áº£o
Ġl Ã¡ng
ĠC á»ĳ
Ġ7 6
Ġchi Ãªm
Ġ $
ĠM ark
Ġ199 2
W h
C Ã¡
ut y
ĠCH I
Ã³ p
ĠT K
Ch uyÃªn
Ch áº³ng
ĠF IFA
Ġv Äĥng
N A
Ġt áº¡ng
Ġpro ject
M ar
ĠH á»ķ
Ġl Å©ng
V á»ĭ
ĠkhÃŃ a
Ġr Ã£
ud e
Ġd áº»o
c s
M P
Ġvá» ©t
Ġre qu
ĠF lor
Ġ áº§m
Ġm á»ĵm
Ġk iÃªu
al and
g a
ĠQu á»·
Ġthá» ı
Æ¯ á»Ľc
ĠÄĳ Ã¨o
ĠM ourinho
Ġh ack
ry s
Ġr obot
in al
( )
ĠA p
Kh ai
ĠS Ã¡ch
t en
M A
ĠM azda
Th áº§y
Q H
ĠBÄĲ S
as on
ĠM ong
ĠU l
Ġmod el
Ġk iá»ģm
Iá» Ģ
ĠL i
iv al
á» Ĭ
ĠL ED
ĠÃģ i
ĠN AM
ch Ãło
M áº«u
Ġng á»Ńa
Ġch Ã©o
w n
ĠSp a
Ħ N
Ġ? -
? âĢĿ.
ĠCh iÃªu
Ġb Ã£
ĠÄĳo an
ĠH N
Ġs iáº¿t
10 5
Ġ( -
Ġ199 6
Ph im
D ep
ĠC Ãºp
Ġng á»ĳc
Ġcho Ã¡ng
: âĪĴ
om a
M áº¹o
B P
I BVCB
V i
Ġmen u
it an
Ġ Æ°á»Ľp
Ġth on
Ġngh áº¹n
C om
ĠM uá»ĳn
ĠL á»Ŀi
ĠPh im
c Ã´ng
ĠH uyáº¿t
ĠN Äĥng
Ġph iáº¿n
ĠN V
Ġr á»ĳt
Ġho áº¡
T ay
47 6
C ao
Ġ198 0
Ãµ ng
lob al
ĠW eb
ĠT Æ°á»Ľng
ĠV áº¥n
Ġr á»ĩt
un ction
O P
áº¤ n
ĠD ep
Ġt eam
ĠM ao
il a
Ġ19 93
F C
1 50
Ġn ew
Ġd Ãª
Ġo Ã¡n
Ġs á»į
ĠT an
L Ã¢m
Ġb Ã³c
ĠTr Ã¬nh
Gi Ã¡m
Ġ( )
Ġh Ã£m
ÄĲ oáº¡n
Ġnh iáº¿p
ey mar
ĠFr ank
Ġr áº£nh
ĠB áº¯t
Ġtr Äĥn
Ġth á»ĳi
Ġx áº»
n at
Ġcon tr
Ġm Ã¬n
ÄĲ ang
% ;
ĠD es
Ġi u
d áº¡
b in
ã Ģ
ĠCh Ãło
23 0
Ġnh Ã¡
ĠV ÃĢ
Ġl Ã¡ch
d t
yst em
ix el
Ng Ã´i
Ġc á»ĳi
1 20
Ġvá» Ľt
er i
ĠN ÄĲ
ĠNg Ã´i
Ġn iá»ĩu
EU R
ĠV lad
Ġ3 50
ĠR od
Ġd Ã©p
V Æ°Æ¡ng
M y
c ast
áº½ n
D N
ĠS á»©c
Ġ18 0
Ġch Ã¹m
Ġm ini
ĠB MW
ĠHo áº·c
ĠÄĳ áº£
X Ã¢y
Ġgi Ã²
M ua
Ġr Ã²
ĠR am
ath er
20 11
ĠV áºŃt
h ay
at o
Ġ ðŁĻ
Ġtr Ãªu
T Æ°
ĠT á»Ľi
Ġv Ã¡c
20 12
: ))
ĠR AM
Ġch Ã¨o
u th
ĠU á»·
G ame
ĠN ay
Ġs áº¥u
áº¢ N
ol i
ut o
Ġng áº£
ĠT Ãło
T á»±
Ġm Ãłi
Lu áºŃt
el and
Ġcl ick
et ro
ðŁĺ ģ
IC E
Ph Ãºt
ĠUS B
Ng hi
G T
Nh á»Ŀ
ĠR ang
Ġl á»¯
S S
Ġw ork
ĠH AGL
Ġth Ãª
ĠX Æ°Æ¡ng
n ay
14 8
Ġb Ã´i
ĠR ub
ĠB ol
Ġ19 91
Ġlu á»Ļc
Ġnh á»Ļn
Th ÃŃ
ĠĠĠĠĠĠĠĠ Ġ
Ġ âĿ¤ï¸ı
H Æ°Æ¡ng
Ġkhi Ãªm
Ġt áº¡t
ĠU r
ĠThu áº¿
ĠTr i
Ġhá»ĩ t
á»ķ n
........ ........
T Ã¢n
Ġm eth
ðŁĻı ðŁĻı
ĠS ec
ĠK ÃŃnh
Ġad d
et s
ÄĲ Ã´i
Ġs á»«ng
ĠH á»ıa
amb yc
Ġs áº¹o
á» Ķ
ĠL at
and al
ĠCer ambyc
ĠCerambyc idae
S ong
u el
ĠH ag
ai s
Ġ Ãºt
ĠÄĳá» ¥c
ĠG Ã²
o un
Ġg r
y p
id er
sh op
f o
Ġx áº¯n
Ġn a
Ġc Ã²i
Ġr eo
Gi áº£m
sk y
K o
Ġs Ãłnh
Ġ199 4
Ġtu á»³
ĠL Ã¢u
ĠÄĤ n
ĠT our
ĠW i
Gi ao
or g
Ġtr o
ĠS ky
ĠHo ang
áº¤ T
ĠM Ãª
ĠT á»ĭnh
it co
Ġ9 00
ĠFed erer
Ġ6 1
im ir
ĠArab ia
ĠG l
Ġh igh
Ph Ã¡p
ac o
T Ã¡c
ĠH Ãło
ĠG T
E l
Ġm ac
ĠMob ile
Ph iÃªn
Ġl iáº¿c
C Ã¢y
L o
t act
ĠH áº¯c
ĠLu c
Ch uyá»ĥn
Ġl Äĥm
nh Æ°
ĠG old
Ġng Ãłng
ĠOs car
ĠC áºŃn
ok ia
L ong
ĠMus k
Ġr Ã¡o
ĠL Ã´i
B A
al k
Ġth áº¯p
ĠKh Ã´i
ĠU B
Ġk kk
Ġnh ieu
or i
Ph á»¥
ĠAm azon
u le
ĠT Ãł
arao ke
ĠD Ä©
Ch á»©ng
& #
ĠL im
ar us
ĠMar ia
Ġs áº£nh
ul d
U ONG
Ġlives tream
Kh Ã¡m
ĠK l
N Q
Ġ act
M ong
m art
Ġf acebook
ĠNG O
ĠMb appe
ĠS ar
ID V
u al
ĠBr un
ust in
ĠÄĲ á»ı
st on
ĠMun ich
ĠÄĳ Ãłng
Äĳ Ã£
eg a
ĠP i
Ġv áº«y
A nd
Ġgiá» ¥c
Ġta g
áºł I
ĠkÃŃ p
Ġh Ã¡
ĠbÃ© n
Ġn uá»ĳi
ĠZ el
ĠS áº½
rom e
Ġh Äĥng
Ġk Ã¬nh
H Ã£ng
F i
Ġ6 9
Ġx ÃŃu
ĠAn ton
Ġlo cal
ĠM á»Ļng
lo ud
Ġ045 1000
Ġm áº¡
Ġtho áº£
Æ¯ T
ĠGre en
ĠSeo ul
ĠTH E
Ġngo áº¡n
ĠQ ÄĲND
ph a
ĠgÃ³ t
ĠMart in
V Ã¢ng
Ġk araoke
ĠA v
! -
Ġn Ã¡m
oth er
h ow
viet nam
ĠC á»±c
ĠPh Ã¢n
ĠSup er
K iá»ĥm
Ġr Æ°á»Ľc
... ,
Ġr ong
ĠX uáº¥t
ĠT áº¿
in ce
Ġnhu á»Ļm
B áº±ng
ÄĲ áº¹p
Ph an
ĠK ia
ĠBu Ã´n
ĠSt ore
A c
ĠT ur
ĠC A
Ch á»įn
Ġ id
Ġth iá»ģn
Ġ197 5
Ġ9 8
B áº¯c
V Ã²ng
ĠN Æ°Æ¡ng
Ġvá»¥ t
ĠN e
ĠKhu Ãª
ĠT iáº¿t
Ġ7 3
ĠY am
ĠS i
ĠM Ã£o
Ġph áº«n
Ġx Ãłi
P P
ĠM iá»ģn
Ng uyen
is ter
ĠH IV
ĠV o
âĻ ¥
ĠT Æ°á»Łng
ĠS el
ĠV O
te ch
ĠP ost
ĠCN TT
ĠAr t
M uá»ĳn
M áº¥y
ÄĲ á»Ļc
á» ¤
ĠÄĲ ang
ĠC ÄĲV
B n
ĠTh iá»ĩu
ĠT uyá»ģn
Ġt áº¥u
Ġ8 8
ĠA S
ab a
ĠO m
ĠAP I
Ġg iáº¿ng
20 25
ee k
ĠD ata
Ã ĥ
Ġqu áºŃt
Äĳ Æ°á»£c
ĠW in
A s
; &
L á»ĭch
ĠL iá»ĩt
Ġn ang
Ġx ua
Ġthe ir
ĠY H
Ġl Æ°á»£n
ĠPet er
Th Ã´i
if ol
ĠI m
w e
ĠH uawei
Ġtá»¥ t
Ġb á»©t
Ġ7 7
Ġv Ã£n
ĠH ome
Ġm in
Ch ung
ĠAF P
v ed
ĠK ing
ĠT Ã¬m
ĠV Ä©
Ġth Ã©t
v i
ĠC áº§m
ĠJ ose
ĠVina Phone
ag o
ĠFran c
Ġcom m
Ġs Ã³i
Ġn á»Ľi
ĠJ enn
Ġn áº£n
ĠVIET NAM
Ġc Ã´i
n Link
ĠÄĳ áº«m
C K
Ġxo Ã¡y
P A
it z
t iáº¿ng
ĠÄĲ á»ĩ
ĠP akistan
Ġd is
ĠJ ava
Ġm Æ°á»£t
Ġngh Ãªnh
ut s
c Ã´
Ġd el
ĠV FF
ĠX I
s á»ĳ
ĠM e
G Ã³i
ĠD ani
476 889
ðŁĺ Ĭ
ĠN oi
TT Q
ed an
Ġ7 1
ÄĲ á»Ĺ
ub ishi
ep t
au ty
ens ky
Ġ8 2
Ġgi Ã£
eal th
Ġnh ung
Ġg Ã²
if er
f or
Ġ ðŁ¤£ðŁ¤£
Ġh áº»m
ĠCar l
em b
ĠSt ar
ĠL iá»ĩu
A m
Ġm Ã¹ng
ad o
S JC
Ġp ar
n i
ĠTr ieu
Th i
T ai
as ter
ĠInter national
Ġm ob
Ġch Æ°ng
t á»±
c i
its ubishi
ur i
at ia
áĢ ¸
ĠW ar
Ġn á»ĥ
ĠD Æ°
Ġv iá»ģn
Ġm ic
is m
ect or
f a
S p
) ...
C á»ķ
ĠQu áº§n
Ġv al
ĠVlad imir
Ġch Ã¬
ĠTh Æ°á»Łng
Ġm oi
ĠA M
Ġs i
aw a
Ġgi Ã¡ng
ĠA C
X uÃ¢n
ĠTH U
H iá»ĩp
Ġgi Ãłn
nh á»¯ng
H uyá»ģn
Ġsex y
ĠÄĲ áº±ng
H áº§u
ĠI D
Ġtr Ã³i
Ġ8 6
Ġchu á»ĵng
Ġs á»ıi
ĠY hoccongdong
ĠB TC
Ġt áº©u
ĠL oáº¡i
C ar
ĠC ro
Ġlu n
Ġ ðŁ¤
ļ I
Ġd áº¡n
HN X
Ġth ÃŃnh
Ġg am
ce pt
on om
Ġph áº¥t
ĠT Ã¹y
Ġd Ã¨
ĠnÃ³ n
ĠE ng
Ġng á»ı
et te
M ay
C am
ĠNg Æ°
Ph ÃŃa
Ġkho Ã¡t
Ġs á»¯ng
ĠT Q
Ġ" "
Ġ0451000 476889
Th Æ°á»£ng
Ġn eo
Ġqu áº¥n
ĠR áºŃp
3 93
Ġ9 1
T N
ĠO F
j j
Ġl áº¡y
N hi
ĠP ep
ĠCh áº¥n
ĠÄĲ iá»ĩp
ol o
Ġb áº»
Ġ9 2
Ġv Æ°á»£ng
Ġm on
G Ã£
ĠÄĳá» ±c
ĠEd itor
ĠÃ Ģ
o ot
ĠT O
Ch Ã¡u
AN K
... âĢĿ
ðŁĺ Ń
Ġb ong
Ph Ãº
ĠEur op
Ġtw o
l u
ĠC Ã¡m
ĠâĢ ĭ
ĠNghi Ãªm
Ġx áº£o
N Ãªn
t á»©c
Ġs Ã¡o
Ġ0 24
Ġn Ã²ng
Ġst art
Ġlá» «ng
ĠT p
Ġd Ãło
eng er
ho áº·c
Ġg o
m und
Ġv Ã¹i
u ela
ĠZel ensky
ĠTr áº¡m
is ion
Äĳ i
Ġb Æ°á»Łi
ic es
ĠT á»ĳt
Ġc áº¥y
I T
b an
Ġc Äĥm
ĠG a
om es
ĠthÃ¬ a
ĠnÃ³ c
ĠÄĳ áº·ng
Ġph iÃªu
ĠGeor ge
od es
ĠT fr
Ġb á»įt
o und
Ġd ec
ĠT áº¡o
Ġk ey
Ġx ay
áĢ º
ĠH S
Ġnh iá»ħu
Ġch Æ°
ĠS Ã©c
ĠM A
ic an
t Ãªn
Ġ8 1
ĠGi Ã³
Ġ all
Ng Ã´
ĠPH ONG
ĠÃĶ i
ĠA sia
ĠMan chester
T áº·ng
d ate
âĢ ¢
ail s
Ġt ivi
ĠK áº»
ĠW e
ĠS G
V áº«n
áĢ ¬
l Ãł
R eal
ĠF ernand
Ġg á»Łi
ĠÄĲ Ã¡nh
ĠH ill
ĠF ax
DO JI
ĠV n
Ch Ã¢u
Ġthu á»Ł
Ġtr ans
Ġl Ã¬
Ġ25 6
ÄĲ á»Ļng
ur es
ir m
ĠB á»ĳn
ĠB ur
ĠAm er
Ġng áºŃm
ak u
ĠB ig
b i
r u
ĠCS ÄĲT
let ico
st an
L a
Ġus er
k ov
ĠC Æ°
Ġc áº©m
ĠHan oi
Ġb áº¡t
Ġqu i
ĠDo Ã£n
Ġ197 0
ĠTuy et
Ġb ik
ĠP u
Ġá» ª
oph yll
Ġcon s
Ġnh Ãło
Ġ12 5
Ġser ies
ĠD iá»ĩn
Ġg á»«ng
Ġph at
U P
P ar
ph áº£i
ĠBr ent
Ġlá»ģ u
C D
.. ...
ĠD áº§n
ĠKh ÃŃ
ĠYo ung
Ġg Æ°á»£ng
yr ight
ĠT s
Ġwhi ch
Ġm ore
âĻ ª
Ġ acc
Ġv áº¯t
ĠÄĳ á»ĳn
ÄĲ Ã´ng
Ġ18 00
ĠO ld
z e
ed d
ĠJ an
Ġb áº§y
v el
Ġth áº¡o
ÄĲ Ã¡p
ĠÄĲ Ã´n
os ter
ĠA N
Ġch Ã³i
Tr iá»ģu
ar o
ĠS JC
Ġm Ã©p
Ġph Ã¡c
t ic
ĠR h
ĠT uyáº¿n
ĠSh in
ĠLou is
Ch Ã¢n
c ess
t hi
ĠHo Ã¡
Ġt Ã©
ðŁĳ ĭ
ĠBO T
ÃĶ i
L Ãªn
ĠTh y
as il
Ġg iá»ģng
Ġr á»ķ
Ġ @
id d
k ing
ĠB Æ°u
itco in
B Ãłn
ĠN eymar
I P
Qu á»·
ez uela
Ġb á»ĵng
Ġch áº£o
n ect
ag a
C áº·p
ĠV áº«n
ĠKi em
á» Ĵ
ed u
ĠZ alo
Qu áº£n
Ġng uyá»ĩt
M á»Ŀi
Ġ â
Ġg áºŃp
Ġquy Ãªn
R iÃªng
ĠN at
ward s
ĠW il
áº ©ng
ĠÄĳ Ã²
Ġl Ãºng
Ġbá»ĭ t
B Ã¡nh
App le
áº¥ ng
ĠBl u
c Ã²n
ĠHo áº¡t
ĠGiá» ¯a
s a
kh am
Ġng Ã¡n
Ġv Ã²i
H uy
Ġh Ã¡o
Ġqu ÃŃ
D i
ĠT uyá»ĩt
ĠN ap
Ġx á»ķ
Ġy áº¿n
tr Ã¡i
O R
Ġchá» ķ
Ġr á»ħ
Ġch Ã³t
ĠM Å©i
Ġph o
l an
ĠP e
ĠN ote
Ġg Ã¢n
Ġ198 9
ĠLu x
ĠUA V
ĠT á»ģ
ĠR os
P H
ĠM ir
T Ã¢m
ĠTH ANH
ĠNh Æ°á»¡ng
ĠCl in
B á»įn
ðŁĺ Ĩ
ĠCr im
Ġf unction
e f
M á»©c
ĠC ÄĲ
Ġ7 4
ri ch
Ġthá»Ń a
s iÃªu
Ġh Æ°ng
ĠKh uyáº¿n
Ġs Æ°á»Łi
ĠC os
V Ãµ
s ter
Ġ198 2
Ng Ãłnh
ĠHung ary
os hi
ĠH á»ĵn
Ġ16 0
ĠR i
ĠM INH
á» ¨
__ __
Ġv áº¥p
ÄĲ áº¡o
ĠSu z
f ile
Ġt en
ur al
ĠA T
r et
ĠCN N
Ġc Ãły
Ġ á»ĵ
ĠD ong
âĢĭ âĢĭ
ĠH un
M a
ĠUn ivers
s il
Â »
ðŁĴ ¥
b rid
en ko
ĠL os
er al
ĠUA E
G Ã³c
C áº¥p
Ġh áº¥t
Ġr ÃŃt
Ġt áº¡c
ĠN Ãºi
ĠThom as
t or
v iew
ĠG Ã³i
ĠN ob
Ġw a
Giá» ĳng
et er
ĠC at
Ġr Ã³t
AS A
T X
Ġ19 88
ĠHuy nh
ac om
b ack
V áº¥n
ĠT uÃ¢n
ĠB or
T o
Ġ its
ĠZ h
ĠÄĳ un
Ġth ung
ÃĮ NH
ĠC á»±u
ĠW HO
! âĢĿ.
ĠCh áº¿
Ġ over
0 50
k ok
o int
ĠV er
m o
ent s
ĠIn tel
Ġv o
SC O
ĠD ub
V Ã´
ne um
H elo
th Ãłnh
ĠB áº£ng
Ġto Ã¡t
ĠKh á»ĳi
ĠH áº¡ng
Ġ7 9
j an
Qu áº£
et o
ĠCh uyá»ĥn
ĠN m
ĠTr á»±c
ĠMar c
ĠM Ã£i
ĠBel arus
Ġoff ice
Ġl iÃªng
ĠNh iÃªn
ĠS ony
2 50
Ġc Ãºc
Ġb r
ĠS ir
N Ãły
Ġ es
Ġcomp onent
ĠB ec
Ġ0 28
Ġbu ild
Ġh á»§
Ġtr u
ĠT Æ¯
ig ue
Ġr Ã¹ng
Ġn áº¿m
Ġtr Ã¨o
B áº¡ch
Ġ ðŁ¤£
ĠÄĳá» Ŀ
Ġngu á»Ļi
H áºŃu
as p
ĠCh á»įn
es la
ĠA NH
ĠA cc
re am
ĠL Ã£i
at i
Ġ áº¥u
Ġ uáº¥t
9 50
j d
ĠH áº¡o
ĠM á»Ŀi
Dep uty
ĠTr Ãłng
ĠCrim ea
Ġgi eo
Ġmeth od
Ġr áº§m
p ro
ĠR u
ard o
H ead
Ġr Ã¡n
ĠThu á»·
T á»Ŀ
O n
Ġtr Ãºt
ĠW all
ĠB in
it o
Ġth Ã¢u
um ber
it es
Ġ Æ¯u
Ġx Æ°á»Ľng
ĠM áº¡ng
ff ee
ea ch
Ġl áº©m
n ik
ĠÃ Ĭ
ĠB os
z h
ðŁı »
Ġngh áº½n
Ġ áº¿ch
Ġng áº¡o
f ield
I t
k en
ĠB uá»ķi
if i
ag es
ĠS O
h ot
ĠB á»Ļi
Ġg á»ĳm
Ġng áº©ng
á» ¨ng
Ã §
Ġtim e
ra h
thu quan
ĠÄĳ Ãºp
ĠCom m
Ġg á»Ľm
ĠH er
Ex press
Ġv Ã¡
ĠGi ai
f ig
Ġ8 3
ĠEn ter
Hu á»³nh
ĠViet combank
Ġth Ãł
Ġb Ã¬a
s au
% ).
ĠThu á»Ļt
ĠðŁĺĤ ðŁĺĤðŁĺĤ
ĠT Ã¡o
Ġ198 6
C áºŃn
ĠAd s
B B
ab y
Ġphá»¥ ng
ic us
v es
ĠĠĠĠĠĠĠĠĠĠĠĠĠĠĠĠ ĠĠĠĠĠĠĠĠĠĠĠĠĠĠĠĠ
ĠTr á»¥
ĠB ern
iss an
L ove
ĠD iÃªn
Ġthá» ¥c
Tr á»Ŀi
" ...
ass age
ĠD iá»ĩm
Ġth áº¯m
Q uyáº¿t
ub lic
ĠâĢĭ âĢĭ
ĠT ÃŃch
ia s
Ġ19 60
ĠCharl es
Ġcá»¥ t
bl ed
ĠM áºŃu
Ġm ake
ĠL á»Ľn
ur ing
Ġpl ay
Ġrequ est
L Æ°Æ¡ng
ĠC á»ķng
ĠB Ãłng
le c
T am
is on
D Ã¹ng
ĠUy á»ĥn
ĠÃļ t
ĠÄĲ oáº¡n
ĠCop yright
ĠÄĳÃ£ ng
N Ã¢ng
Ġ Æ¡
Ġg Ãłng
Ġph ai
Ġ Ã´i
Ġg Ãło
Ġr ang
Ġb áº§n
ÄĤ NG
Ġb Ãº
gi áº£i
w a
Ġca p
B ÄĲ
B I
ĠNh Æ°á»£c
op p
H áº¡
Ġk Ã¨
th er
, âĢĿ
az a
)) ))
Ġ áºŃp
B l
ĠM Ã³n
ph Æ°á»Ŀng
ĠTh ao
T áº¡o
ĠCh an
Ġ ec
ĠTh áºŃp
B á»©c
Ġ âĿ¤
ĠN SND
ĠT CN
Ġc Ã²
ĠÄĳ iáº¿u
Giá» ¯a
Ġc Æ°á»¡i
ĠT en
ĠM TV
ĠK en
Ġk Ã¬m
Äĳ áº¡i
Ġs á»ī
ĠÄĳ áº½
Ġc Ãło
ort mund
ĠSm art
ĠU p
ĠY outube
D r
ĠB IDV
ÄĲ á»ĵ
d ar
ĠB lo
Ġd au
V ua
ĠÄĲá» Ĭ
S Æ¡n
g u
Ġs el
ĠWill iam
x t
ĠH A
ÄĲ Æ°a
ĠNg á»¥y
ĠÄĲ oan
ib an
Ġr á»Ĺng
Ġth en
ĠÄĳ iá»ģm
ĠF err
Ġchá»į i
Ġth Ãªu
ĠN av
Ġhá» ©c
Ġ- -
ĠTh ÃŃ
ĠNg Æ°á»£c
op hi
ĠL ar
ĠK u
ĠTM CP
ĠK e
Con tact
Ġshop ee
ĠV Æ°á»Ŀn
Ġr el
ĠF in
Ġv Ã²m
ĠP ower
io us
ĠL G
Ġ10 8
Chu áº©n
ĠS Ã¡t
Ġg Ã¡y
ĠC O
n o
in ia
Ġr Æ°á»¡i
Ġw e
Ġth áº¹n
et ty
Ġc k
nh Ãł
Ġ9 6
ĠTHI EU
Ġg áº·t
Ed itor
T uá»ķi
ber t
Ġc áº©u
Nh áº¡c
áº³ m
Ġl Æ°á»Ŀi
Ġg as
CC C
Æ°á»Ŀ m
Ch elsea
or th
Ġin vest
Ġn u
r ia
Ġm iá»ĩt
g en
Ġtá» ³
34 12
ĠO ff
ĠÄĳ k
Ġ090 320
Å Ł
Ġquang cao
Ġbik ini
un e
Ġch Ã¨n
ĠH á»Ļ
Ġqu áº¥t
oo oo
Ag ency
ved ev
ĠVO ICE
ĠS um
Ġl áº¹
ĠV Ã²ng
neum on
ĠvÃł n
Ġth oi
ĠR ep
c á»ķ
B N
Ġ19 45
T ao
Ġ á»ķng
â ķ
22 105
Ġ10 17378606
ĠI ch
Ġsp a
% ),
ĠLH Q
K áº»
re ad
ĠA h
Tu áº§n
Ġc uá»ĳng
393 44
ÄĲ H
ĠT ex
Ġ14 0
ĠEr eb
Ġtoasoan vov
ĠSt udio
Ġ090320 3412
22105 148
39344 230
or iz
Ġnháº¹ n
Ġng áº¡t
re en
ĠSai gon
ri bank
Ġnh Ã³c
Ġs ec
Ġm iÃªn
s á»Ńa
i or
Æ°á»£ m
ĠHÄĲ XX
ĠCh Ã¹a
8 50
Ġkhá»ı a
v in
ĠE VN
ĠM er
Ġ1 23
ĠH aw
ĠCol om
c Æ¡
olog y
-------- --------
H z
ĠEreb idae
L an
Ġb Ãºa
0 90
Ġk áº¹p
ĠKh áº¥u
Ġbu t
ell i
Ġnh ang
at ing
e on
ĠM itsubishi
ĠVen ezuela
ĠK á»µ
Ġnh á»ķ
op e
B áº£ng
Ġin c
ĠW atch
ĠChu áº©n
ab eth
Ġ und
n ess
Th Æ°
ĠQ H
Å į
ĠSn ap
T áº¿t
S H
TP HCM
Ġnh ai
Ho áº·c
A h
Ġ3 60
Ġlo go
Ġk i
os p
ĠO k
Ġh Ã¨n
Ġh it
ĠG er
II I
Ġk n
em ber
Ġnh Ã¡y
ĠM á»Ļ
Nh á»Ľ
istr y
Ng áº¯m
ĠCh rome
ĠFranc is
ĠTu á»ĩ
Tr uyá»ģn
est ival
ec o
V I
ĠX iao
ĠC Ã¡n
ĠHo use
ĠM ang
ic on
ĠN ik
Ã Ļ
A L
t Ã´i
áº¢ I
Ġv áº·n
ch a
z o
ĠTh ai
G áº·p
Ġx á»ĭt
ĠT esla
Ġb Ãºp
Ġtrá»£ n
Ġ ....
ĠMod el
Ġb lock
Ġr á»Ĺi
Ġex p
Ġch at
h ai
at eg
bo ut
ht ml
Ch á»ĵng
Ġin st
M Ãły
Ġnh Ãºn
ĠEU RO
ĠTr o
ĠId ol
y th
Ġl áº§y
T I
Ġb usiness
T á»Ľ
Ġch uá»Ļc
Ġs edan
Ġd at
ĠAt letico
Ġr Ã¹a
Ġx Ã¡t
ĠCH Ãį
Ġk eo
Ġ8 7
Ġstr eam
it ch
it r
Ġch uá»ĵn
ĠJ i
U n
ĠNg oc
ĠB á»Ńu
ĠC Ã¡nh
ord an
ĠE c
Ġdevelop ment
ÃĢ Y
H Ã²a
ĠF DI
Ġtá»ĩ p
c á»§a
ĠN N
Ġn áº¡t
Tr áº»
Ġhu á»·
Ġy áº¿m
om b
r g
ĠTr Ã¡c
Ġth áº¡c
Ġvá»¥ n
G hi
Ġn á»ī
ot al
ĠN Ãły
Ġb ack
aff ord
Ġch Æ°á»Ľng
d or
ĠTh Ãºc
Qu á»³nh
Ġkho anh
Ġgiá» Ł
ĠnhÃł n
V Ãłng
áº¾ N
re g
Ġv áº§y
Ġin cl
C á»ĳ
Ġg á»Ļi
ĠN Ãło
Ġb Ãªnh
Ġn áº¿n
ĠN ic
k er
Tr Ã¡i
es c
ĠGuardi ola
ĠN iger
ĠSl am
Iá»Ģ N
ĠIr eland
ĠGiá» ĳng
Ġng áº«m
M Ãłn
ĠS V
Ġcho Ãłng
G h
ai t
us hi
ĠNh an
Ġnh á»ĵi
Ġh iÃªn
s u
Ġ198 7
L Ã£i
ĠR en
ĠR oy
Ġto áº£
Ġsh are
Ġng á»©a
N Æ¡i
Ġnh á»ĳt
re y
Ġph en
ĠF A
ĠL ink
ĠTh á»¥
ap an
ĠðŁĺĤ ðŁĺĤ
C an
Ġl Ã³c
Ġob ject
Ġm Ã¡c
Ġch j
c Ã¡i
st ein
Ngh á»ĭ
ĠH á»©a
ĠB Ã£i
Ġkh iáº¿t
ĠK ur
v o
ĠP ort
Ġmu á»Ĺi
ĠV illa
Ġto a
ĠH P
ĠJ ac
Ġmáº¹ o
g ram
Ġt Æ°á»Ľi
cast le
V in
ĠS ev
U kraine
Ġlá»Ń ng
Ġcm nd
ĠM en
Ġn oi
Ġl á»¥y
Ġg ym
Ġb Ã¡i
i Phone
ĠBang kok
entr al
Ġr áº¡ch
... )
Ġr áºŃm
B iáº¿t
ĠK ane
Ġ one
Ġp at
Ġh aha
Ġch au
Ġtu Ã½
Ġs áº¥y
Ġb ody
Ġtá»¥ y
ĠV Æ°á»£ng
ig o
L á»Ļ
L á»£i
ĠTh oáº¡i
am il
ĠTex as
qu y
ed a
w in
etw ork
ĠNh á»Ľ
l ish
ĠTh á»©c
G r
ĠA k
ĠNh Ã¢m
Ġl áº©n
ĠVict oria
Ġ198 5
ĠF ort
Ġx oÃłi
ĠB N
ÄĲ Ãło
Äĳ á»ĥ
ĠVN ÄĲ
Ġá» Ĵ
ĠEr ik
ĠNh Ãłn
Ġch áº±m
Ġv l
Ġ12 8
Ġim port
ĠN et
ĠRich ard
Ġh áº¯t
ĠL Ã£ng
S Ã¢n
ĠTh iÃªm
ĠSh ar
ĠL áº¥y
Ġca fe
O r
ĠNh o
ail er
ĠX a
om el
Ch áº¥t
ĠX ung
I s
ord er
G P
ap hone
ĠS ab
ĠL Ãłng
ĠSh ow
uct ion
T uyá»ĩt
pp er
ĠD Ã²ng
Ġ8 9
E SCO
Ngh iÃªn
ĠTr ans
â ŀ
et sk
ĠV áº¥p
Ġá» Ĳ
v á»Ľi
ĠP au
PT NT
Ch á»ĳt
Ġr em
Ġc ol
ĠVn Express
Ġh Ã¢n
s er
ĠN okia
Ġngo áº·t
Ġf irst
Ġh áº¯c
V Ã¢n
Ġch áº§n
Ġ4 50
Iá» Ĥ
Ġd áº±n
Ġd ong
Ġ9 7
Ġth áº³m
ĠEl iz
j et
Ġl Ã³
ĠG ame
Ġ? .
ĠTr afford
K á»·
Giá» įng
T á»īnh
Ġdo wn
ug h
o om
ĠNS Æ¯T
Ġbe en
ÃĢ I
Ġv Ã£i
ĠH Ã²n
ĠSc ot
Ġtr á»ķ
Ġ áº¿
Ġp eople
Ġr á»ĵ
ĠR ec
ĠðŁĺ ĺ
S amsung
d en
n Ã³ng
T uyá»ĥn
ĠLin ux
ĠL ÃĢ
N ew
ĠB ob
au t
ĠÄĳ Ã´n
Ph Ã¢n
Ġb l
TT g
Ä© u
ĠÄĳ áºŃy
Ġ2 20
áĢ Ĳ
Qu Ã¡n
Ġx áº¥p
ĠKH ÃĶNG
ĠmÃª nh
y Ãªu
S á»ĳng
bo ard
Ġng á»Ŀi
Ġs ty
Ġt ennis
á»Ń ng
200 9
B Ã¹i
av i
Ġv on
in ae
B enz
Ġ0 16
ĠL Æ°
Th á»§y
E FA
se ud
Ġgi Ã¹m
ÃĢ N
tr on
j o
Ġcan xi
Ġ^ ^
ust om
Ġch ÃŃch
B ook
oper ation
O L
est ine
Ġc all
Ġr áºŃp
Ġgh e
á»Ĳ C
ĠSuz uki
ist ics
ĠR em
Ġm assage
O M
o ff
ĠC V
id s
ĠPh Ã¡i
u ay
Ġnh áºŃm
b b
Ġ Ãºng
Ġv Æ¡
G á»įi
ĠR eg
acom bank
Ġng Ã³ng
ĠAlex ander
Th áº§n
ĠMot or
ak er
ĠHen ry
ĠD ortmund
ĠAngel es
ad y
ĠLe w
X á»Ń
id ent
ĠMed vedev
B uá»ķi
qu a
. âĢľ
Ġb Æ°ng
ĠS ub
ðŁĶ ¥
L S
âĢĿ ...
Ġv Ã¡ng
ĠM Ã¹i
Ġ11 5
oun ce
etw een
ĠNgh Ä©
Ġch ao
áº ®
ĠRom a
at um
Ġt áº©m
Ġs áº§m
ĠM P
ĠD ie
ĠJ im
vn thuquan
y ch
net PhÃ¡t
ĠC enter
Ġ áº¡t
Ġkh iáº¿m
op y
ĠR Ãµ
pl ay
Ġm iáº¿u
UYá» ĦN
Ġxá»ī u
Ġr áº¡n
Ġch áº¯p
ĠCr ist
R h
Ġp re
Ġtr Ã¡
ĠL á»Ĺ
Ġch Ãł
D L
Ġmá» Ĺ
ĠCro atia
ĠP ot
row n
ĠBer lin
ĠColom bia
ĠB on
Ġc re
ĠF ire
d er
ĠTH áº¬T
ĠM oh
ĠHy men
co unt
T K
ĠS oc
ðŁĴ ĸ
ĠBlo om
ĠC Ãłng
ĠH el
Ġch áºŃp
B á»ĳn
ik i
T uáº¥n
U N
Ġgi Ã´ng
Ġr Äĥn
á» ¦y
Ġh á»ĳc
Gi ang
ĠB á»Ĺng
ĠD om
c ol
Ġd áº¡t
er ia
ĠV ill
Ġr á»£n
Ġth áº£y
ĠS and
ur ity
em on
em e
ĠS uá»ĳt
Ġquy á»ĩn
Ġng Æ°á»Ľc
um b
ĠQ R
20 24
ĠL isa
x e
ĠJohn son
ph p
Ġv Ãºt
ĠH Æ°á»Ŀng
ter n
Ġng uyá»ģn
Ġng áº¥m
ag er
o us
h ello
Ġb áºŃy
Ġph á»ĵng
Ġnhi u
N ov
N áº±m
ĠTr áº§m
nh Æ°ng
ĠP CCC
ord ing
ard en
Ar senal
ĠM áºŃt
ĠCh á»¯
? ".
ĠF ab
Ġ Æł
ĠSm ith
Ġch áº£i
r op
ĠÄĳ Ã¡i
ĠI b
at ive
i que
Ġ9 3
o uld
ĠBl ue
H oÃłn
200 8
Ġtr á»ı
Ġpr ov
ĠR og
Ġng a
g et
n M
Ġr áº§u
ĠM H
ĠÄĳ Äĥm
T á»Ľi
Ġv Ã´i
Qu áºŃn
ĠV AN
ĠM AI
Ġtr Æ¡
Ġ198 4
Ġcom ment
ĠÄĲá»Ĭ NH
ut ion
ect ion
ĠL en
ĠKh iÃªm
un a
p ut
â ĸ
ĠNh áº¡n
Æ¯á»ľ I
ĠTh an
ce an
A V
Ġr ev
ic ester
neumon idae
ĠHa aland
ĠIch neumonidae
M essi
M Æ°a
S ch
Ġa e
ĠT Ã³c
Ġth Ã¬nh
ĠÄĲ áº¯c
ĠG áº¥u
Ġngh áº¹t
ĠCh ina
Ġra dar
il is
Ġtá» ħ
... -
ĠSer ie
ĠPh one
Ġb etween
ĠD Ã¹ng
ĠV á»įng
M Ã³n
ĠR ock
Ġh at
00 00
ore a
ath on
Ġy oga
um a
B u
ĠS aint
are z
ĠT áº¡ng
ĠÄĳ á»ĳ
d u
Æ¯á» ļ
ĠC TC
Ġnh Ã´m
ov o
Ġmá» Ľ
D Ã²ng
! \
ĠM ah
Ġth oa
Tr áº£i
Ãģ C
g y
Ġnh Ã©t
r m
f i
âĢįâĢįâĢįâĢį âĢįâĢįâĢįâĢį
L y
ĠF LC
ran t
t Äĥng
ĠJ ordan
ĠT áº¡p
Ġm k
ĠM eg
Ġh ÃŃ
Ġg Ã¡n
Ġs ch
Ġs Æ°a
Ġkh áº¯t
ĠW on
ew ork
em i
ĠK a
U B
ch Æ°a
ĠT ae
ĠN ational
ĠH uáº¥n
ĠPh Ãºt
c es
EL TS
ĠAs ian
Ġe vent
Ã² e
= =
Ġi k
Ġt ÃŃt
Ġb á»Ľi
Th Ã¬
Ġm Ã©o
Tr á»įng
ĠK az
nat aka
Ġl á»±u
b es
ĠM ur
Äĳ á»ĳi
Ġf ol
B á»ı
M al
ĠThu Ã½
if f
Ġp op
ĠT áº¥m
Th Æ°a
ðŁĮ ¹
ĠVIá»Ĩ T
ee ee
L Ãło
ĠV F
Ġcá»§ i
ĠKar nataka
ĠNgh iá»ĩp
Ġkh anh
T el
Ġ om
22 5
ĠUl tra
ĠR on
ĠVal ent
z y
Ġcar bon
ĠV H
c ed
ĠBe auty
ĠSer bia
Ġ ur
Ġm ÃŃa
ĠR á»ĵng
âĢĿ ;
ĠKh mer
d on
ĠA uto
ĠP art
ĠT ang
Ġc alo
Ġh el
Ġb ai
ĠC anh
H el
m s
ĠCh ia
X Ã¡c
ĠFlor ida
ĠL E
ist a
ĠTal iban
Ġo ai
Ġs l
ch á»§
ĠCh á»ĵng
ar is
way s
j u
Ġsup port
] ]
Th áºŃm
** **
Ġg l
Ġsc andal
Ġh Ã£nh
Ġ197 2
Äĳ Æ°á»Ŀng
ĠKh á»ķng
Ġgiá» ı
Ġsá»Ń ng
m ed
B Ã³ng
ĠSG K
es l
ch ain
Ġqu áº·c
ĠDub ai
, ,
T O
s in
H onda
Ġng Ã¡c
Ġngh iáº¿n
Ġ ap
Ġ Ãºp
aa aa
ĠM edia
T oyota
Ġ9 99
ĠK at
ĠC á»§
Ġ17 0
Qu áº§n
V P
Ċ ĠĠĠĠĠĠĠĠĠĠĠ
2 99
B Ã¡n
E M
ĠTh uy
ĠW at
ow ski
ĠUN ESCO
á»° C
em y
ĠÄĲ á»ĳc
ĠClin ton
ĠSant a
di o
Äĳ t
Ġlog ic
ĠCh at
ĠG ab
ĠC B
Ġch áº¡p
ĠNg Ã´n
ĠEliz abeth
? âĢĵ
ĠB iá»ĥu
ĠL Ã²
" ),
Ġ2 10
Ġnh Ã´
ĠL Ã´
Ġe ff
Ġlo ve
ĠA TP
ĠD ay
ĠPH Ãį
1 23
Ġl Ã¹n
ĠW ag
Phi l
ram ework
Ãģ nh
ĠAg ribank
ĠCh rys
ĠR ol
st al
all i
ĠCar ol
Ġvi et
á»¦ A
Ġb áº©y
Ġc áº¡o
ank s
ĠA wards
h Æ¡n
ðŁ¥° ðŁ¥°
ĠN ext
ĠC ross
ĠGr ab
Ġtá»ī a
ĠÃ įt
ĠR oll
Ġt á»§i
Ġch Æ°á»Ľc
ĠEurop a
Ġmá» ³
ĠtÆ° ng
ĠNG H
Ġnh áº¥c
aul t
Ġso Ã¡i
Gi áº£
Ġhi hi
Th Æ°á»Ŀng
á» Ī
ĠB itcoin
iz za
G oogle
ĠX Ã¡c
Ġec onom
ĠPal estine
Ġstr ess
ock er
Ġso c
Ph á»¥c
t n
: &
ĠThu áº§n
r ad
Æ¯á» ¢
Ġfan page
ĠS k
Ġpr om
ĠP le
v al
ĠD V
ĠI ELTS
ĠLu k
ĠNo el
og ba
ÄĲ inh
H ar
ĠR Ãªu
r ol
ic ron
at ic
Ġqu áº¿
Ġtr au
g l
Q P
ĠM ike
P GS
ĠS in
ing ham
ĠWal es
Ch áº¿
our ce
R ob
th uá»Ļc
Ġn ÃŃu
26 0
âĻ¥ ï¸ı
ester ol
ĠTI áº¾T
Ġh Ã³c
T áº¡m
D a
Ġn Ãł
" ).
Ġf ree
h d
ĠHymen optera
ĠG Ã³c
E r
ab ase
" :
ĠÄĲ Æ°Æ¡ng
N á»Ĺi
ÄĲ áº·ng
l Ã´
ifol ia
H C
Ġt eh
Ġng á»¥y
Ġph Ãłn
em en
ĠMar y
ĠM Ã¢y
ĠJ in
Tr a
et e
Ġng Ã²i
Ġ10 5
ĠT áº£
ĠS M
ĠD ar
p ing
ĠNew castle
ĠH áº¡c
V iá»ĩn
pp o
ĠM TTQ
ĠYam aha
ro om
Ġvá» ĵ
oll er
H S
ĠS IM
... âĢĿ.
ĠÄĲ K
Ġ19 68
ĠÄĲ Ã¡
Ġm áº©n
Game Sao
Ġth y
Ġh k
E n
Ch uyáº¿n
Ġn em
T uyÃªn
ĠSw ift
ou ch
Ġb reak
un c
g ar
ĠL áº§u
M ang
T á»«ng
T Ã²a
Ġph ao
L oáº¡i
Ġy our
Ġc at
ap a
K áº¿
v ille
ii i
ĠX Ã©t
al le
ath an
ĠHar v
Ġb á»«a
Ġteh sil
ĠG lobal
G áº¥u
ĠEd ward
ĠC oll
Ġ198 3
ĠO ai
og an
Ġ ass
ÃĶ I
Ġph Ãł
Qu Ã½
ĠS ud
Ġ19 50
il ity
ĠV K
ik a
áĢ ľ
R e
Ġv is
Ġcor ona
ĠTay lor
Ġl m
ĠF ox
Ġcountr ies
Ġl im
ĠNg áº¡n
Æ°á»Ľ n
od a
Y áº¿n
Ġx ÃŃt
Ġg Æ°Æ¡m
Ġ197 9
Ġ198 1
ĠPh ÃŃ
ĠC X
Ng Æ°Æ¡i
Ġ _
M o
ad d
ĠT ak
Ġhack er
Ġchá» ĩ
B O
s ao
Ġn Ãªm
Ġ:)) ))
Ġnh uyá»ħn
ĠS á»ĳng
ĠDon etsk
ik u
ĠVá» ļI
T iáº¿t
Ġc Æ°a
D uy
Ġho Ã¡n
ag n
ĠN issan
f ter
Ġch uyen
ĠH áº¡t
ĠðŁĻ Ĥ
Ġs um
Tr á»Ł
ĠS ur
ĠnÄĥ n
Ġ: ((
TT P
Ġ9 4
Ġth á»ĳn
Ġnh Ãºng
ant a
S er
ou cher
Ġngh iá»ģn
ĠL ion
Ġc Æ°á»£c
Ġph Ã¡ch
ĠĠĠĠĠĠĠĠ ĠĠĠĠ
ĠT á»Ŀ
krai na
r aph
ĠL Ã£
ðŁĴ °
ðŁ Ĩ
A ng
and ra
s á»±
ĠL av
Ġnh eo
m ut
ien ce
ĠB áº§u
ĠTR á»¢
ĠK CN
Ġr áº«y
ĠM ess
tu áº§n
Ġnh ÃŃch
ĠPh áº¡t
l us
g oogle
ur t
ĠR T
ĠE a
ĠBr id
Ġho c
ĠO ut
Ġph Ã´ng
m Ã¬nh
: âĢľ
Ġr Æ¡m
ĠM r
Ġp ass
ĠM iá»ħn
k hi
Ġb ung
ĠC ry
ĠCh Äĥm
ou gh
ĠR ad
Ġm áº£i
Ġg roup
Ġr i
gi Ã¡
ĠB Ã´ng
m iá»ħn
LV T
ĠC áº·p
ĠD ec
ĠS om
ĠS S
8 90
ĠR ap
ig an
m ua
e ph
Äĥ k
Ġcountr y
Ġho m
Th á»ĥ
ĠU EFA
Ġr ock
Ġtu a
L E
s ch
G g
Ġn ua
A t
Ġng Æ°á»£ng
Ġin s
Ġtr Ã¹
B ay
app y
Ġd áº«u
ĠFerr ari
SC L
áĢ ķ
ĠA R
ĠL Ã²ng
as a
Ġn ÃŃn
Ġ ðŁĳī
k ÃŃp
ĠT iá»ĩp
T Ã³c
ĠKr em
ĠÄĲ á»Ŀi
ðŁĳ ı
ĠB oe
t ent
ĠJ ean
Ġs Ãło
Ġx Ã¡o
ĠAF C
ĠTr Ã£i
ip h
áº¬ N
ĠX Ã¡
ÄĲ á»įc
ĠT i
ĠA ug
ĠNH NN
ĠB ro
ĠX á»Ń
ĠJack son
á»ģ nh
ĠHá» Į
S A
ĠB á»©c
ðŁĴ µ
ĠJ ung
ĠCá»© u
Ġd iá»ģu
Ġ áº¯t
er us
y t
Ġch Ã¡t
Ġ Æ¯á»Ľc
Ġch an
r ay
Ġl on
Ġw ere
d ay
ĠF ri
f ace
ing roup
L A
ĠC áº£i
Ġng á»«
ov ich
n Chá»ī
ĠÄĲ áº¥y
ch iáº¿n
ĠBu ff
á»¥ n
Ġb áº§m
ĠT á»«ng
G al
Ġth Ã²
amp ton
D ung
Ġhá»Ŀ n
Ġd iá»ħu
ĠL Ãªn
Ġim pl
ĠScot land
ĠÄĲ á»ĭch
as k
ĠB KS
C amp
b ach
ĠNg Ãłnh
ĠNG Æ¯á»ľI
ĠAP EC
Ġ est
Ġl áº¡ng
y b
ĠLe on
Ġcho l
ĠÄĳ á»ĳm
Ä Ł
Nh áº±m
p or
ĠI M
" ;
ĠCl ub
Ġh is
Äĳ Ã¡nh
Ġa bout
Ġm n
ĠH iÃªn
Ġtá»ĳ p
if y
Ġa b
Ġv un
ĠV iew
est ay
ev in
Ġx iáº¿t
ĠWag ner
S áº¯p
ĠNh iá»ĩm
ja er
Ġres p
Ġex port
ĠÃģ p
tr ol
ĠS Ã¢m
Ġtá»ĭ nh
Ġr á»¥i
Ġ: âĢĵ
j k
ĠAn th
Ġd áº§m
ĠÄĲ á»©ng
Ã ī
v v
ĠP ay
ĠA sh
Ch Æ¡i
ĠV Ãłi
ĠS áº¯c
T á»ĳt
C r
ĠK n
S te
ĠServ er
Ġvá» Ľ
H á»£p
Ġs Ã²ng
H e
ĠS ung
Ġh on
ĠP enn
Ġ á»©
th y
ĠTr Ã¡ch
ĠSer g
n ÄĲÄĥng
Ġth Ã²i
as ed
Ġs dt
H uyá»ĩn
Ch ao
ash ford
Ġt Ã¢u
C Ãº
Ġb iáº¿u
tr Ãªn
bled on
ĠB ul
i ams
ĠT Iá»ĢN
áº ¶
ĠPh a
ĠA le
ĠÄĲ á»ķi
im bledon
ĠIn s
Ġt Ã¡nh
ĠC ang
22 4
Ġxo Ã¡
B inh
Ġm iá»ĩn
ĠN ag
Ġd er
Ġm illion
V Ä©nh
Th áº±ng
ĠL ove
âĢį âĻ
ĠE st
ĠBloom berg
Ġg áº¯m
gg gg
ĠTr anh
ess ion
S P
áº¤ U
ĠvÃµ ng
ĠR ai
ĠV ar
ĠK it
el ly
ĠD D
ĠDani el
Ġnh áº±n
ĠMus ic
Kh Ã³
ip s
Ġl aser
R oy
in us
Ġt anh
ĠG Ãł
ĠA D
ÄĲ á»©ng
Ġg Ã¹
ĠTh iá»ģn
Ch Ã¡y
our n
ĠVin aphone
tr o
b all
ĠJ apan
Ġm á»ĭt
ĠAn t
H oÃłi
V AY
ĠQL DA
Ġc as
ĠLe icester
Ġchol esterol
b ass
ĠA th
Ġd em
w ell
Ġit em
Ġng Ãł
p hi
Th Ã¢n
Ã Ĵ
ashi on
ĠXiao mi
ĠB A
ĠÄĲ am
T á»Ń
H a
ĠBr it
ĠU kraina
Ġc Ã¡u
ĠM arket
ĠA udi
ĠC Ãĵ
Ġd áº¥y
?? ?
p op
Ġqu áº©n
ĠÄĲ á»Ļt
ĠPh Ã¡o
ĠM Ãłu
ĠEver ton
Th ÃŃch
D F
ĠC á»¦A
M ac
ul ata
form ation
Ġincl ud
Ġs áº£ng
F an
ĠN ick
Ġt e
ah oo
Ġhá» ħ
M iá»ħn
ÄĲ á»ķi
ĠÂ «
ĠD en
á» Ĩ
i y
ĠG áº·p
ĠG etty
w an
Ġ other
ĠSte ve
ðŁĴ ķ
f ael
ĠL ind
ĠOm icron
ad or
M áº¥t
ĠB enz
al in
ĠE V
ðŁĳ Į
z b
ec ial
ĠF orm
ro und
S ang
H áº¿t
Ġt een
Ġ19 78
ĠJe ff
es el
ï¸ı â
ĠB y
ĠÃĲ áº¡i
ĠO cean
s et
Ġlo Ã©t
h á»įc
Ġ197 6
ĠB ell
Ġnh Ã¡i
Ã¢ t
Nh u
Ġchá»¯ ng
eto oth
ĠC re
In ter
U I
Ġb Äĥm
O h
Ġthu n
ill er
áĢ Ģ
C A
ĠA ct
ĠCh á»Ŀ
ĠE v
V ui
ĠP ogba
P ro
ech n
C á»Ńa
ĠM Ãłn
ur s
ĠBr asil
Ġ17 5
ĠMas ters
sk jaer
ðŁĳĩ \
ĠT er
Ġr Ãªn
em an
C O
ĠW ood
áº¤ N
C al
ib aba
Ġph Æ°á»£ng
Ġ10 3
ĠF il
Ġd en
Ġ197 3
Ho áº¡t
Th á»ĳng
B á»Ĺng
K iá»ģu
ĠK em
ĠR anh
ĠN ASA
ĠAustr al
ĠJ on
ĠD ig
nh anh
Ġh Ãº
ĠM ik
ett ings
ĠG ea
R I
Ġl Ã¬nh
ĠP etr
Ġv isa
ĠSte ph
ĠQU ANG
ĠMas ter
ĠSport s
ĠViet in
r ie
ĠC D
ĠTr Ã¹ng
ors che
Ġqu Ã¢y
ĠÄĲ á»ģn
Äĳ iá»ĥm
ĠPh uong
ĠÄĲ á»ķng
ir us
Ġxu á»ĵng
ĠMi ami
n s
ĠCrist iano
ĠM ÃŃt
N S
ĠRe act
ĠT Ã½
ĠLe x
ĠB at
ĠM Æ°a
ĠU NG
âĿ¤ï¸ıâĿ¤ï¸ı âĿ¤ï¸ı
Ġr en
Ġmic ro
Ġr áº©y
Ġl Ãºn
Ġd k
ĠTh uá»ĳc
ĠTr iáº¿t
az z
en ia
á»Į I
ĠVi os
b ook
ĠD uc
us an
Ġh Ã¹m
L á»¥c
Ġ Ċ
Ġs á»§a
ph one
ĠTh iáº¿n
D e
ac y
Ġc áº±m
Ġkhu áº¥y
Ġp age
7 50
gi áº£m
Ġv áº§n
uts al
ĠÄĳ iáº¿m
ĠÄĲ Æ°a
ĠTr áº¡i
f in
Ġserv ice
ĠA ston
ĠR ay
urr ay
ĠNob el
ĠL ab
id i
ĠL á»Ľp
ĠH it
ĠT áº§ng
L iverpool
Ġm ar
ĠB T
ĠS P
Ġf il
áº¢ O
ĠMoh am
C j
ĠF ace
ĠH áº¿t
Ġdo m
ĠPh Ãłm
ob ile
Ġkh ang
ĠCh iá»ĥu
T Ã´n
ore ign
S Æ°
H áº¡nh
N inh
ĠRes ort
ĠV ui
f ul
ĠdÃ¬ u
ĠKh Ã³
ĠS L
ĠMo on
Ġr Ã¨m
D Æ°á»£c
Ġthu i
Ġ=)) )
ĠSil va
ĠCh Æ°á»Łng
B i
M Ã´
n ie
ĠS av
r ing
it i
ĠJ am
ĠK áº¡n
ch u
Ġc ute
ĠO K
ap s
ĠKrem lin
Ġr et
j h
Ġt áº£o
ĠB B
ul in
Ġc ard
Ġs áº·c
il ton
uss ier
Sc ript
Ġb Ã¹i
ĠÄĳá» į
Ġinc re
H Ã©
ĠGI UP
ĠL amb
ĠBec kham
ÄĲ áº¥t
ÄĲ á»Ļ
áĢ ¯
ri an
tr iá»ĩu
ĠS T
Ġl ist
r ov
ĠR áº¡ch
id aceae
b ar
Ġc á»Ļ
Ġ2 30
ĠEl on
Ġn om
ĠNh Ã¬
ĠHá»Į C
ĠE ll
l áº§n
ho use
Ġc ac
Ġt Æ¡i
M Ãłu
ĠP as
au d
t ima
Ġ áº©u
Ġg ang
Ġ197 4
R Äĥng
ĠW imbledon
ĠV ingroup
Ġn áºŃp
ĠHÃĢ NG
Ġch áº£nh
e at
Qu Ã¡ch
il ia
ĠCr u
ĠTro ussier
orn ing
ĠTR AN
Ġgi áº±ng
Ġprod uc
ĠG á»įi
ĠHy e
nam e
Ãĥ I
ĠvÃŃ a
ĠHy un
end s
Tr Æ°á»Łng
Ġt iá»ĩt
? "
ĠH igh
ops is
ĠMos k
ĠâĢ ŀ
X inh
ĠF re
Ġv áº¡t
Iá»Ĩ N
ĠD ev
ĠNg uy
ĠB BC
rid ge
Ġc p
ĠH ann
y le
ĠTr áº£
ou ter
ĠC amb
S ai
ĠSt an
ĠH erm
Ġl uyáº¿n
ĠRod r
d ro
ĠRub y
ĠThá»ĭ t
ĠS acombank
Ġng á»Ńi
ĠB I
Ġin fo
Ġ09 8
Ġh áº¥u
Ġho rm
ĠL Ã¡
g á»įi
er d
Ġtr Æ°á»Ľng
ĠCP U
Ġlives how
Ġr Æ°ng
l ong
Tr Ãł
ĠT iáº¿u
Ġtr á»ĩ
ĠC Ãº
ĠV Ãłnh
ng uyÃªn
b u
G I
Ġc á»Ļi
Tr anh
ĠH Ã¨
ĠT áº§m
Ġv Æ¡i
h Ãłng
** *
ĠFor bes
W S
B D
Ġm áº«n
ĠÄĲ Ã¢u
Ġb Ã¨o
ĠSH B
ĠFernand es
j e
ir on
Ġc ent
ĠM et
Ġmu á»Ĺng
ĠNh anh
ĠV áº£
ĠK ir
n á»¯
C Ãł
ĠTh á»Ľi
ĠRol and
Ġk iá»ĩu
ĠC ty
ĠK an
ĠNg Ã£
e im
l Ãªn
ĠK ey
88 8
ĠR áº¡ng
Ġth ong
dr agon
ĠSt art
b Ã¡n
V Ãłi
Hu áº¿
C ol
ĠV á»ĳn
ĠS anh
Ġp en
ĠSl ov
Ġk Ã©t
ĠG ates
F T
ĠCh ile
ĠTR UNG
Ġman y
ĠDie go
ot ti
ĠnhÃł m
ĠCos ta
B Ã£o
ĠCo ffee
Ġm ain
om an
TM L
v Ã¬
ub er
M I
Ġs á»¥c
ĠM iÃªn
w ord
Ġhá»ķ i
Nh áº¯c
ðŁĺĤðŁĺĤ ðŁĺĤ
og en
omel idae
ĠBoe ing
Ġh Ã¬
ĠB akh
ĠT C
ĠChrys omelidae
it er
ic ial
Ġv áº©n
Ġch áº§m
Ġkh Äĥng
P ol
Ġs áº¥m
e ah
s erv
Ġ- >
ĠH áº¡m
Ġnh áº£
ĠO S
lo y
ĠD ia
or us
m áº¹
Ġdi esel
P od
ĠN ar
Ġx Ã¹
h ttp
ĠNH ANH
ĠKh Ã¡m
ĠT uyá»ĥn
ĠO d
ĠK T
ect ed
ĠSol skjaer
Ġc oll
âĺ º
ĠD oc
th á»±c
ĠH Ã£n
ÄĲ B
er on
ĠJ ol
p le
11 00
Nh anh
E F
ĠD C
/ ?
... &
Ġngá»§ i
K iáº¿n
t iá»ģn
ðŁ Ĳ
ä ¸
P G
ĠSer ies
ĠNor th
Ġ á»ıi
ĠVi rg
art a
ðŁį Ģ
Ġn á»¡
ĠC áº¦N
D Ãłn
ÄĲ áº£ng
ĠR áº«y
ĠC oc
Ġn e
Äĳ áº§u
Ġng Ã¹i
Gi ai
Ch á»Ŀ
ðŁĺ ħ
Ġimpl ement
I d
Ġr Ãłnh
Ġ Ã¡t
ah ah
Ġl áº³ng
al s
ĠF u
ĠVIá»Ĩ C
car az
Ġ Æ¯
ĥ £
ĠK ÃĿ
Ġt áº»
10 90
ĠAl ibaba
Ġch ang
Ġth inh
ĠTh á»īnh
eo l
n ers
it ar
ĠHá» ĺ
S u
ĠF estival
Ġchá» «
ĠAr ct
ĠMosk va
ĠS QL
Ġcá»Ń u
Ġ19 54
ĠNg á»ĵi
ĠN ou
ĠMon t
th á»Ŀi
Æ°Æ¡ u
ec om
Ġbu á»ĵm
Ġhot line
Th áº©m
ĠBr ad
C á»Ļng
ĠðŁĺ ģ
ĠC ook
Ġh and
áĢ ħ
c áº£m
ĠH ow
um e
Ġthe y
ĠJ ones
Ġcom bo
ĠCh ris
ĠThu á»³
ĠM att
ĠX ÃŃch
Ġc Ã¢m
Æ¯á»ľ NG
ĠVK SND
h iá»ĩn
Ġqu Äĥng
Ġcon c
ai ne
Ġnh Å©
V C
A ustr
Ġm at
ÄĲ a
ĠR ights
ðŁĳį ðŁĳį
ĠC el
10 6
Ġs ol
L O
ĠFr ed
Ġm áº©u
ÄĲ Ãłi
Ġn eed
ĠK orea
Ġund er
ra ch
ĠS Æ¡
Ġw orld
Ġlo Ã£ng
ĠWill iams
F ed
m ad
Æ ¯ng
T Ã³m
U á»ĳng
amil k
V an
Ġv Ã©t
Ġg Äĥng
H en
Ġs ign
H A
ĠI van
V áº»
ĠN Ã´
ĠR ashford
27 3
ĠBrun o
Ġk Ã¨o
th anh
ae a
m Ã£
ĠS ystem
ĠNh á»ı
Ġr Ã¬
ĠL ife
Ġm et
th áº§n
D cs
ĠG arden
or gh
Ġb in
l ink
B áº§u
ðŁĺįðŁĺį ðŁĺį
ine z
ĠTh oa
ab i
Ġv áº¯n
ĠT á»Ļi
Ġtu á»Ļt
Ġca bin
ĠT á»©c
Kh Ã¡c
com m
om en
Ġf r
ĠAn na
Ġs Ãºp
Ġb illion
ion e
ĠV ang
Ġn Ã¡ch
ĠÄĳá»Ļ n
Ġ10 1
ĠÄĲ Ã¡m
Ġ áº¨
Ġho ay
H áº¡ng
0 93
U y
ĠCh ang
Ġt áº¥c
Ã įt
ĠNG ÃĢY
ĠF an
ek ong
Ch áº¡y
ron t
T om
ĠYH CT
X VN
ðŁĺŃ ðŁĺŃ
ĠLÃĢ M
b áº£n
r ick
alle ng
! ".
ĠN á»Ĺi
ĠBakh mut
Ġ19 30
ĠN iÃªn
Ġb it
b áº¯t
Ġh an
ĠS ettings
ĠÄĲB QH
ĠSnap dragon
ĠTr áº£i
Ġláº½ o
Ġtr áº·c
N uÃ´i
ĠC DC
ĠPle iku
B o
is c
Ġr Ã¬nh
ĠNG UYá»ĦN
C ap
ĠViet jet
C Ã¡n
ĠC á»Ń
ĠB as
os it
ĠJose ph
u es
K ÃŃnh
Ġdi r
b Ã¬nh
s á»ĳng
ĠX X
ĠO DA
S al
ĠJ ess
d an
Ġ {
Ġv oucher
ÄĲ á»Ļt
ĠB ÃŃnh
R Ãµ
Ġ4 76
200 7
Â °
Ġchá»ķ i
T inh
Ġlo ad
s áº½
ðŁĴ ĭ
ĠX Ãª
g áº§n
van ia
Ġv áº¡
x em
Ġdo c
kh o
d am
Ġchá»ĩ ch
ĠB á»Ŀ
Ch Ã¹m
b á»Ļ
Ġb áº£
Ġs á»¡
ĠM id
ĠTh á»Ń
M Ãł
ĠL LVT
Ġvá»¥ ng
Ġpr ot
Ġlá» µ
M art
áº¨ M
ed s
ĠUS S
Ġb ox
E P
ĠSc ott
Ġl Ã¹m
Ġ å
á ŀ
Ġn áº¥p
ĠVinh omes
á» ¬
Ġhi u
ĠY ang
ĠM Æ¡
ĠÄĲ á»īnh
D P
ri x
Ġcl ient
Ġact iv
D av
in st
R L
f an
G u
Ġcon fig
Ng uy
ar ed
K á»¹
M i
th áº¿
ĠJenn ifer
Ġg á»Ļp
ĠBÄĲ BP
orgh ini
ĠN Ã¢ng
ÃĬ U
Q U
C ung
v Ã¹ng
Ġx á»Ļn
em ic
Ġr ay
ĠC Ãłn
ĠWh ite
ĠV CK
Äĳ á»ĵng
Ġs Ã´
th ur
ĠB und
ÄĲ áº·t
ĠL ive
ine a
Ġho st
Ġl ead
ĠK iá»ĥu
V iÃªn
Ġm á»§
1 30
Ġs uch
g n
Ġy á»ĥ
J ohn
ðŁ ĸ
s an
ĠOff ice
Ġ Ð
ĠKh Ãºc
Ġ19 40
ĠIn n
ĠS uá»ĳi
ĠM Ã¡
ĠK am
ĠTh Ãº
Ġchá»ĵ n
ob s
Ġr Ã¡ng
Ġm ot
v Ã´
hi re
ĠCan nes
U C
L L
Th áº¯ng
Ġnho Ã¡ng
zb ek
ĠC loud
ĠLex us
3 50
ĠÄĳ Ã¹ng
âĢĻ .
Cá»© u
V Ã¹ng
Ġin to
ut ure
ĠH om
ep al
ĠD Ã¬
Ġl áº±n
19 45
ĠG Æ°Æ¡ng
Ãģ p
ĠX u
Ġ197 7
ĠT itan
ĠB á»¯a
ĠÄĲ o
ar n
Ġr Ã´
i inae
Ġh Ã²ng
Ġs Ã¹ng
c an
ĠÄĲ á»įc
ĠCh á»©
ĠB ent
Ġth em
ĠdÃ¹ m
M icrosoft
ĠÄĲ áº¥u
v is
ĠW ord
ĠA j
Ġtu Ã´n
âĢĿ -
Ġr Æ°á»£t
ĠR y
ĠbÆ°á»Ľ u
b Ãł
ĠK ang
ĠE s
ĠStr eet
ov ern
Ġ art
ãģ ®
Ch áº¥n
ĠquÃ½ t
ÄĲ Ãłn
Ġdo áº¡
ĠThu áºŃt
ĠÄĲ I
ok e
Qu ay
ĠCh ÃŃn
Ġng ao
ĠÂ »
ĠLu is
ĠLib ya
ĠPal ace
ĠPh Ã³ng
ĠD UY
Ġf ull
igh ton
I ran
ĠGar ros
ĠAmer ica
l ight
Ġph Ã´i
Ġth Ã¡n
ĠSud an
L iá»ĩu
ĠArct iinae
ï¸ıâ ĥ£
ĠÄĳ Ãły
Ġx Ãª
Th á»«a
áº¤ P
Ġn ai
ĠNh áº¥n
Ġr Ãº
Ġg et
ĠAd am
ĠRes erved
Ġsty le
ĠLion el
Ġb uá»ĳt
E A
ĠGi áº£m
ĠTh Ã¡o
ðŁ¤ Ĺ
G PT
ĠLe g
Ġw ell
ĠHar ris
Ġ197 1
ĠC ÃĶNG
ĠG IA
yth on
L áºŃp
c ia
im b
M áº¡nh
IS A
ĠJ ae
ĠM s
ĠÄĳá» Ĺi
ophyll um
Ġ Ã¡ch
ĠNg á»į
e nh
ĠQ UY
áºł N
ĠL oc
ĠFrancis co
Ġm Ä©
ĠM iÃªu
ro ugh
ai i
ĠP ac
Ġ19 67
ĠBenz ema
Viet tel
Ġthá» «ng
ĠQ ÄĲ
ĠÄĲB SCL
Ġyear s
pl or
Ġ! !!
Ch áº¿t
ĠT Æ°á»£ng
ĠD Æ°á»Ŀng
ag ement
ĠAl i
Ġ Ãªn
n ar
00 19
ID S
K iÃªn
L ee
ĠM Ã¡c
Ġb en
ch ia
ĠH TML
ib le
um i
lic ation
Ġf ramework
ĠTR ONG
iz er
ĠO h
Th á»Ń
Ġx ui
S a
c u
Ġv est
Ġ19 69
ĠTh ang
Ġ7 50
B iá»ĥu
ĠðŁĺ Ĩ
ĠN áº¡n
Ġp ost
ĠI l
ad i
ĠD am
ĠU Ã´ng
M M
Ġng Ã¹ng
ĠYH CÄĲ
8 20
t om
Ġ19 65
Ġup date
ĠF el
ĠC á»ı
Ġa fter
r ot
ĠAb d
Ġl Ã¬a
D áº¥u
Ġ use
ĠÄĲ áº·t
Ġmarket ing
ĠâĢ Ŀ
ĠR un
Ġy hoccongdong
at in
zbek istan
t ai
ĠL og
c ode
ĠDu ong
Ġh Å©
ĠhÃ² m
Ã ¤
ĠJol ie
Ġr Ã¡t
yl vania
Ġem NgÆ°á»Ŀi
ĠthÆ°Æ¡ng Dinh
Ġcon ChÄĥm
Ġmá»Ľi Tiáº¿p
Ġem DÆ°á»£c
ĠkhÃ¡c Ngoáº¡i
ĠnÄĥng ThÃ´ng
ĠnÄĥng Tra
ĠnhÃ¬n HÆ°á»Ľng
Ġkhoa Ná»Ļi
Ġkhoa Nhi
Ġkhoa RÄĥng
ĠthÆ° XÃ©t
Ġchá»©ng Ung
Ġthuá»ĳc Phá»¥c
Ġkhá»ıe Sá»©c
ĠmÃ´n TÃłi
ĠdÆ°á»¡ng Máº¹o
Ġtáº§m TÃłi
Ġbáº§u ChÄĥm
ĠsÃłng GÃ³c
ĠMáº·t Sáº£n
Ġsá»¹ TÃłi
ĠYHCT Thuá»ĳc
ĠG un
áĢ ģ
l am
c Å©ng
ĊĊ ĊĊ
g Ã¢y
Ġcon d
T uyáº¿t
Ġ10 2
Ãĵ I
ðŁĮ º
Ġng á»Ľ
ÃĻ NG
Ġ end
ec a
ĠX U
Ġr á»§a
ĠNh áºŃp
A A
áĢ Ń
ĠDel ta
ĠI ll
ĠGuardi an
h oa
Ġ19 0
Tr Ã¬nh
Ġz alo
ui re
Ġch Ãłi
om p
Ġtr á»įc
Ġt á»§y
m g
ĠNG ÃĤN
ĠF ar
Ġs áº£o
ers e
ĠD á»ĭ
Ġ24 0
ĠIn di
Ġng áºŃy
ĠB oy
um an
Ġsel f
Ġ áº£i
Ġph Ãło
Ġinclud ing
9 90
Ġnh ÃŃu
ol n
ĠÃĶ n
á»Ĳ I
Ġph Æ°á»Ľc
ĠB ah
ĠShop ee
ĠC ast
ĠR ome
Tr á»ĭnh
âĿ¤âĿ¤ âĿ¤
g á»ĵm
Æ¯á»ļ C
ĠPh áº¥n
ed y
Ġkh Ã¹ng
M on
s i
Th Ã¹y
el ia
Ġhy brid
act ion
ĠCá»¥ m
t áº¡i
ĠI B
ĠAnth ony
Ł m
p es
ĠKh Ã¡c
Ġkh Ã¢m
Ġh áº±n
Ġs hi
ĠDe f
Ġng Ã³i
Ġdi ff
á»¨ C
ear l
ÄĲ Ã¡m
al us
ĠValent ine
ĠÄĲ áº£m
ĠH ealth
Ġty pe
Ġx á»ĭn
ĠC IA
V iew
ĠInd ex
Ġtr á»ĵ
ĠD J
ĠT oÃł
Tr á»±c
Ġr Ã¹i
t ok
ram b
ĠC Ã¹
Ġban k
Ġm Æ°á»Ľt
ĠT ab
Ġm áºŃn
ĠDis ney
ĠTh áº¯m
ĠR io
th am
á»¤ C
Ngh Ä©
Ġan n
W orld
ĠTr Ã´ng
ra ham
Ġs il
ĠMart inez
ol as
ra w
ĠM all
IN E
az er
Ġinter national
Ġm áº§u
Ġr ub
ĠW ang
th e
c Ã¹ng
ap e
ug uay
ĠCh Æ°
M u
Ġn á»ĩ
S im
Phil ipp
ĠðŁĺ Ĭ
Ġgi un
Ġngu oi
ĠP orsche
Ġbá»ĭ a
tr Æ°á»Ľc
m inh
ĠRo oney
Ġs á»Ļ
and owski
nh Ã¢n
Ġn umber
ĠH uyÃªn
ĠT est
ent al
nh an
ĠK al
Ph áº£n
ar en
Ġ045 1
Ġinvest ment
ĠT Ãºc
Ġsu Ã´n
Ġc ity
t im
ason ic
ĠCh uyáº¿n
t ien
ĠT e
B e
ĠB ui
O O
Th Ãºy
c áº£
Ġm ail
H iá»ĩu
ĠL uyá»ĩn
ĠBlu etooth
ĠB Ã¨
Ġdu oc
ĠN ev
s ites
ĠRoll s
ĠH á»«
Ġm á»ĵng
Â Ń
Ġd á»©a
Ġra t
= "
ĠJ ak
ĠM á»ĭ
Ġk Ã¨n
Ġ1900 0019
ent ial
Ġmá» ©t
ĠK enn
Ġ Æ°Æ¡m
Ġx Æ°á»Ľc
ĠD ol
rai n
Ġmá»ī a
Ġ6 50
s w
Ġn Ãłnh
ing er
ar p
s ylvania
Ġ19 42
ĠM ekong
F or
B áº¿n
ĠM urray
ĠM ass
Ġkáº½ m
L Ã´
Ġdat abase
ĠT á»Ľ
ĠS á»©
Ġn at
L X
ĠL or
ĠD uyá»ĩt
ĠP ed
th o
á» ľ
ĠSim on
in ch
ĠC á»§a
ĠH au
Roy ce
Ġc áº±n
ĠL az
ĠP re
ir d
yd ney
Ġ19 63
l anh
Ġh ero
Ġkh Ã©t
Ġkhuy nh
áº¦ U
ĠPr es
ier re
Kh áº£
eg as
Ġtiáº¿ u
ĠCol le
ĠHarv ard
tr á»«
ĠHot el
akh stan
Ġch áº±ng
ĠEx press
ĠC ore
Ġs ale
ĠGen eral
ag i
ĠM á»¥
ĠLa w
Ġg row
n Báº¡n
t Ã¬nh
n ch
ĠC á»«u
c uá»Ļc
ĠB ac
ðŁĴ ľ
ĠS MS
Ġb log
Ġlo Ã¡ng
Ġor gan
ĠTr Ãłm
g or
Äĳ áº·c
ĠM Ã¨o
en o
r as
ĠAt l
ĠRa fael
iat ion
F ran
h Ã¬nh
Ġnh áº¿ch
Ġhorm one
ich i
Ġt á»Ļt
G iáº¿t
Ġnam e
H D
S uá»ĳt
ĠKH O
Ġsal on
ĠN ot
ĠB iá»ĩt
r or
ĠSh e
ĠSp ace
Ġ19 66
r it
08 4
TE RS
N a
Ġn ung
Ġs z
ĠL Å©
Ġnh áº½
t ar
Ġco operation
ĠTel eg
ðŁĺģ ðŁĺģ
in son
Ãģ NG
ĠNiger ia
B á»¯a
ÃĤ Y
Ġr á»¥t
ach el
Ġm ui
ÃĢ NG
Y Ãªn
ĠPer u
Ġ11 3
id ia
B iáº¿n
lo c
Ġkh ay
ch iáº¿m
ĠG á»Ńi
ĠB ale
ĠM oney
ĠPhilipp e
ĠM Ã£n
EU TERS
F TA
ðŁĺ Ħ
uck er
24 4
ðŁĳī ðŁĳī
iv o
ĠVo ice
ĠCry stal
k ey
ĠD áº«u
Ġ476 889
Ġho áº£
ÄĤ N
m ark
ĠTh áº¡c
Ġ19 64
Giá» ¯
Ġto ken
Ġc ustom
ĠH old
Ġb us
enc ia
Ġval ue
ob e
Ġph á»Ľt
Ġs á»įc
L Ãłng
Ġgi áº§y
ut t
t á»ķng
K em
kh u
ĠMac Book
ans as
ĠT ar
Ġ19 62
ai re
Ġn tn
Ġp ack
ĠTim e
if lor
ĠCh ar
ĠM W
37 0
ðŁĻ Ĥ
S ing
ĠX IN
v á»ģ
Ġb iáº¿ng
ĠPenn sylvania
ch ez
ĠHá» Ĵ
Ind onesia
ĠÄĳÃ³ a
Ġt Ã¬
Ġngo Ã£n
b áº£o
ĠC av
áĢ Ľ
6 20
L H
m Ãł
m ay
ĠD ak
Ġ10 4
Ġlo ay
ĠK evin
Ġ1 22
iv a
ĠQU á»ĲC
Ġm Ãºi
m áº¥t
ĠTh iá»ģu
Ġ Ã²a
Ġres ort
op ol
ĠCTC P
ĠT áºłI
ĠR EUTERS
w agen
Ģ ï¸ı
ĠF ul
ĠKl opp
men ia
Ġ15 5
ĠAl caraz
ĠSal on
Ng Ãłi
ĠU zbekistan
re al
Gi áº¥y
ÄĲ Ã³n
ĠCh áº¿t
Ġh en
S Ã¡ch
Ġfol low
k top
as i
ua dor
oll a
Ġng á»Ľt
w on
Ġk it
is es
Ġmod ule
Ġlog istics
ĠBr and
Ġcon tin
Ġform ula
ĠEm ma
á»Į C
ĠÄĲ áº¹p
ĠI a
un k
Ġpro cess
erb ai
Ġt ext
Ġtá»Ń u
ĠH U
ĠG hi
m et
... ".
ĠC entral
ĠP o
Ġh á»Ļt
s eo
ĠV ai
ĠD ai
n Vay
um ent
ch áº¥t
ar th
ÄĲ au
ðŁĴ Ĺ
ĠJ ustin
O l
ĠC ode
ĠI T
ĠSa f
V Æ°á»£t
ĠÄĳ Ã©o
ĠUnivers ity
7 90
ĠL igue
ĠNg Æ°u
ĠY ong
áĢ ļ
ĠN etwork
ĠN áº±m
Ġr Ã£nh
ĠHO T
r áº¥t
edd ing
Ġb anh
ĠT á»ĳc
ĠTo áº£n
C L
h y
ĠV AR
ĠX IV
Ġnguy en
ĠM ini
Ġth ere
Ġ Æ¯ng
Äĳ áº¿n
ĠM anh
ĠH ir
Ġ13 5
ĠGa al
plor er
Ġ20 50
ĠF e
ĠRang er
ĠD y
N á»£
Ġm Æ°á»Ľn
Ġph Ãłm
Ġproduc ts
Ġh er
erbai jan
ĠCh á»©c
F r
tain ment
L am
es us
Ġtr Ã²ng
ĠJ oh
ĠH av
el in
ob i
Ġ âĻª
Ġ3 20
Ġg á»Ŀ
Ch á»¯a
P seud
ul us
rah im
Ġgiá» Ĺ
E p
Ġtá» ģ
E V
H Ã¡t
ĠE nd
Ġc Ã¹
ĠC le
ĠD ir
Tr Æ°a
t is
Ġng á»£p
ĠSal ah
Äĳ á»Ļc
ĠB ud
ÄĲ áº©y
Ġn áº§n
ĠNov ak
Ġm g
T im
Ġh ong
Ġn ude
ÄĲ á»ĭnh
ãĥ ¼
Ġnh Ã¨
m ond
ĠM orning
ĠA DN
ĠD Ã£
ĠKh áº©u
hi hi
ĠRam os
ĠðŁ¤£ðŁ¤£ ðŁ¤£
' ),
ks wagen
Ġtráº» o
Ġqu ai
ok o
S L
id ane
Ġth Ã³t
Ġc Ãºt
ĠTr á»£
ch áº¡y
Ġnh Ä©
us a
Ġind ex
v ÃŃ
ĠP en
t am
21 3
Ġ0 35
ather ine
j or
Ġbá»ĭ ch
Ġw ho
av asc
Ġs Äĳt
tr ic
6 35
Æł N
ir l
Nh áº¥t
ĠS C
Ġ5 50
ph Ã¡t
ĠF ull
ĠX p
Ġph ot
th á»ĭ
Ġnh á»£t
Ġc á»£t
Ġqu áºŃy
T Ã¹y
ĠS ydney
au x
Nh an
Ph a
eg al
b Ãªn
Ġnh Æ¡n
t áº¥n
Ġ ui
M Ã´i
ĠTr uy
S tr
n ia
¡ n
in idae
Ng Æ°á»£c
Ġnhá»Ŀ n
ĠHo áº±ng
Ġd on
esl iga
Ġr ed
ĠSec ret
Ġl Ã¡o
Ġc uá»ĳc
Ġgi Äĥng
hi ng
ustr y
B H
Ġ order
ĠO pt
m on
ĠA CB
ĠCM T
Ġh ad
ĠLH P
Ġm ix
ĠAn n
l ed
y cl
Ġh Äĥm
ĠU á»ĳng
ev a
oot ball
Ø §
Ġstart up
Ġnh Ãµm
ĠV II
Ġn ÃŃt
Ġsh ort
S m
Ġx iáº¿c
ĠChampions hip
99 9
N Ã´ng
ĠÄĲá» ĺ
99 299
ĠB usiness
ĠS ea
ĠPh ot
M á»ĳi
ĠM ak
N ay
c am
ĠR ON
Ġd áº»
Ġx á»ĳp
, &
Th Ã³i
ĠGi Ãªng
Kh oa
B iá»ĥn
ĠB re
P S
A cc
Ġon ly
ĠAb e
ĠD al
ĠâĢ Ķ
il i
ir i
Gal axy
Ġc Ãłn
Ġb ÃŃt
tr ung
á»£ m
k ins
Ch Ãºa
âĢįâĻ Ģï¸ı
ĠGi Ã¡c
Ġ19 41
W HO
áĢ Ķ
Ġ1 19
fl ix
S on
Ġg áº£
ĠQu Ã¡i
Ġhá» Ľ
D á»ħ
Ġb on
Ġh ead
Ġtu r
m at
Ġ= >
n om
ĠK ai
ĠR ev
á»¡ i
9 20
ut nik
od on
ĠM á»
ĠÄĳ t
qu ang
ĠHá»ĺ I
Ġ09 7
ater idae
ĠCh ic
ĠCh iÃªm
ĠE lec
ach i
Ġ11 2
b le
ĠPh Ã¡
Ng á»ĵi
Ġbu ff
Ġkáº» o
ĠÄĳ uá»ĳc
ĠW ell
ĠW TI
iv ia
Ġn y
V inh
Ġáº¤ y
Ġwh en
ĠC áº©n
ar u
Ġreg ion
ud y
Iá» ĦN
ĠP in
ĠUr uguay
ĠIs land
Ġ Ã³ng
ĠÄĳ ong
ĠW ol
ĠAnton io
G A
ĠF BI
Ġb áº¹p
ðŁĺ ĭ
th á»§
oc co
ĠC our
Ġn Ãºp
em m
as y
Ġhá» «
Ġh Ã³ng
Ġ áº£m
Ġst udio
ĠChat GPT
ĠAustral ian
ĠR over
Ġprov ince
2 10
V á»ĳn
Ã ±
ĠLamb orghini
Ġr iáº¿t
ch uyá»ĩn
ĠKH Ãģ
Ġb ro
ĠG e
ĠCarl os
ĠG am
b áº¥t
art ment
ĠT ung
ðŁĴ ĵ
Ġs á»Łi
Ġhá» ī
f ore
Ġl áº£
Ġng áº§u
' t
ĠD mit
2 000
N áº¡n
ĠB ag
Ġ á»ķi
ĠTh uyá»ģn
âĢ Ķ
Ġ ðŁĳĩðŁĳĩ
ĠN á»¢
b us
ĠS á»¯a
ĠB á»į
ĠS D
ĠCHÃį NH
ĠTh áº»
ch ÃŃnh
B T
ĠH TX
Ġ19 46
Ġ19 44
anth us
Ġch Ã³c
as tr
ĠD ream
ĠT G
ĠTh is
Ġ11 6
Ġchá»ī n
o f
ĠK ate
Ġ20 26
ĠRoy al
ĠTh Ã´n
og n
Ð °
Ġm á»ĭ
Ġh áº¡c
ĠN ight
ĠvÃ© n
ĠSu arez
Ġo anh
á»ģ u
Ġpr ovid
Ġng Ã¡ch
g t
ĠTr uyá»ĩn
Ġthá» Ľt
ach e
Ġtu Ã´ng
ĠEnter tainment
Th á»ĭt
d anh
Ġs áº£
ĠS or
ħ u
M el
Ġhá» Ń
Ġtra de
ib al
ĠH ee
b ac
id o
ĠV OV
ĠB Ãª
Ġl áº«m
u ce
ĠVin com
ĠA ut
ĠÄĲ Äĥk
ĠHar i
Ġk y
Philipp ines
00 1
ĠYo on
Ġl á»±
ĠNap oli
BÄĲ BP
Ġd ev
Ġm áº§y
ĠB rown
Ġb ec
ĠCam era
b om
ĠS á»Ńu
ĠS N
r um
ĠKh Ã¢m
ĠCr edit
Ġr outer
ĠJ S
ry pt
c Ã¡ch
p an
ĠEx plorer
ĠHaw aii
ĠkÃ© n
ĠRog er
ĠMag uire
Ġan ime
Ġthu ong
? ",
Ġr eal
Ġp iano
L á»ĩ
ĠKaz akhstan
Ġ ed
Ġth Ã¢y
Ġl Æ°Æ¡n
ĠAr menia
l en
Ġcá»ĳ p
ĠL Ã¡ng
ĠCH O
Th áº¡ch
TR I
ĠB h
" "
ĠCat al
ĠLu áºŃn
ĠKh iáº¿t
ĠS uk
ĠCh ev
V al
G á»Ńi
Ġbá»Ļ n
ĠY oga
ĠS áº§m
ra ft
ãģ Ļ
ãĢ ģ
ĠF ree
om o
Ġthá» ī
Ġ: (
ĠH áº¡n
ĠS á»Ńa
Æ¡ ng
M ic
ĠTT XVN
Ġv áº¿
ĠH I
ĠL áº½
Äĳ iá»ģu
Å ¨
ĠS ri
Ġd áº«m
ent o
Ġs Ã²
au s
ĠH Æ°
Ġs áº«m
4 50
un ct
Ġ11 1
E up
ĠR yan
Ġc over
Äĳ Æ¡n
U p
ĠT Ã¡t
ch Ãºng
ĠC á»ĳng
ĠB á»ı
avasc ript
c á»±u
ĠM I
ĠK ÃŃch
ers ion
n Ã³i
ĠBrun ei
Ġtá» ĥ
ĠM end
Ġad min
tr i
ĠCon trol
c er
Ġra p
ĠT áº¡m
Ġgiá» ħu
Ġtr iá»ģn
Ġb á»Ŀi
ĠtÃº m
ĠJava Script
Ġcon cept
Ġ Ãº
Ġs áº¯n
!! !!
ĠMin istry
S an
ĠNg u
M V
Ġm is
ut a
Ġm ed
l Äĥng
ult ure
Ġl iÃªm
ĠR oss
Ġl á»ĳ
ot us
ing ton
ĠCÆ¡ m
un er
sh ine
Ġl áº¡t
D áº§u
ĠT eam
ĠC CB
ÄĲ Ã¬nh
ĠKh erson
ĠtÃŃ a
ĠÄ ĥ
Ġbu á»Ļt
os c
Ph Ã³ng
Ġkho áº¯n
overn ment
Ġs ystem
ĠKh uyen
Ch á»£
ĠC iv
ĠP op
Ġv Ã¡i
Ġá»Ĳ c
ĠB Ã²
Ġ19 43
ĠY u
Tr Ã²
ch iáº¿c
th Æ°á»Ŀng
u ter
B en
ĠSt ate
t ÃŃnh
ĠQu á»³
Ġ0 37
ĠM á»ĳi
Th o
im i
Ġg áº±n
ĠC oi
Ġn áº¥c
ĠW ei
Ġ19 20
ĠPl aza
ĠXp ander
ĠG on
Ġb Ã´
Ġdown load
m es
ĠM áº§m
ĠÄĲ au
th iÃªn
ÄĲ Ãłm
inh an
Ġ um
19 75
D jokovic
t ion
C Æ¡n
ðŁĺ Į
ĠVP Bank
L ED
h e
Ġmu on
ĠC áº¥m
Ġ1 21
Ġc al
ĠAir ways
un ic
y ph
ĠTR áº¦N
200 6
ĠÄĲ Ã¡p
chi y
Ġb á»¥c
Ġhero in
l áº¡i
ess a
Ġhy dro
v y
Ġ enter
ĠM Ã³ng
f ox
44 9
ĠTr á»«
ĠEl ateridae
n Æ°á»Ľc
ell er
Th á»ķ
Ð ¾
ĠCh en
ðŁĻıðŁĻı ðŁĻı
Ġ á»«
ĠR Äĥng
w ich
Ġtá» £n
Ġt Ã²i
Ġvis it
âĢĻ ,
Ġ10 9
Ġmob ile
Ġxo Äĥn
Ġ19 58
ĠP ass
J S
old er
ĠBund esliga
L Ã¢u
ĠNV CC
Ġx uyáº¿n
Ġtr c
ri o
ĠÄĳ anh
ĠC Æ°á»Ŀi
m á»Ĺi
ĠB ack
Ġ12 4
ĠEc uador
, "
90 90
f ia
Ġdi g
Ngh Ä©a
ĠGi Ã¢y
S á»¯a
or o
ĠH UY
ĠAz erbaijan
is ia
âľ Į
D on
Gi Ãºp
ĠD iÃªm
Ġm Ã¨
Ġr Ã¢m
ĠNg á»±
V Æ°á»Ŀn
ĠT od
âĺ İ
Ġt Ã½
ĠTech n
Ġs n
ess age
ĠSev illa
ĠG om
Ġg ood
Kho áº£nh
Ġth Ã³c
ĠS ak
Ġvá»ĩ t
ĠB ut
il on
ĠLew andowski
u f
Ġb iáº¿c
ĠChrist ian
áº º
an us
ĠCh im
Ġt echn
ch Ã¢n
ĠE co
Ġc áº¥n
X u
h Ãłnh
ĠLu Ã´n
z i
ĠCl ass
ĠBr ook
Ġv k
ĠTh Ã¡m
st ant
ro d
ĠW ay
Ġta sk
ĠI X
Äĳ a
ĠBr ighton
ĠN an
Bar ca
ĠTh Ã¢m
h in
Ġm Ã¡ch
NG UYEN
ĠV KS
ĠVin amilk
ĠBul g
Ġmá»į ng
Ġr áº±m
Ġng ai
re at
Ġs te
Ġch áº¯t
Ġt erm
ĠY emen
G Ãł
b á»ĭ
Ġ. -
R A
Ġkhi Ãªng
ĠÄĳ áº¥ng
ĠTr a
Ġlo an
J u
ĠH K
Ġn ig
ĠC ramb
Ġmon th
ĠCramb idae
v ia
Ġbá»ģ nh
p ar
Ġhuy en
ĠNg á»Ļ
Ġnh Ã³i
Ġtu áº¥n
C oi
ĠT em
hi o
w alk
ĠH Ã³c
ia go
N o
ĠLuk aku
ĠO x
ĠV áº»
... "
CM P
: :
Ġv ÃŃt
Ġwhi le
Äĳ ang
uc ci
Ġl á»ĭ
ĠL U
Dav id
Ġj e
B ÃŃch
ĠX L
Ġb Ãłnh
Ġd t
ĠTh á»ıa
ĠM ach
ĠL Ã¡t
ãĢ Ĥ
ĠT D
ĠÄĲ á»©a
ĠG Æ°Æ¡m
il idae
... ).
Ġn ode
1 19
ĠGab ri
ĠS ÄĲT
ĠHit ler
x cÆ¡
ad en
te xt
Ġlu on
Ġst ate
Ġch áº¥u
20 30
Ġ' '
i od
om y
Ġx Ã¹m
hoc vietnam
ĠKr Ã´ng
Ġh Æ°Æ¡u
ĠGi l
chiy hocvietnam
Ġl ine
0 91
b ot
al ty
T Q
Ġr áº§y
Ġ10 6
ĠN epal
Ġ ÃŃ
Ġd á»Ĺi
16 0
ĠW olf
Th áº¥t
ĠR et
ĠCh Ãł
ĠT á»ĵn
áĢ ¡
ĠJohn ny
ĠVI P
ĠNG OC
Ġv ali
ĠT own
ĠÄĲ ao
Ġgiá» ¡n
ut ions
ĠTech combank
ĠS á»Ĳ
Hy undai
ĠL ight
k ip
ĠS at
ĠAl bum
âķ ¬
Ġl Ãºt
Ġng uÃ´i
ĠQu al
Ġd áº¿
Ġ: \
w art
ĠH á»ıi
ĠL CD
ĠVol od
tr act
ÃĤ m
Ġd áº¥n
Ġ10 7
ak ia
ĠTr ich
port s
ĠX áº¤U
Ġd et
ĠKh áº£o
ĠG or
Ġs á»¥n
and y
ĠSh er
ĠÄĲ ÄĤNG
B á»ĵi
ement s
' '
ann el
ĠH inh
ĠCh áº£
Ġ0 38
ĠTy pe
k inh
Ġd Æ°á»£ng
ĠX inh
Ġhu hu
N Ãło
h ad
Ġl ast
ch áº¿t
Ġ ang
Ġnh am
Ġme et
ĠðŁĺ Ń
M á»ĮI
ĠIS O
Ġv ar
Ġx y
ĠNg Ãł
ud a
Ġd Ã£i
Ġ11 4
ĠD im
Ġmá» £
Ġf ac
f it
w ar
S Ã´ng
28 6
ĠS áº¯p
G o
Ġs ing
Ġim age
ĠCS S
ĠSh aw
iá»ĥ ng
á»ĭ u
ĠH anh
H Ãłm
ĠP ic
for man
ĠT á»¥i
Ġ19 56
L G
Ġb ÃŃch
Ph Ã¡
ĠP ers
ĠPh á»ĳi
Ġkh Ãłn
ĠCol or
ĠR á»«ng
D á»±a
Ġn áº¡o
ok u
ĠGi an
H áº±ng
N iá»ģm
ĠAug ust
Ġl ar
Ġv Å©ng
Ġn ail
Ġm etro
Ġn Ã´i
Ġsp ec
ðŁĨ ĵ
Ġde f
nh iá»ģu
ĠN DT
ĠB ox
Ġtr á»Ĺi
? ...
ĠHN X
ph ong
b á»ı
Ġt áº¯n
fer ence
Ġ19 55
ĠHo Ãłnh
Ġt otal
C Ãłng
ĠA BS
ĠTI áº¾
ĠRom ania
rol et
y g
ĠNi Ãª
Ġ0 33
ĠDAN TRI
un ity
ĠL op
Ġl em
ĠZ ap
ĠN ÃĵI
ĠNet flix
im ex
ĠPot ter
am o
ĠT NG
ÃĢ NH
Ġd á»Ļt
at ti
) -
ĠthÃŃ m
C Ã¡nh
Ġ ĉĉĉĉĉĉĉ
P er
ĠT Ã²ng
Ġn Æ¡
ĠN áºŃm
ĠChic ago
ĠKh Ã³a
A lex
Ġd ÃŃ
! "
V Å©ng
Ġm eg
Ġk il
D S
Ġcá»į p
urr ent
ĠBos ton
M áº¡ng
Ġ00 1100
o it
Ġn á»ĩn
Ġtá» Łm
yy yy
Ġth uyÃªn
amb oo
Ġc s
ĠB lock
Ġ16 5
uc ation
ĠAng ela
l ar
Ġs á»ĩt
Cl ass
ĠO le
ĠT w
re a
Ġ19 61
Ġ ol
] .
ĠM iáº¿u
ĠSch ool
ĠBar b
Ġbusiness es
ĠK iá»ĩn
Ġf ield
Ġf oreign
ĠCH á»Ī
ĠF al
Ġb nh
ĠG ang
Ġviet tel
ĠBrid ge
Ġshow room
ĠNh áºŃm
ĠEd ge
ĠH á»£i
ad emy
Ġ. \
Ġ4 20
Ġr á»ĳn
X B
k á»³
Ãª t
cel otti
ĠTr á»Ł
ĠMin ister
Ġp ublic
K Ã½
Ġg lobal
ĠBr uy
T Æ°á»Ľng
12 9
R F
ĠÄĲ áº§m
ĠL as
Ġb Ã¹a
Ġc ase
ĠlÃŃ u
ĠR S
Ġfl av
as aki
Ġgen e
ĠMc G
Ġso ur
ĠF ile
áº« ng
t ens
ĠHu ong
v Ãło
ðŁĴĸ ðŁĴĸ
ĠH TC
ĠS oo
ĠB aby
Ġl Ã©p
ĠCam ry
ĠL Ã¡i
Ġg á»ıi
ĠCh Ã¡y
ĠMess enger
M iá»ģn
12 5
ðŁĺ Ģ
ĠÄĲ á»£i
Ġkho Ã©t
?? ??
Ġ12 9
un tu
ĠAl b
amp le
ĠX á»©
ĠZ idane
o in
ucker berg
Ġ ip
B or
k el
à ¹
Ġ Å
ĠSp utnik
Kh uyáº¿n
ĠT ony
Ġbá»ĭ nh
20 26
uk e
ĠB R
ient s
z en
Ġnh áº¡o
ĠÄĲ ÃĢ
Ġch áº§u
C LB
M ich
Ġnhu á»ĩ
oc us
Ġu Ã½
ĠTu an
V áºŃn
Ġ20 45
Ġn ick
evel oper
ĠG ood
ĠM is
ĠR ails
ĠM T
ĠM ic
ĠGi áº£ng
ĠU RL
ĠVietin Bank
Nh áº¥n
R o
E VN
ĠE b
ĠB eck
ÄĲ Ã´
Ġ iss
ĠD á»¥ng
200 5
Ġc áº³ng
Ġgi Æ°Æ¡ng
Ġv Ã£ng
99 99
A b
Ġ36 5
Ġel ec
ĠCon nect
Ġ19 59
ĠAr m
og raph
Ġex per
ĠM Ã©
ĠH á»įng
ĠPh o
id ium
B á»ĵ
ĠNg o
Ġc áº·n
' :
Ġv ol
arl ett
Ġpr op
ĠB ai
ĠPrem ium
ĠLan ka
ĠKh Ã¡ng
Ġa ff
ĠFort uner
t ay
T Æ°á»Łng
Ġph á»ĵn
10 17378606
77 0
ĠT iá»ĩm
es p
A F
ĠMc C
Ġau th
ik o
Ġ27 0
Ġh Ã³t
ĠJ P
Ġblock chain
Ġm Æ°Æ¡ng
ĠSerg io
er ing
Ġ14 1
! ...
ar on
Ġxá»ī n
Ġself ie
ĠT á»įa
Ġcom pl
iiii iiii
qu á»ĳc
A p
ur ne
ĠAg u
uk a
ĠB ook
ĠH az
ĠD um
E TT
ĠCharl ie
ĠU ber
ĠM eta
ĠG olf
Ġf in
H á»ıi
Ġthá» ıi
Ġá» ¦
ĠServ ice
ĠP DF
r in
Ġp an
ino is
M e
ĠW an
Ġg ram
ph áº§n
Ġ Ã©o
Ch á»īnh
ĠWi Fi
T á»ĳng
es a
ĠR au
Ġs Ãłi
ĠL eo
ĠCh á»Ĺ
ĠK m
ĠN Ãł
F O
Ġsá»± c
O b
f Ã©
Ġm el
ge i
' )
ĠAmer ican
ĠH on
ĠK arl
Ġr Ã¨
Ph á»ĳ
ĠVict or
Ġch Ã¹i
x anh
ðŁĺ ¢
kk kk
Ġv áº§ng
M áº¯t
po int
te e
Ġgi áº¥m
ic y
ĠO hio
ĠCh áº¡y
à ¤
ĠC all
ill y
ĠBruy ne
H ung
ĠSouth ampton
Ġt on
Ãµ a
Ġd uring
ip e
ĠEr ic
ĠGi Ãºp
Ġs am
eh e
og l
Ġac id
â Ĺ
Ġt n
Ġl iÃªu
Ġtr Å©ng
ĠC Æ¡n
ĠD K
1 10
Ġk Wh
Ġng Ã¡t
ĠJac ob
Ġkh ong
ĠF ashion
ĠVolod ym
á» ĸ
u h
ĠBar ack
B Äĥng
Ġf utsal
Ġhel p
itt le
T uyáº¿n
Ġd áº³ng
th ay
ĠCor olla
á»ı m
Austr alia
T Ãº
ĠD Ä©nh
ĠK á»ĭch
ĠN á»ģn
ro c
Ġná»ĩ m
Ġtr end
ip es
ith ub
ĠK yo
Ġx á»ı
Ġu á»ķng
Ġb ot
ĠG ot
ĠP S
ĠA y
in n
Iá»Ĩ U
d Ã¢n
Ġw on
Iá»Ģ U
Ġp izza
Ġ28 0
gg er
ĠP ap
á»± t
ĠT ach
Ġl Æ°
ĠZ en
Ġb Ã³i
Ġk ali
ch á»¯
M edia
ĠCh á»ĳng
d á»±
ĠS á»£
Ġ æ
and ard
ĠGeor gia
DC ND
ĠMAI L
Ġ et
Pl ay
Ġop en
N V
w ang
ĠH TTP
iat is
il o
ĠGT GT
ĠSan chez
Q uyá»ģn
Ġs uc
Ġpart ic
ĠÃ ī
oni idae
Ġp ub
ĠNG á»ĮC
L Æ°á»£ng
ĠO N
enn a
per ia
vietnam net
ag an
ĠSec urity
ĠC á»ĳt
t ime
200 1
ĠGi rl
C Æ°á»Ŀi
Ġdu á»ĩ
ĠGiá» ¯
ĠV TB
Ġb ook
Ġs ome
tr ick
ap ixel
ĠB Ãłnh
ĠOlymp ia
ĠVol kswagen
ĠEd ition
ĠQ uyáº¿n
Ġgu itar
ĠF ood
W D
.... ..
ĠOs aka
ĠD own
ĠVá» Ģ
Ġn Ãłi
ÃŃ m
am ine
22 6
g round
ĠJu an
ĠQu ay
ĠKh oan
Ġ áº¯p
ĠD ou
Ġtr áº§u
ĠB áº¥y
. âĪĴ
Ġnh áº¥m
ĠZ uckerberg
ĠN ova
od o
erg us
8 000
Ġm ost
ĠC uá»ĳn
A SEAN
Ġra pper
ĠK yr
Ġ19 53
Ġc á»ĵng
ĠP ixel
Ġcoll agen
ĠVolodym yr
ĠDu áº©n
ĠCh uyen
Ġh Ãºc
yn ch
ĠTr ao
iv ate
ĠTP P
Ph Ã¡o
H iá»ĥu
Ġch Ã²i
ĠÄĳá»Ļng Nguá»ĵn
Ġs olo
Ġhom estay
ĠG all
Ġi f
ĠHai r
Ġv áº£y
ðŁĺĬ ðŁĺĬ
ðŁİ ģ
ĠV ÄĤN
Ġac count
Ġd Æ¡
Ġthá» ĩ
ĠB il
____ ____
G H
ĠDig ital
tr Ãº
hi r
L á»Ľp
dr ess
Ġm l
Ġnh á»©t
ÄĲ QG
Ġta p
Ġqu áº¡
ĠMor occo
ĠN á»ķi
Ġtr á»įt
ĠTr uong
p ot
Ġph áº¯t
ĠV U
eb er
ĠL áº¡nh
en i
X Y
Ġv Ã¹
Ġh Ã©o
d own
ĠÄĳ Ãºt
Ġng Ãºt
ĠTh ung
ĠTh Ã¬n
ĠC ÃģC
Ġ=)) ))
â ģ
Ġj ean
at r
Ġ19 39
t á»Ń
ĠTrich optera
ĠEx cel
Ġrev iew
b s
ay s
th Ã´ng
ĠThu á»µ
Bar celona
ĠDV D
ĠX ong
ĠM áº¥t
C uá»ĳn
To Ã¡n
Ġt Ã¡p
Äĳ áº¹p
iv ing
S am
Ġc opy
ĠSan cho
ĠNH áº¬N
Ġg áº¯p
v ert
Ġ19 57
ist s
d oc
ĠL Ãłnh
Ġ09 6
? âĢĿ,
Ġl uá»ĳng
ÄĲ áº¯k
ĠU b
ear s
Ġ19 47
ific ation
ĠM ol
ĠÄĲ ÃĶI
ĠBulg aria
D uyá»ĩt
23 6
1 45
S áº¯c
ĠH H
oa ch
ĠAj ax
ĠM O
ĠLim oniidae
th á»©
Ġg áº¥m
Ġrep ort
ĠN iá»ģm
ĠM ake
77 7
D Æ°
Ġh un
âĢ İ
ĠV AT
ĠLar avel
t est
ĠðŁĴ ĸ
Ġpro gram
Ġl at
Ġx Ã¨o
Ġ3 30
ĠX Ãł
ĠP itt
M ourinho
V accine
Mal aysia
Ġng Ã¡o
ĠVirg inia
ĠH il
Lo áº¡t
Ġdig ital
Ġd Äĥm
on o
ax i
ĠJak arta
ĠN á»¥
âĿ¤âĿ¤ âĿ¤âĿ¤
Sing apore
ĠPH AM
oc ol
ĠDN A
Th á»¥y
ĠPH P
200 4
Ġn áº¯n
ĠPr om
ĠB us
= >
Tr an
el ine
Ġ11 7
Ġn áº¿t
Ġ26 0
A lo
ĠS apa
ĠD iÃªu
Äĳ Äĥng
h á»Ĺ
ĠS et
Æ¯á»¢ C
ĠP eople
Ġchá»ĵ m
Ġ12 6
Ġat t
ĠÄĲT QG
ĠP f
Ġtr Ä©u
ĠGr am
Ġc Ãµng
Camp uchia
Ġvá»ı n
M TTQ
Nh iá»ĩt
Ġal o
P s
T iÃªn
Ġx Ã²e
ĠQu ÃŃ
ĠB iáº¿n
bo urg
igue z
Ġnh áº£m
ðŁ ĩ
ĠW enger
tr oller
K iá»ĥu
Äĳ á»ĭa
áº¬ P
ðŁĺĨ ðŁĺĨ
ĠlÃ³ e
ĠG od
am ily
ĠL Å©ng
Ch á»¥p
Ġng Ã¡y
ĠMarket ing
ĠSun shine
ĠH im
bo y
st ar
p os
un es
uu uu
F S
el i
ĠN TK
osh op
+ +
Ġb Æ°á»Ľng
N Ã£o
ĠC á»Ŀ
th Ã¬
ĠAndre w
T Ã´
Ġ! .
ĠMac ron
ĠHann ibal
H Ã³a
ĠHam ilton
Ġ uyÃªn
O K
Ġd an
Ġt eo
ond er
eth er
ĠTO ÃĢN
ĠP or
ĠK ids
200 3
M or
Ġl á»ĵi
ĠC AND
ĠTIáº¾ P
I m
B iÃªn
ĠÂ °
Ġma x
ĠCap ital
Ġcat walk
Ġpr es
Ch áº¥m
and r
ĠPan asonic
Lu Ã´n
ĠD iá»ĩc
ÄĲ á»Ŀi
ob a
Ġh anh
L ike
ĠB ush
ĠT á»ª
ox in
ĠTr Ã²
ĠD á»¯
M E
C u
U R
f ol
Ġláº» n
v iron
ĠM ode
ĠL is
ĠA K
Ġh Ã£n
Ġtr Ã³c
âĺº ï¸ı
Ġs ur
ĠÄĳÃ´ la
ĠB ab
ãĤ Ĵ
ĠP od
Ġdr iver
au r
Ġch ong
D iá»ĩp
d oi
Ġsec ond
................ ................
Ġm Ãºc
Ġs Ã¹i
Ġtr ailer
TH PT
ĠP T
ĠT TC
Ġnh Ã³
n Há»Ĺ
ĠDmit ry
C áº£i
ĠFran ce
Har ry
Ġr á»įi
Th Æ¡
Ġkh ÃŃt
l ess
Ġá» ī
Äĳ áº¥t
ĠT ower
ĠM ega
Nh a
Ġcre ate
20 6
ĠĠĠĠĠĠĠĠ ĠĠ
th a
ĠV III
Ġkn ock
is k
M en
ĠVTB ANK
ĠB á»ĵng
Ġz oom
z one
ĠT un
V ai
Ġid ol
Ġ ~
B áº¢N
ĠQu een
ond o
c Ã¢y
24 7
Ġcon nect
ĠÄĲ áº©y
ĠKenn edy
Ġd ia
ĠC á»±
ng á»¥
Ġl Æ°á»£m
ĠEver est
ĠD T
viron ment
ĠL áº©u
N Ã³ng
ĠS ou
ĠB ry
J enn
Ġn et
ÃĤ M
ĠIll inois
e us
á»ĺ I
Ġn áº·c
ĠKh uáº¥t
F ord
ĠC y
ĠV itamin
Ġr Ãª
E E
l áº¥y
ĠX uan
ĠAl ice
x Ãª
Ġm ult
ĠHá» ĸ
Ġc áº¡p
ag s
M od
o on
ĠB ia
and e
Ġm Ã©
Ġpack age
ĠP el
g es
Ġhá» ±c
ill s
ĠR ose
4 90
Ġn áº»o
Ģ N
ĠH or
Ġn ational
SC ÄĲ
ĠAr ch
Ġ0 39
anc y
t áº¡m
âĿ¤ï¸ıâĿ¤ï¸ı âĿ¤ï¸ıâĿ¤ï¸ı
Ġp ixel
âĢįâĢįâĢįâĢįâĢįâĢįâĢįâĢį âĢįâĢįâĢįâĢįâĢįâĢįâĢįâĢį
p m
ĠFire fox
Ġl áº£ng
Ġr Ã¬a
ĠD á»±a
Pl us
od ium
ĠEm ily
ergus on
Ġb oth
Ġra dio
Ġt uá»ĳt
qu Ã¡
ĠTr ai
ĠCh oi
Ġch á»Ļp
ul f
Ġg á»ī
r d
b or
ðŁĶ Ĭ
c á»©
G en
ĠD or
m ai
ĠT ouch
N ATO
V A
Ġg á»ĵng
âķ Ĳ
N á»ķ
Ġtr Ã³t
Ġo áº£i
Ġg ames
ĠB á»ķn
ĠB est
s el
ĠK yl
b reak
ĠMi ura
ðŁĻ Ĩ
Ġm Ah
Ġprod uction
Ġl Ãµm
Ġng á»ķn
ar io
ĠR onald
ag h
ĠM ÃĶ
ack er
iz ation
Ġnh en
ĠM em
ĠX i
ĠNG AY
oph er
ĠHO ANG
ĠÄĲ Ã¨n
ĠE ast
ĠE M
ĠE S
ĠU P
Ġlu á»ĵn
tr e
Ġd áº·t
end o
Ġ00 7
Ġ12 7
c os
Iá»Ĥ M
Ġqu áº·ng
forman ce
D Ä©
com Website
ĠCiv ic
Ġ11 8
ip as
ĠN T
ĠK iatis
Ġ09 87
ĠO LED
at ra
ĠAr k
ĠDon bass
Ġs áº£i
h el
AS S
M Æ°á»Ŀi
Ġd eb
ĠB Ãºn
Ġm ag
ter ling
Kh á»ĳi
r Ã´
Ġc Ã²ng
ĠNg uyá»ĩn
Ġho k
Ġm ak
22 1
n ick
ĠMar ie
P al
T á»Ļi
ĠN áº¯ng
Ġca che
ĠPh Ãª
Ġp and
Ġ19 49
ĠT á»ī
over y
ĠD eb
Ġg á»įt
ar in
ĠCh áº£i
pro file
ĠMu á»Ļi
ĠP ython
ab e
ĠPan ama
ĠÄĲ Ã¡n
k áº»
Ġb t
ĠHD Bank
ĠMAIL ISA
ĠQual comm
ðŁĴķ ðŁĴķ
ĠTH ÃĶNG
M L
ĠD em
c us
ĠAT GT
3 60
os us
it hi
as ka
Ho ang
ĠL um
ĠÃ į
Qu á»¹
Ġv Ã³
Ġper iod
Ġcá»ĳ m
ĠTor res
in ic
T Ã¹ng
12 8
D á»«ng
Ġ uyá»ĥn
Ġ19 36
Ġb á»¡
CM ND
Ġc c
Ġn it
c ateg
V y
am ond
ourn al
ĠCol um
ĠBB Q
% \
Ð µ
ĠD áº¥u
Ð ¸
Ġ ace
Ġhá» Ľn
ĠF ootball
a j
c á»Ļt
ÄĲ á»£i
ph an
Ġm al
ĠB á»Ļt
ĠW ater
ĠK SND
ĠM ov
Ġ2 90
C áº©m
Ġ Ã¹a
ĠKh Ã¡i
ug in
S el
ie p
Ġ[ [
09 8
ĠI C
Ġto ang
T ip
Ġ Î
if orm
ĠT Ãį
ĠP es
Ġgrow th
ĠG AS
Ġnh á»¡
L Ã¡
ĠH á»Ľi
ĠCh Äĥn
ĠQ uáº¥t
t inh
Ġlo ang
Ġa v
Ġsh ould
N á»ķi
ĠB ez
ow a
Ġdi Ãªm
ĠPr ot
Ch á»ĳng
est a
H aha
Ġrec ord
ÄĲ an
Ġm Ãło
le v
ah alli
ĠMich igan
ĠTach inidae
ĠTr avel
D B
v Ãłng
Äĳ Ã¢y
lad esh
ect ive
KH ÃĶNG
Äĳ á»Ļi
ĠY ahoo
Ã¼ ll
Kho áº£n
ĠL inc
ĠLe eds
im us
ĠAnd y
Ġr ender
R C
ĠD at
ĠCru ise
S w
at form
Ġl Ã³ng
Bl ack
ĠN LÄĲ
Qu Ãł
r at
ab io
x ÃŃt
K ar
ĠH all
ĠV ic
ĠD áºŃt
S et
Ġm uá»ĳng
ĠAr thur
ĠDr agon
ĠDav is
ĠW oo
T Ã¡i
ĠS uy
Ġ14 5
Ġpen alty
Äĳ Ã³ng
ver ev
ĠR achel
N áº¯ng
xcÆ¡ va
Ġr Ãºng
SC TV
10 8
an ol
m Ã¡y
Ġv n
iflor a
Ġb oy
on se
ÃĤ u
Ġeconom ic
Ġ19 48
ĠB á»ķ
ĠTel ecom
t v
ch Æ¡i
Ġw ifi
T áº¡
c Æ¡n
w i
ĠKh Ã´n
Ġho me
ĠMo z
2 20
ĠÄ ©
Ġkh á»Ŀ
ĠAnton y
ĠK O
Tr Ã¡nh
Ġbuff et
ĠÄĳ iá»ĩt
ĠK ab
ĠPH AN
L á»±a
ĠThÆ¡ m
ĠAl pha
IN K
og ue
M ax
ĠS oft
ĠTr Ã¡nh
ĠQu e
ind er
ĠS Ã³ng
@ @
Ġtu á»ĵng
g irl
N adal
v á»£
ĠD áºŃu
Kh áº¥u
ĠK aw
ĠW ild
ile y
ĠJ obs
um er
om on
z ig
Ġn Ã©p
entr e
Ġ0 36
ut ter
ul es
ĠSL NA
ĠD á»¥c
A Bank
ĠU I
ĠT ien
ver y
ĠG Ã¬
Ġ! -
H Æ°ng
Ġt áºŃu
ĠD EN
al ity
d uc
ĠÄĳ iáº¿c
ex us
: )
Ġlá» ıi
ĠPf izer
is er
Ġ ot
am an
ĠN y
ĠP av
ÄĲ en
ol ution
D á»ĭp
á»¤ NG
ĠK I
ĠS und
19 0
V Ã¡y
ĠK os
Ġ19 52
x a
ĠC Ã¡p
ĠGold en
â ļ
ind a
Ġn áº¡c
L iá»ħu
Ġw ould
ĠAr n
Ġch Ã²m
ĠB ak
n KhÃ´ng
l ay
ĠCon s
ĠK Ãªnh
W e
T ang
ĠC CC
ĠNg áº¡c
ĠKh Ã¡n
10 3
m á»Ł
ĠKh an
ĠU s
á»Ķ NG
TV N
H áº¡n
eo t
ren ce
ber ry
ĠY e
ĠTNG T
L and
ĠB áº¡t
B uá»ĵn
act or
Acc ording
et ti
ĠH end
ĠS á»ķ
ĠHO ÃĢNG
Ġph áº¿t
Ġth iá»ģu
Ġph Ã²
ĠB L
A U
ĠTh Ã¡c
Ġxo ang
ĠJ esus
ĠLI NH
et ter
ĠR al
ĠAc ademy
ĠDr ive
mit tee
tr áº£
uy a
y u
ĠM Ä©
ĠK er
ie z
Ġth áº±n
L Æ°ng
Tr e
ĠKen ya
Ġn á»įc
up e
ĠW eek
L á»«a
iss a
ĠVal encia
H Ã¹ng
ab o
áºµ m
ĠM and
ĠB urn
w atch
wit ch
ĠO ppo
V u
b d
Ġdu á»Ĺi
ĠAn celotti
Ġth rough
d ang
ðŁĴ ¸
23 4
l ia
ĠTh uyÃªn
Ġnh Ãºc
Ġs k
g s
ĠB each
ĠDel hi
al es
ĠQu Ãª
V TV
ĠQ N
Ġs mart
A E
Ġngá»¥ m
anth a
Ġtour ism
ĠD ien
66 6
og on
l ott
Ġm ade
ĠGi Ãł
å ®
or age
b áº±ng
Äĳ á»ĭnh
ster dam
H an
Ġch Ä©a
er ts
ĠR iver
. (
ĠH ur
ĠH CB
et on
ĠB amboo
ly n
" -
á» ²
b iáº¿n
oriz ed
ĠT áº·ng
its ipas
Ġn ow
Ġdo i
est e
G M
m as
ĠT ÃĢI
ĠGom ez
Tr uyá»ĩn
ĠB ANK
Ġal b
Ġch áºŃn
ĠD ocker
y ang
ĠMi G
B erry
h or
kh Ã³a
Ġqu Ãłng
ÄĲ áº¥u
ĠD er
ĠLat inh
ĠEng lish
ĠN ass
ĠPl an
ĠWil son
H uáº¥n
ĠDes ign
ĠCamb ridge
ĠGu inea
o T
ot r
b ay
Ġ13 3
Ġw in
ðŁĮ¹ ðŁĮ¹
ĠTH UY
Ġx á»ĩ
H ÄĲ
att le
ition al
V T
Th y
f ood
ĠAd d
ĠV ÄĲQG
Y ou
Ġh eld
Ġng ta
ÄĲ Ã³ng
ĠPart y
au se
cel and
Ġl áº¥m
ai d
tr Æ°á»Ŀng
ĠCarol ina
Ġyá»ĥ m
ÄĲ áº£o
ĠKh uyáº¿t
Ġb iáº¿m
S aint
ian e
G Æ°Æ¡ng
n Giáº£i
âĿ Į
Ġth ree
Ġp ay
Ġáº¨ n
Ġm atch
Nh ung
Ġc ross
Ġn Ãºm
v ideo
ĠS CMP
ĠHerm ione
ĠW ars
Ġactiv ities
ĠK elly
Th is
il es
ed o
Ġtr Ä©
ĠV egas
ĠÄĲH QG
å ħ
á»± ng
ĠkhÃ³ e
Ãĵ NG
C á»Ń
H ong
c áºŃu
Ġpl an
ad er
Ġgh áº»
ĠðŁĺ ħ
eo r
Ġth Ãło
ĠC Ãłi
ĠJ ane
Ġ3 000
áĢŃ áĢ¯
ĠSt alin
Ãģ O
ĠR ick
L Å©
Ġ14 4
ud o
c áº§u
ĠT áº¯c
C Ã¡t
N J
ĠF uk
ĠG Ã¡i
Ġl Ã¡c
Ġrel ations
CC I
nh ap
ĠT uáº¥t
Ġcontr ib
ĠO t
ult ural
Ġb áº·t
Ng oc
ĠG el
ÄĤ M
or r
Ġ1800 1090
8000 39
ĠT Ã¡i
Ġch Ãły
Ch im
bo urne
l Ãª
Ġe ng
24 3
Ġc x
A B
r ate
22 22
18 0
Ġta ke
Ġnhu áº§n
ĠL á»ĳi
6 50
Ġqu Ã¡ng
ĠNh áº¥p
ĠW r
qu áº£
ĠB our
eng th
Ġacc ess
Ġd Æ¡i
U V
and ro
og o
Ġfl ash
Ġy eu
ðŁĴ ļ
ĠTim or
S T
v ar
Nh iá»ĩm
C loud
H áº¡t
Ġb Ã¡ng
Ġ19 38
Ġtr uáº¥t
in ation
ðŁĳĭ ðŁĳĭ
Ġc ook
8 55
re z
ĠMart ial
Ġs Ã¡n
Ġdep loy
Ġqu ery
ĠR Æ°á»£u
Æ°Æ¡ c
S QL
ĠChev rolet
5 29
ĠT B
ĠPac ific
ĠB it
W ill
Ġb h
áº ª
qu es
ĠNam e
ĠMar athon
ĠF arm
ĠM Ã¡i
ĠHC ÄĲ
istr ict
Ġs Ãł
b Ãłi
S up
z er
iv ity
d es
ĠH ab
ĠIns ider
et ta
Ġes p
lo yd
c Æ°á»Ŀi
Ġchá» ±c
ng uyen
Ġnh Ã²a
10 7
us ta
Ġ oper
t an
oi re
att an
ĠIb rahim
Ġnh Ã¡c
ĠJ er
ĠMag ic
ĠB ull
L ao
t iáº¿p
uch el
, ..
Ġb eta
ĠB all
Ch eck
Ġ18 9
ĠC ur
ĠPh nom
g ie
ch ange
ot el
Ġtho áº¯t
ĠCCC D
Ġph áº£ng
Ch ÃŃ
ãģ «
ut es
idd le
M c
ag u
Ã© r
Ġf eat
Th áº»
ĠGre g
å ¤
ĠD á»±c
k an
áĢ¹ âĢĭ
ĠX SS
ĠM Äĥng
n S
Tr Ãºc
c p
âŀ ©
ĠCh á»£t
ĠX peria
ĠG iáº¿t
ĠSer gei
lo gger
W indows
re w
ĠN ole
24 0
N á»ģn
au n
ĠK un
ĠM etro
ph im
D iá»ħm
Ġnh á»ĳi
Ġto ol
Nh áºŃp
le ur
ðŁĳı ðŁĳı
ĠK IA
ĠB á»ĳi
Ġv c
nes ota
Ġn etwork
ãģ §
ud d
ng ay
Ġ enz
ÄĲ Ã¢u
T áºŃn
ĠB Ã©o
R au
Ġhá» Ŀi
ĠPro ject
ðŁ ļ
ĠSlov akia
Ġn á»±c
ĠS qu
q l
Ġ ì
Is rael
43 2
enc es
ĠD oll
ĠD á»¤NG
kh Ã³
ĠAss oc
áĢ Ħ
J ack
ĠL á»Ńa
ac ty
W T
ĠB iá»ĩn
ĠGP U
Ġm áº¡t
ĠG R
ãģ Ĺ
67 0
Kh Ã¡n
ĠMas an
ri que
ĠH Ãłi
O ne
f ect
ĠVI B
ĠLy on
ĠInn ova
ic ol
Ġ19 37
ĠW is
Ġ7 20
á» ®
ĠO man
ĠIn c
TT S
ĠR est
ie ng
T áº¥m
ĠV ision
ĠO ct
S á»£
ĠL á»Ĺi
ðŁĺįðŁĺį ðŁĺįðŁĺį
C Äĥng
Ġpat ients
anc ial
B ill
ĠJ osh
Ġsour ce
m id
ĠM Iá»ĦN
w h
J un
ĠCor ona
ĠT Æ¡
ĠJ os
ot s
19 72
Ġd áº§y
âĹ ı
ĠVP N
Ġm áº¥u
ĠT áº¯t
ĠHot line
Ġtrá»¥ i
ĠWal ker
áĢĲ áĢļ
Ġs Ã¡
Ġr Æ¡
ĠLat in
âĺİ ï¸ı
Ġnh Ã¢m
ia ta
ĠRodr iguez
ĠU ser
ĠPH áº¬T
Ġlay er
ĠP ul
ĠN u
j n
Ġh á»Ļc
ĠMon aco
d ung
ĠHo us
ank a
ĠDi amond
ĠG mail
Th áº£m
b n
ĠMor gan
Ġsu Ã´ng
ĠMin nesota
ch Ãºc
N ET
n Æ¡i
ĠV Æ°á»£t
ĠS Ã¹ng
op us
ur ch
ĠZh ang
Ġtho áº¡t
g roup
ĠVen ice
Ġ á»©a
and o
K iáº¿m
pr ises
Ġcá»© a
ĠLux ury
ĠPr ime
Ġcá»ı i
ĠL ap
d iá»ħn
ic um
Ġcu áº£
z an
Ġb Ã¢ng
ĠT eh
Ġl ia
Ġserv ices
ĠCon te
ĠÄĳá»ģ m
emm Ã©
r edit
ĠPh áº£
ĠB XH
ĠP ierre
esc ens
ĠKh Ã¡
11 5
ĠM áº¡t
ĠNgh á»ģ
ĠLinc oln
Ġtr áº§y
Ġnh á»īnh
ĠE p
Äĳ oáº¡n
B á»ķ
Ġt Ã³t
ĠM á»ħ
W eb
ĠSar ah
ĠL Ã£m
le ar
on so
ĠG ad
s uc
m ing
ĠMan ager
L Ã²ng
ĠForm osa
pl ate
UYá» Ĩ
S ony
ĠM Ã¹
Ġn Ã¡u
âĻ¥ï¸ı âĻ¥ï¸ı
low een
M O
Ġacc ording
ĠAm sterdam
Ġvá»ĵ ng
ĠFri ed
ĠAn ne
le an
ĠN ak
Ġ19 51
ĠC z
ĠEr d
ild ren
Ġs ame
Ġp ast
Nh Æ°á»£c
1 21
ĠX H
Ġnhá»Ľ t
Ġlá» £p
im bank
Ġf irm
rus h
D áº«u
c y
ĠKhu Ã´n
ua ge
Ġh et
on na
ĠP M
Ġb á»±
ĠSab eco
Ġn á»ĭnh
ĠF erguson
Ġph Ã¬nh
Ġp e
ĠB ali
ĠPe nh
Ġt áº±m
ðŁĴ Ļ
Ġshi pper
ĠP age
ĠJ r
ĠT ea
ĠnghÄ© nh
ĠKur d
Ph ÃŃ
ort s
ĠC á»«
ĠSt one
Ġim pr
Ġx Ã³c
Ġ14 6
N e
ĠPh iÃªu
c Ã¡
Ġv áº¹t
Ġh Ãª
Ġtra d
ig oz
âĢ Į
and ing
ĠPh ill
ĠRo ad
ophi la
Ġs earch
ĠPh áº£n
ur u
k áº¿t
C DC
ĠV TC
categ orized
ĠS ib
N SND
ach us
H ell
Un categorized
19 47
ĠT Ã´m
ĠD oan
ĠC K
ym e
ĠBang ladesh
10 20
ool s
ĠC ua
ĠM Ã¢u
ul b
ĠIn box
ÄĲ á»£t
id el
D D
ÄĲ áº£m
Ġx iÃªn
ĠÄĲ Æ¯á»¢C
ĠF ast
ot ion
ĠJ ang
áĢ «
4 20
S Ãłi
ĠL ay
our i
D á»¯
w en
ĠD ae
ĠSe ung
B razil
en ium
P an
Ġh áº¯ng
v ua
ĠLu ke
5 50
Ġg Ã²n
H iá»ģn
w ork
Ġpand emic
ĠN á»£
Ġh ealth
H P
S en
ĠTH ÃĢNH
Ã© e
Ġhá» ¯ng
ĠF it
ĠE ug
ĠTu oi
ĠFl ash
7 88
Ġqu á»ī
ĠMo unt
nh áºŃn
M et
Ġc Ã¹i
Ġinst ance
Ġch Ã´ng
Ġlo i
S ender
ĠZ ing
r c
ic ia
Ãģ T
Ġv in
ĠPhil ip
ĠCa fe
ĠGabri el
Ġs m
ĠTH á»¦
igoz hin
ĠW ork
ĠL ÃĥI
ĠW edding
ÄĲ á»ı
ĠHe ung
ic ola
ĠMan ila
ti had
ch an
ĠAM D
âĢİ âĢİ
ĠLuc as
C EO
Ġn áº·n
Ġb Ã©t
Ġ6 66
Ph am
ĠnhÃ¬ u
M b
ĠKh á»ķ
Ġthá»¥ t
B ig
Ġin b
Ġc ot
Ġb á»Ł
, \
ĠH ans
ĠTh uyáº¿t
G Ã¬
11 7
ĠI celand
th Æ°Æ¡ng
b ang
n K
Th ua
l Ä±
Ġgi áº«m
Ġl iáº¿m
Ġje ans
ĠðŁĺ Į
Ġr an
ap ter
ert o
ap ova
H ol
ip zig
ĠD evelop
H Ã³ng
Ġg áº·m
h áº¡
ĠO ng
i el
ĠAlex and
ĠChan el
uc a
ĠÃĲ Ã´ng
Ngh á»ģ
Viet NamNet
h ang
Ċ ĠĠĠĠĠĠĠ
con s
ĠJ ournal
Ġl á»ĭnh
Ġat m
V ÄĲ
ĠS y
av en
Ġlá»ĭ m
N m
T ÃŃch
ĠC TV
Ġnh áº©m
N okia
ĠG ran
T á»ī
Ġl ear
Ġkh áº¥n
yn c
TT CT
Ġs g
ĠHo áº¯c
Ġá» ·
est ic
14 0
C all
Ġm Ãºt
Ġph á»ĳt
ĠA pr
az e
N eo
k ara
p en
ĠNh Ã£n
ĠCar ib
Ġká»ģ nh
ĠZ verev
ĠL amp
ĠPres ident
ck er
V áº¡n
Ġ13 6
Ph Ãºc
Ġchá»Ŀ n
yr us
aw i
ĠGP S
i ed
com e
l on
M Ã£i
ĠÄĳ ay
ĠR us
ent e
Ġph Äĥng
ĠAl bert
Ĩ Ĵ
ĠB áº¢O
ĠA BC
B áº¯n
ĠCh á»īnh
M ercedes
le ct
v iáº¿t
ow ell
ar real
Ġm il
Ġtá» µ
ri z
x ico
Ġ13 2
em s
ĠG áº¡o
eb e
ĠB art
ĠX Äĥng
n ic
Ġ á»Ńng
Ġd Ä©a
ĠCam eron
om et
Ġngo áº£nh
ap t
IM A
ĠT iger
T Æ°á»Ŀng
ĠI mp
Å «
Ġláº» o
ĠR uss
Ġ13 9
r ut
ĠE th
ĠS I
iv ely
Ġd á»ĳt
11 1
ĠFin ance
ĠL á»±a
ĠIn vest
ĠC atherine
ĠTh er
k im
Ġnh Ãºt
ver ter
ĠL ady
inst abio
ĠB ella
12 6
Ġg anh
Ġ2 22
ĠJ ay
ĠCh á»«ng
n ow
Ġ3 90
o is
Tr Ã´ng
ĠUb untu
em ia
ĠHaz ard
T áº§n
ĠR ain
10 1
ĠColum bia
Ġk e
ĠJun ior
b ie
ĠN á»ĺI
ĠCh alleng
Ġbá»ī m
K ÃŃch
ĠC C
Ġthá»ı m
ĠJo ong
L INE
ĠTr ade
Ġra te
ann y
Ġcap ital
V FF
Ġ Ã³i
Ġd iá»ħm
ĠHold ings
ĠAcc ent
Ġr á»©t
com p
ĠF inal
ĠÄĳ iá»ĥu
ĠKh ung
p n
Ġd á»ım
M iss
ĠWh it
ĠPr igozhin
ĠT uchel
ĠV es
ĠM á»«ng
Ġg Ãłi
ĠA B
Ġl á»ĳt
ĠN XB
ogl oss
ãĤ ĭ
Ġs áº§n
Ġph Æ°á»£t
Ġr Ã²m
ĠCl ip
Ġg Äĥm
ĠCh e
ES T
M r
n m
om m
b ul
Ġ Ã¹
âĢĿ :
Ġapp lication
16 8
ĠmÃŃ m
Ġtab let
J an
AT A
il lo
Ġst atus
Ġ Ã³
ac ia
ĠN em
g est
ĠÄĲ ÃŃnh
our ces
M in
ĠM ill
or ph
ĠY oo
ĠC ass
ĠS Ãª
Ġx l
N á»Ńa
Ã¨ re
ad ona
ĠB un
Ġ13 8
al em
Ġf ri
ĠC Ã¢n
Ġto áº¡
ĠRobert o
C er
n L
Ġb est
ĠM á»ĩnh
ĠÄĲ ÃĤY
ĠSH GD
ĠBez os
ĠL ÃĬ
t á»ķ
m áº·t
c ell
ĠAb ram
M á»Ļc
ib r
at on
Ġdes ktop
Ng on
ui z
ib er
oper ty
ĠA U
ĠCh Ãłm
Ġcho áº¡ng
ĠD B
es tr
ing o
pp ing
C áº§m
Ġnh Ã¡o
Ġ5 000
Bay ern
ĠBl ink
ĠT W
th Ã´n
ĠCl ark
ĠAl aska
ĠP omp
Ġm ap
Æ°á»Ľ m
us c
ETT EL
ĠG ÄĲ
and s
is o
Ġ9 11
t z
v ers
j f
ĠDy nam
H ey
ĠNh iáº¿p
L áº¡c
j in
Ġsal ad
Ġk á»ĭ
ä º
ðŁĴ ¯
O I
Ġc uá»ĵn
7 20
L á»¯
av ia
Ġc ast
Ġv Ãªnh
Ġph áº£
Z en
S ol
L ay
ĠP ok
Ph uong
ĠB Ã¢n
s ide
ph u
Ġder by
Ġ Ã¬
ĠHu e
T áº¥n
ĠS terling
n ÄĲ
ĠB ad
ĠS ay
U h
ul ts
d al
ĠP VN
ĠA V
ĠMen u
ed onia
Ð ½
ro ad
nh Ã¬n
enc ies
á»Ŀ n
68 0
or p
13 6
ĠPes kov
Ġqu áº¹t
Ġkn ow
ĠM E
ĠI owa
ĠCh iáº¿t
yl on
ĠLau ra
n B
á»¥ m
Ġ3 99
T á»įa
ĠGi áº£n
âŀ ¡
ãģ ¾
ĠÄĲ áº¡m
K K
vent ion
a f
ĠPC R
ĠN á»Ńa
ĠE un
ast ic
v u
nh o
ĠCH DCND
ĠH ass
ar es
ĠO TP
ĠE X
Ġdi ch
Ġt k
ĠA WS
ĠCh au
ĠT iáº¿c
od ia
ĠX Æ°a
Ng á»§
t Ã´ng
Ġch Ã¹ng
ĠÃį ch
X ung
ĠT uc
iez mann
D uyÃªn
Ġl Ã¢ng
Ġhu á»³nh
ĠR ica
M eg
ĠTs itsipas
op ia
Ġx Ãºi
ĠAcc ess
C G
Ġh uyÃªn
ĠD á»ħ
Ġ19 29
row er
Ġrec e
Ġin formation
G Ã¡i
Ġx Ã©o
Ġdes ign
X anh
Ġtop list
oriz h
Y eah
Ġá» Ľn
á»Ĭ CH
S Æ¡
Ġ ion
Ġh Ãłu
ĠInd ia
T ui
Ġgiá» Ŀi
ĠNg oan
Ch Ã¹a
ĠOb ject
ðŁĸ ¤
Ġb re
Ġhá» Ľt
Ġtu á»Ļc
ĠN Ã©t
ĠDep p
ĠT Æ°á»Ľc
V iáº¿t
h om
Ġ ë
l inh
NS Æ¯T
ĠL áº¡
P R
Ġg Ã£i
Ä į
ĠComp any
Ph áº¡t
ĠHu go
p earl
ĠMarc us
ĠMÃ© xico
Ġb as
Ġe ach
ry opter
re f
T y
res ent
t iá»ĥu
Ġmeg apixel
ĠH Ã¡t
ug a
Ġh áº«ng
ĠÄĳ áº§n
Ġv áº©y
ĠF i
ĠNg Ãłn
ĠB á»īnh
tu al
ĠPet ers
Ġlo w
? !
Ġl ab
Ġag ain
Ġcontr ol
Ãģ N
ian us
M au
w agon
ĠB om
l ov
Ń a
Ġf b
b at
ĠCr uz
X a
s ai
Ġx Ã¢u
Ġc á»«
ĠK ard
T U
Ġch uá»ĳt
ĠM PV
ĠX P
Ġ15 2
ĠHill ary
ĠDak ota
Gi Ã³
ĠB TV
ĠOx ford
Ġá» Ŀ
ip an
urg en
Ġc á»±a
Ġb el
ĠGi Ãłu
Ġ19 35
ðŁİ ī
Ġpl ace
ect a
UYá» ĢN
ĠLew is
ĠColle ge
Ġm iáº¿n
ĠN ode
ĠCom mittee
Ġb áº·m
ĠV is
ap er
Ġrec ent
Ġdis c
ĠKh Ã¢u
Ġlo c
ĠPH Æ¯ÆłNG
ĠK ol
l t
ĠLe ipzig
Ġt áº§u
ĠH ub
ĠC orn
M il
Ġm Ã³
ĠRes earch
L á»ĩnh
Kh áº¯c
ĠP ao
um in
ĠGram my
" ".
Ġvá» ±ng
ĠN ang
ĠC it
ag us
d ie
Ãģ I
v iá»ĩc
Ġv ersion
Ġcho i
ĠZap orizh
p son
ĠI N
ph Ã²ng
ĠMar ch
ri er
nh áº¥t
Ġr am
ĠHal loween
m á»Ľi
s m
ĠErd ogan
ĠV ue
iet y
oll is
Ġho p
L ep
Äĳ Ãºng
V á»ĩ
n Ã³
ic ius
H T
em ay
R ep
Ġh al
Äĳ á»©ng
TT M
Ġincre ase
ĠO z
ĠLop ez
ĠC AD
áºł M
Ĥ «
ĠNh áº«n
Ch áº¥p
h ar
ĠH R
ĠPau lo
ĠTuoi Tre
v ien
áº ¸
ĠÃģ c
ĠMas on
ĠTeh ran
C OP
Ġn iu
Tr áº¥n
G N
ĠL ing
a eda
ĠchÃŃ t
13 5
á»¦ a
ðŁĺ ī
ri ed
us ic
ĠB Ã¹
o id
Ġsc ript
D el
Ġtr á»ĳ
ĠCV T
Ġ19 34
19 98
Ch iÃªm
ĠAct ive
d uct
I B
ch á»ĳng
is ed
s im
Ġh uÃ¢n
Ġb all
el son
ĠMc L
emi ro
ecial ly
10 9
C áº¯t
ĠSteph en
TR á»°C
ĠOl iver
S e
P SG
Ġgi o
22 7
ĠN iá»ĩm
o ung
il us
ĠE sp
Ġeconom y
c áº§n
ers ey
ĠSc arlett
H ang
P ay
D iá»ĩn
or um
á»ĺ T
t Æ¡
ĠM ig
V L
Ġtá»§ m
m u
Th Ã¡nh
20 27
r oll
Ġup load
sh ow
Ġh áº¥n
ĠC ard
ĠU K
ĠMá» ¸
Ġn ear
Ġtá»ī m
g hi
eb an
H á»ĸ
Ġvi ol
k á»ĥ
ok a
Ġn ation
ĠB á»ĵi
ĠT Ãºy
ĠTr u
g ov
t Ã¢m
Ġb áº£nh
ĠD á»«a
ĠT Ã³m
Ġkho i
Äĳ á»Ļng
ĠP R
Ġkhu á»·
ðŁ¤£ðŁ¤£ ðŁ¤£
Ġ25 1
ãĥ ³
Ġchá» «a
ch en
Ġc á»Ļc
Ġh em
Ġk k
g ithub
ĠBor is
Æ¯á»¢ NG
ĠCz ech
t Ãłi
ĠR O
ĠVP F
Ġs em
ĠF old
ĠTeleg ram
ðŁĺĺðŁĺĺ ðŁĺĺðŁĺĺ
= ))
ik h
Ġma jor
ĠVar ane
hh hh
S Ã³ng
Ñ Ģ
19 9
18 66
Ġ amin
ĠCar lo
P M
Ġe qu
ĠMar i
Ġtr Ãłm
ĠC ab
Ġc ty
S port
h á»į
ĠV el
ĠR ah
fr ed
Ġnh á»į
Ġj ust
H iáº¿u
ĠCu á»ĵng
im ate
w ait
ĠLav rov
ĠC ot
ĠK or
ad ing
ĠL ake
Tr inh
... ",
ĠE con
ĠTH áº¨M
l ai
ĠTh iá»ĩt
ag ne
ĠSch ol
Bor rower
l av
Ġmob i
Ġcon str
aa a
Ġ13 4
ĠA ur
Ġc od
ĠM Ã¡t
h yd
ĠDN S
b en
d d
Ù Ħ
ĠP ink
cel o
d om
ĠC ash
ĠCo un
Sh ow
ĠÄĳ Æ°á»£m
kh Ã¡ch
Ġt Ã£
ĠmÃ´ tÃ´
Ġ8 88
ĠTH áº¾
Ġ093 26
Ġs á»§ng
ĠT CT
ĠR Ã´
ĠF ur
áºł NH
ĠT X
er ation
ĠTN CS
And roid
ĠT ed
ac a
ĠE D
Ġkkk k
l ook
at ure
erd in
Ġáº¢ o
ent ic
ĠJess ica
ĠRom an
st ore
ĠH áºŃn
et ts
Ġhá»Ń ng
Ġv áº±n
ĠVi k
oc o
t áº¥t
ĠCh am
ĠSant os
ĠGI áº¢I
ĠBi eber
Ġkh a
Ġph á»ī
IA D
ch Ã¡y
Ġproject s
qu ez
ĠÄĳ ÃŃt
v á»«a
ĠH Æ°á»Łng
ĠX Ãºc
Ġng á»£m
ĠMel bourne
... âĢĿ,
Ġc os
Ġl ag
18 00
ĠDep artment
ĠH at
B om
T ÃŃn
ĠN on
ĠNg ao
es ar
ain s
ĠlÃł o
av er
ĠX avi
Ġl evel
== ==
Ġ ðŁĮ
D ic
h áºŃu
ĠL ine
iz ed
w ig
ĠM áº¡n
Ġ19 12
T á»ĶNG
et y
Ġpart ners
ðŁĴĹ ðŁĴĹ
20 28
ĠTH ÃģNG
L ai
Ġ8 50
Ju ventus
R áº¡ng
Ġm essage
Jenn ifer
ĠMar vel
ĠBlink en
ĠIndi an
ĠK Ãª
13 7
ĠH ak
Ġkhu áº¿ch
tr im
ws er
âĢĭâĢĭ âĢĭâĢĭ
Ġn ilon
ĠNg á»įn
ĠH ook
iz z
iss ion
Ġtr Ã¡o
ĠL AN
Ġr ead
Ġkhuá»· u
ĠT á»ĭch
Ġkh áº¥t
Äĳ Ã´
ĠKh e
ĠC ad
h en
Ġp ort
100 00
T ottenham
33 3
ĠÄĳá»ĥ u
Th uy
ĠF irst
Ġg Ã³a
ĠtuÃ½ p
ĠWei bo
f u
Ġl Ãªnh
ĠRec ord
ðŁĴµ ðŁĴµ
Ġx iÃªu
ĠL ac
ĠG aga
ĠS SD
giá» ¯a
ĠL ien
ĠP ir
Ġf re
ĠX Æ°á»Łng
app er
Ġcas ino
ĠB TS
Ġng an
A ct
n v
ÄĲ áº¥y
ĠBent ley
ĠN ord
ĠC áº¡nh
ĠU nd
Ġ19 08
Ġhá»ķ n
Ġ09 88
Ġesp ecially
ĠL áº·c
ĠKho Ã¡i
ĠMi u
i os
Ġf eet
Fed erer
ĠÄĳ áºŃt
ĠMin zy
ĠTH á»Ĭ
ðŁĵ Į
Can ada
Ġdu ong
ĠThu áº¥n
Ġxu Ã½t
v Æ°á»£t
ĠT Ã¡
ĠH ien
A ir
ĠN ÄĤM
ĠS ah
ĠS oh
ĠAnd erson
UY ÃĬN
ĠJun e
ĠY ok
ðŁĻ Ħ
m el
Ġng á»Ĺng
Ġan y
Ġvá» «ng
in x
Ġtrá»« u
orn is
ĠÄĲ áº¦U
ĠJ ason
Ġg oi
ĠK um
Ġt Ã³
Ġ19 11
ol imex
19 99
ĠGar eth
ĠCh áº¡p
ĠI ng
ĠViet lott
ye ong
ĠP ri
b ur
Ġ á»ĳ
Æ°á»£ i
ĠC are
LH Q
Ġph iá»ĩt
ĠQN CN
ram a
Ġo cc
Ġph áº©y
ĠkhÃ³ m
Tr ailer
55 2
f urt
Ã¼ r
Ġr inh
Ġlo ok
enz o
ĠAngel ina
ĠTh uá»Ļc
as u
Ġcontr oller
ĠBlu es
Ġg el
ng hi
ĠK in
v it
Ġnh Æ¡
ĠPh Ã¡n
B iá»ĩt
N ot
ĠC ent
Ġkho m
Ġt Ã©p
kh ai
van ced
v et
l á»Ľp
Ġv áº³ng
ĠNh iÃªu
ĠDevelop ment
Ġ ens
con sin
ĠPas te
Ġthá»ī u
s Äĥn
Ġf t
Ġng Ã´ng
ĠD UNG
oo o
ats u
ðŁĺ Ķ
ĠUnivers e
Ġx Ã³i
ĠVin c
Ġbo ong
ĠNH ÃĤN
Ġtechn ology
ĠQu oc
im es
Ġcontin ue
ĠB ug
ĠFul ham
m ade
ĠH Ã´n
ĠFor est
ĠBal tic
Ġf our
Ġdem o
D onald
Äĳ á»Ļ
Ġs áº£y
Ġoff icial
L i
om at
ĠKh uyÃªn
11 3
ĠF low
ĠðŁĺį ðŁĺįðŁĺį
ĠAgu ero
ĠL O
âĢ ĺ
ash a
Ġr each
s ang
ĠB ot
ch áº³ng
ĠSh ark
os tr
ĠTÃį N
p ur
ĠF air
Ġth ese
n u
Ġenter prises
ĠY an
ĠAr ena
Ġkh á»ĳ
ĠH AI
ĠB ou
ĠT on
ĠM oy
ĠR ic
b á»ĩnh
ĠR ams
ĠE in
D ani
Ġ09326 99299
m ore
s us
Äĳ Ã¡
ĠAb u
trang suc
Ġs ession
N á»¥
Ġt Ã²ng
Ġcas es
n an
ĠL iu
ĠEb ola
V iÃªm
ĠI an
ãģ Ħ
Ġu h
Ġl Ã¡n
ĠLeon ardo
ĠM Ã¬
it on
ub le
m Ãłu
Ġg oogle
ĠM aps
L á»Ĺi
h á»£p
is son
reg or
Ġph iá»ĩn
v Äĥn
Ġ4 06
Ġ19 31
ðŁĴ ŀ
r Ãºt
ĠN orm
ur l
ĠF ly
Ġnh Æ°á»Ľng
ÄĲ áº¡t
L en
Ġ19 32
ph o
Ġb il
at y
Ġact ion
ch uyÃªn
ĠL ÃĿ
m Ãłn
t ap
ĠT iá»ĩn
Ġf ur
h r
ĠC and
Ġi T
Ġc á»¯u
ĠTU áº¤N
ĠG aza
ĠÄĲá»ĺ NG
G C
Ġá» ¶
Ġw r
ĠT otal
Ġr Æ°Æ¡ng
ĠCh Æ¡i
ĠJul y
ĠS earch
P L
ĠUB MTTQ
ĠL S
th ong
L áºŃt
ĠGal a
ĠD ell
ÄĲ K
Ġm Ãµm
ĠD ark
ĠR ice
Ġcom mit
ĠH and
ĠNh á»±t
S á»ĳc
ĠÄĲ á»ĵi
Ġ19 10
B Ã£i
Ġkh áº¿
V ND
ĠR an
Ġso fa
ĠWis consin
d y
Ġh áº»o
ment s
ðŁĴľ ðŁĴľ
r ed
ĠTuc son
AM A
T ech
Kh á»§ng
Ġx áº»o
A men
ĠJ or
ro g
ĠNov aland
ĠV S
ec e
Ġv eo
Ġimport ant
ĠD ur
ĠCan on
Ġ19 17
M ad
th ew
ĠðŁĺį ðŁĺį
ĠM oto
U U
ðŁĳĩðŁĳĩ ðŁĳĩðŁĳĩ
ĠCS RF
ĠPat rick
Ġ19 14
ĠCop a
tr l
amp s
ĠNe ur
ĠCM C
c n
C Æ°
I F
ĠSpace X
t os
ĠPh áº«u
Cam era
Ġhá» ĥn
ĠYo nhap
Ġm Æ°á»Ľp
Ġin put
por ation
D iá»ĩu
Ġb áº¿t
Ġg ui
ĠGr ay
55 5
ipp i
ãģ ¯
C Æ°ng
D XY
Ġr á»£
ab ility
ðŁĴ Ŀ
C E
m ir
Ġm ien
ĠB uá»ĵn
us ion
Ġf ont
ic le
Ġinst all
Ġ19 18
H ow
áĢ »
ĠC áº¯t
ĠG Iá»
Ġcon f
ĠdÃ² m
Ġt al
ĠB and
á»Ĳ N
ĠHol mes
qu est
Ng Æ°
Ph Æ°á»£ng
ĠS ul
Ch at
s Ã¡ng
ĠB et
ĠW u
Ġcomm and
; ...
eb r
ĠDoll ar
ĠGi Ãłng
Ġch s
ra f
b inh
un o
3 21
n ChÃºc
ĠB Ã£o
ĠV CB
ĠAr my
m od
ĠSt ory
Ġmar athon
Ġp oint
D á»©t
in er
Cho Ã¡ng
n on
ĠV iÃªm
Ġmá» Ńa
Ġ13 7
c Ã¢u
Ġp erc
F PT
ðŁĴ İ
S á»Ńa
ĠT iÃªm
v ai
Ġr áº£o
Ġc ut
erdin and
S un
A str
B áº¥y
Ġd am
Ġd Ã¡t
Ġt v
f ast
ĠL eop
ĠPh á»ī
ĠMan agement
Ġn ano
Ġáº¤ t
ĠAll en
Ġngh ÃŃa
ĠGen eva
ĠPed ro
oit re
ĠLu gan
Ġbe ing
Ġ ov
ĠÄĲ Ã³ng
ĠD á»¥
Ch Ã³
ĠF ound
:)) )
ĠH op
54 04
C áº©n
Ġr ank
ĠÄĳá»Ŀ n
qu Ã¢n
ĠAn kara
ox emay
Ġch á»Ļi
Ġdom ain
Ġmonth s
Ġg em
ĠH á»Ļp
... ),
c Äĥn
Ġc oc
ĠÄĲá» Ĵ
t á»ĳi
gi ao
ari us
t uá»ķi
Ġvá» ¯a
id as
Ġmang a
St ar
ĠMod ern
Ġl áº£o
ĠM Ã¡u
ĠLugan sk
ĠA uth
ĠK ot
Ġsing le
C Æ°á»Ľp
as m
Ġstr ong
ĠH um
Ġ13 1
ĠChá»ĭ u
ĠM iller
ÄĲ o
M Ã¡
Ġconc ert
Tr á»Ļm
L ang
ĠtÃ¹ m
Ġchi Ãªng
s á»ĳt
Tr ich
39 43
ĠEx imbank
ĠGar cia
Ġai r
ri ot
ho ang
ĠM ath
is ing
Ġo ur
C Æ°á»Ŀng
ĠMar sh
ĠG á»Ĺ
gi ai
ĠMod ric
p ack
t áºŃp
ĠK ansas
12 4
200 2
uct ure
ðŁĺ ĥ
ir c
ĠX uyáº¿n
ÃĤ U
Ġw id
Ġam ong
D ata
b Ã£o
ang a
oph ora
... ;
Ġs ee
Ġ19 33
T Ã¡o
ĠÄĳ Æ¡
d ale
ĠSte ven
ĠC RE
or ies
ĠLu Ã´ng
ĠC áº¥u
S Ã¡u
á»Ĩ NH
v Å©
D áº«n
p i
Th Ãºc
Ġb á»§a
Ġins ulin
ĠA ustin
Ġhu á»ĩ
ĠP oi
A v
ĠÄĲ áº«y
Ġs áº¥p
12 7
ĠGP LX
T á»©
ĠSn ow
ac le
ind s
ĠRu á»ĵi
ĠPh uc
Ġtr áº«m
3 30
ĠN ano
ĠV at
Ġro ot
Ġf older
ĠPer ez
Ġc urrent
68 6
N á»Ĺ
Ġr Ã´n
ch ung
ĠSc ience
ÄĲ áº§m
if era
ĠPh at
ðŁĺ ĳ
âĻ »
ĠCav ani
ĠT á»ĳn
ch eck
ĠPh áº©m
ĠH Ã´
ĠBern ab
Ġ0 23
Ġ á»ĳi
Ġt one
im ation
es ia
ut i
Ġbox ing
Ġb á»ĳt
ĠV oi
ĠH appy
ĠG overnment
ĠLang don
en berg
ĠManh attan
s ur
Ġtr á»©
ĠA qu
g Ã³i
11 8
Ġex press
th ang
Ġ19 03
Ġ19 05
Iá»Ĩ P
D ia
Ġth áº«m
ĠAr iz
K ia
un ce
Ġb ig
ĠN ail
ĠM erc
ĠUS A
K L
ä ½
uch i
ĠVill arreal
Ġ19 25
NH NN
Ġ( +
In box
Ġx á»Ł
ae idae
ĠGr iezmann
ĠW ave
ĠLaw rence
l á»Ļt
L iá»ĩt
ĠTr áº¡ng
22 8
Gi áº¥c
Ġgá»Ŀ m
C SGT
dt j
Ġgames how
ĠV Ã£n
ĠAs ilidae
ĠÄĲ á»£t
ãģ ¨
s áº£n
Ġqu áº¯c
Ã© on
T eam
Ġ Ì
ĠTT g
ĠU V
S ar
ĠNg á»±a
ant es
ag r
Ġsec urity
ĠPh Ãłn
Ġe kip
Ġv ao
end ing
we ather
n ot
l oáº¡i
Ġc á»įng
Ġn s
ĠC ay
Ġ090 7
kk k
ĠÄĲá» ¨
ÄĲ Æ°Æ¡ng
ĠT ui
ĠD áº«n
achus etts
B ang
Ġnh áºµn
¡ i
ul idae
osp ital
trangsuc dtj
ĠM Y
ĠSh ah
T áº£i
ĠE C
Ġm Ãºn
ĠPh á»Ł
ĠH á»·
ular is
au rus
ep s
Ġl Ã¨o
Ph Ã¹ng
ĠMar io
L á»ĳi
Ġph á»Ļng
G a
Ġs it
Ġ15 6
Ġgh im
ew ay
S y
± t
ĠD Æ°á»¡ng
Ġset t
áĢĻ áĢĻ
F l
us ter
Ġim p
ei ro
ĠN ations
ĠX S
ĠHous ton
Ġs áº¡p
w eb
Uy Ãªn
ĠC L
Ġ áºµm
ðŁ¤ Ķ
Ġc á»Ļm
Ġ4 07
ger ia
ĠG M
Ġot oxemay
Ġch Ã´m
ĠÄĳo áº£n
ph áº£n
W B
Ġ icon
ĠB áº©m
ol lo
ail and
ĠSp ot
ĠnhÃł u
Ġtr á»Ľ
d ata
on line
em bourg
ĠHá»į a
Iá»Ĥ N
B MW
ĠJo on
ĠX iÃªm
ĠI oT
ĠT ÃŃ
Th ao
Ġgh áº¹o
ĠAs us
erus alem
Tr á»¥
09 7
ater al
C I
Tr Ã¢n
38 32
ĠRa j
Ġgl uc
Ġv v
ĠStr eam
Ġ090 9
Hi hi
S Ã¡t
>> >
ĠIn fin
ĠTG ÄĲ
aph at
B áºŃt
p ly
Ġnh áº§y
am ex
Ġá» ľ
ĠX oÃłi
24 6
ĠX Ã³m
ĠPr inc
qu Ã¡i
ĠSp ring
nh Ã³m
Ġst ill
uz ia
B TC
D ec
ĠG raham
ĠMoham ed
Ġnháº½ o
78 9
ĠCh ap
Ġ19 13
ĠT iá»ħn
ĠPr ov
ĠG ol
ĠB rian
ĠD iv
ip ennis
Ġtap chiyhocvietnam
Ġk iá»ĥng
Ġx Ãºm
ip le
Ġ ðŁĳ
Äĳ Ã³
ĠCN BC
ĠMon te
3943 1866
ĠAriz ona
ath a
Ġngh en
ul atus
Ġb al
Ġr Æ°á»£i
ĠJ ust
ĠL Ãłn
Ġl Ã¹a
ĠBernab eu
Ġelec tron
ĠthÃ¹ y
ĠB Ãºt
ĠH Æ¡i
Ġh t
Ġnat ri
p in
ĠComm and
ĠM á»ı
ĠT áº£o
ĠChrist opher
Ġrequ ir
Ġare as
ĠJ oan
iv an
áº® NG
Ġdá»¥ m
Ġp seud
ĠS ad
ÃĴ NG
D R
Ġx iÃªm
ĠÄĲ Ãª
Ñ ģ
ĠK IM
S car
ĠBe at
ng Ã´i
ifol ium
R ub
ĠK om
ĠTR Æ¯á»ľNG
ĠI v
10 4
ĠBr oth
ĠiT unes
ĠCom ment
che on
Ġd iáº¿t
h op
æ ľ
ĠL es
ĠGer man
Ġf ood
iet nam
ĠF er
trim ang
ĠAsh ley
v iÃªn
ust ain
C or
S erv
b ell
os i
ae us
Ġng áº¥y
Ġen vironment
T an
ĠH ard
" ?.
Tr iá»ĩt
ĠE arth
Ġv áº¹o
Ã¨ ne
G Ã³p
Ġlá»į i
ĠHÃĢ NH
b á»ĳ
Ġ19 22
ĠCol e
ĠAs tra
ĠRob ot
Ġba by
^ ^
em at
Ġs ushi
ĠAl an
ĠPH Ãļ
Ġg ara
ĠL áºŃy
ĠF E
Ġsoc ola
ĠBl ade
Ġdi en
Ġm om
19 89
Ġr Ä©
Ã© s
Äĳ un
n Nam
Ġho w
ĠTR ES
L ib
Ġtho ai
Ġ17 4
ĠTik tok
P ost
V en
Ġh ist
ĠH ad
ĠP och
ĠPH UONG
ĠT ob
Ġr áº·ng
am ford
ÄĲT B
R ed
ph ia
M azda
ĠU FC
ĠMot ors
Ä± k
Ġ? &
Ġ19 24
qu in
Ġ18 5
p u
Ġ Ã¡ng
ĠAl v
ĠB ow
ĠVin pearl
Ġcot ton
Ġnh Ã¡p
N ame
ch y
Ġs in
Th Ãº
I u
Ġu á»ĥ
Ġ? ??
Ġc er
Ġlá» £
mer ce
Ġr á»©a
ĠL otte
gi os
ĠTM V
Ġp ot
Ġp ower
ĠGon z
Ġn c
ĠCo oper
22 2
ĠT á»µ
ĠG ord
n Cáº£m
ĠðŁĺ ĭ
ĠHy brid
Ġq Ã¡
ĠSaf ari
ĠLamp ard
ĠEng ine
chu áº©n
ĠFel ix
ĠB ing
al t
ĠO P
ĠBS T
C áº¥u
j amin
c in
Ġx á»ĳc
ĠP NJ
ĠN in
ĠB ir
ĠP ia
Nh Ã£
ĠY ak
Ġchu c
Ġtr á»ģ
An th
å Ĳ
ĠS ina
ĠE tihad
ĠRang nick
Ġret urn
Ġ18 91
ĠLen ovo
ĠDoc tor
ĠChu á»Ļt
ĠDe ep
ff e
Ġm em
AT E
p ol
Ġr Ã´ng
ch at
ĠX ÃŃ
Ġb ol
Ġlo áº¡ng
ter te
ĠTh ong
ĠM G
ogloss um
ĠDI NH
X D
ðŁ¤ ©
ug eot
x u
ĠV a
Ġ16 2
45 6
man uel
0 28
Ġ4 15
og ne
Ġs áº¡m
Ġd im
Ng uyá»ĩt
ĠMal i
m ec
ĠT oshi
Qu Ã¡i
ĠB Ãłu
qu Ãª
il s
BH XH
V áºŃt
Ġmob ifone
Ġto Ã¡i
Kh áº£o
ĠVá» ¤
l Ãºc
il ic
ĠMass achusetts
it ime
Viet combank
Ġstr ateg
Ġex tens
K on
ĠG V
arg et
DT J
m ong
Ġtrai ning
ĠCor poration
d Æ°á»Ľi
ng oáº¡i
Ġ19 1
ĠJ erusalem
Ġth Æ¡i
Ad d
arg in
Ġl á»¯ng
Ġl Ãµng
ĠL em
st one
ĠMan e
â Ĥ«
ĠS ull
n á»ķi
ad el
ĠthÃŃ a
ĠErik sen
ĠKard ashi
7 106
gl as
Ġt iá»ģu
ĠD un
H á»¯u
Ġng Ã³c
r áºŃp
69 6
ĠKit Ã´
IC A
ĠJ et
Ġb ac
Ġh n
ĠGreen wood
ĠXI X
p ink
et ch
ĠO f
ĠJ urgen
ines e
Ġind ustry
L uc
Ġph oto
Ġm á»ĭch
Ch iÃªu
Ġ16 3
Ġn ext
ĠP izza
ðŁĺ ļ
ĠÄĲ iÃªu
is ha
Ġ19 19
ip l
ĠC out
as ing
ĠDu terte
D Ãłnh
ĠG ai
ĠTechn ology
Y Y
Ġh p
ĠÄĳÃ³ m
f ica
ĠM ull
v Ã²ng
Ġ4 08
ĠTRES emmÃ©
ĠK ay
ĠHai ti
ĠCas emiro
ĠEd ucation
ĠTur bo
ett ino
viet tel
c j
ĠÄĲ áº¾N
09 6
land s
d á»ħ
Ġgi Ãªng
serv er
en os
osh ima
ĠAS IAD
A IDS
ink a
ĠBrit ish
ĠB áº¿p
ran ch
Ġtest ing
Ġperc ent
Ġ19 2
ĠðŁĺ Ħ
Ġáº¤ p
ot rich
ĠÃ ĩ
Ġ19 16
ĠSh ang
ĠMar co
Ġ3 25
ĠB aker
ĠK rist
16 6
K á»ĭch
ĠAssoc iation
ng oÃłi
Ġkh iÃªn
ĠSU áº¤T
ĠPaste ur
J ul
2 90
Ġr ole
ĠPh Ã¨o
ĠS ign
Ġresp onse
b ury
ĠI OS
Ġgiá» ±t
Äĳ áº¡o
Ġw ant
ĠNh áº±m
ac ity
ĠGu am
Mich ael
ĠCh er
i ro
ĠY our
ĠHill s
2 19
ÄĲ áºŃu
ĠM Ã¢n
ðŁĴĵ ðŁĴĵ
Th Æ°á»Łng
Ġcook ie
s ource
ĠPV C
Ġnu á»Ļt
ng uy
ĠH uyen
c á»ĳ
f ort
ĠN ad
áĢ ·
ard s
Ġag re
ĠÄĲá»¨ C
ĠT Ãły
l at
ĠL aden
us er
ĠH em
ĠTR Iá»ĨU
ĠCl ick
ĠÄĲ á»§
ĠMiss ouri
ep end
han na
k d
ĠCh Ã³
ĠBill board
Ġg iáº¿m
Ġr áº¡c
Ġr ia
oph ia
ĠHO NG
Ġl ip
Ù Ĭ
stan bul
Ġs Ãª
A f
ĠtrÃ¬ u
e el
ðŁ¥ º
G roup
Ġ er
ĠK ish
ĠCh á»¥p
up ol
36 5
S uy
Ġh ash
Ġn áº©y
ens en
Ġstr ing
G b
Ã¨ s
ĠGrand e
Ġgh á»ģnh
áĢ ²
ĠNH ÃĢ
Ġf ound
ĠK oi
ðŁĮ ·
ch ai
ot on
eim er
B Ã¡ch
Ġt t
M at
Ġc Ã¡ng
Ġ19 27
m áº·c
In st
áºª N
ĠH TV
Ġ38 0
ĠF O
Äĳ en
ĠGh ana
ĠNeur optera
f low
ĠHO A
C at
SN N
n Hotline
ĠAsia d
k Ã½
to is
Ġ00 21
M Ãª
ĠT Ãłn
op a
ĠWell s
ĠQuy nh
Ġb á»£
ĠcÃº n
th iáº¿u
ĠS usan
ĠVi r
ĠP ur
ĠÄĲK VÄĲ
ĠS ach
au rant
Ġr áº§n
ĠKh ark
ðŁĺ Ŀ
Ġ09 4
Ġc up
ĠNh ai
Ġ22 5
D Å©ng
ĠEd u
ĠApr il
Ġ! !
ĠLum ia
ĠN Æ¯á»ļC
ĠBlack Berry
Ġn Ã¡y
s ol
ĠS eb
ath y
Pod s
Ġl Ã²i
Ġph an
ithi um
ĠGr ig
A o
Ġ enc
ĠB CH
Ġs w
n Chi
Ġhá» ¡i
ĠU t
R ad
ĠB ey
ĠL Æ°á»Ľi
Ġ15 00
' ?.
Ch arl
th iáº¿t
Ġr iÃªu
ĠTh áº£n
ĠCP I
88 6
ĠEcon om
ĠK ent
ĠThi em
ĠKh al
MA X
ĠFrank furt
b iáº¿t
B IDV
Ġg ar
ĠdÃ¹ i
Ġ14 9
h n
Ġm Ã¡ng
ĠA IDS
ĠPomp eo
Ġs op
ĠA ff
h á»ĩ
» ¿
ri es
, ....
10 2
S yria
ĠL ike
ĠRob erts
et es
ĠN FT
ĠD UC
... \
ĠJ WT
Ġ ðŁĻıðŁĻıðŁĻı
Ġv Ã¨o
Ġch ange
Ġg reat
te gr
it ions
ĠColor ado
T á»©c
Ġprod uct
H yd
ĠNh am
ĠS áº§u
Ġ Ã¡y
ĠN ow
io ides
shop ee
ĠM ate
ĠIs a
Ã ¸
ĠA ward
Ġus ed
ngh e
Ġ19 23
atch back
ip er
ĠBah rain
B y
it is
ĠHend erson
ĠM á»Ĺ
ĠCh á»Ľ
ĠC ON
Ġf ul
n Ãªn
. ).
Ġqu áº»
Ġpl ugin
Ġthi ch
ĠKH ÄĲT
m ang
ĠG au
ie g
ĠSo und
ĠT ol
ĠGI Ãģ
ðŁĺĺðŁĺĺ ðŁĺĺ
Ch e
tin ental
ĠQU AN
ero on
ĠIB M
h áº¿t
ĠT áº£i
Ġa ch
ĠAM G
ig in
c at
Ġt Ãłnh
Th iá»ĩn
ĠSp r
Ġus ing
M os
ĠM it
áº¤ u
ĠHass an
Ġ20 5
Ġrock et
ch in
ĠCh ao
ĠW id
Ġngo áº·c
ÄĲ á»ĩ
one x
T Æ¯
ĠTal ent
ĠJP Y
t Æ°
nh a
Ġst ore
ĠCas tro
Ġ? ?
ĠUn ion
Ġmá» ģn
hi le
Ġbe fore
N Ãºi
Ġt alk
Ġr Ã²i
Ġdo cker
ĠF ad
Ġ19 06
Ġ12 41
B Ã²
ĠMar adona
Ġg d
Ġ3 40
Ġ12 45
áºł T
et z
Ġ3 55
ab aeidae
Ang el
G TVT
ĠC ort
ĠAir bus
C y
Ġl Ã¨
tu oitre
ĠCh iáº¿u
Ġpr ess
Ġm áº£
Ġw ay
Ar t
ĠGi u
ĠMac edonia
Ġg á»£n
ĠH ello
Ch rist
ĠÄĳ áº±m
Ġ16 7
Ġb á»īnh
ĠJ ake
L ive
eng ers
se ille
G l
Ġb alo
x b
Tr i
Ġe very
ĠSp ec
Ġsuc cess
Th uyá»ģn
Ġ5 12
TT T
Ġs ug
yl and
Ġq Ãºa
Ġlá» «
Ġ19 28
ĠTh or
ig u
ĠðŁĺ ¢
Ġr Äĥm
c z
G ar
Ġp od
ch á»ĵng
le g
ĠH art
Ġcac bon
d á»ĭch
ĠÂ ±
C as
C TC
Ġhá» īnh
ut an
ĠMai n
ĠS ara
19 94
Ġn ote
ing rad
Ġcons ole
Ġstr ength
bled ore
P ep
R T
ĠGi Ã´
Ġg ao
Ġnh áº·n
ĠL it
Ġdir ect
âĢ ı
d ev
ĠT áº©u
ĠD Ãłi
ĠKyl ian
U AV
" ?
ĠT ASS
Ġar ray
E G
G Ã¢y
Ch á»Ĺ
Ġru f
H áº¯c
19 93
ĠJim my
w all
ĠF ind
ĠWal ter
ĠG as
Ġtr ue
ĠV A
Ch áº£
ĠKardashi an
P oint
cl ass
ĠN oo
Ġl iu
on to
ok er
CL OS
Ġbá»ĭ p
ĠWol ves
t ÃŃn
eeee eeee
VN PT
D es
Ġ ç
ĠW W
ĠTH EO
ĠS ic
áº¢ M
Ġ100 000
Ġbe nh
Ġ14 8
ĠB uk
14 9
Ġdoc ument
19 73
Ġh ah
ert z
ĠCar ter
oster one
ĠT Ãłng
Ġexp ected
Ġx Ã³
R ich
Ġch áº¡c
er ty
ĠBr uss
Ġdiff er
ĠV ers
jd jd
m os
ri um
Ġinter face
C V
ical ly
H á»įa
L ept
Ġ áº¯c
ĠP ict
Ġ16 8
Ġmeet ing
ĠL A
is ch
ĠD h
ĠR ange
ash in
Ġnh Ã³t
ÄĲ áº±ng
Ġmá»į t
P ter
v ie
Ġat tract
h ost
ĠGre at
ĠP oint
Ġs ector
Ġdu e
Ġ! \
ĠW y
Ġcomp et
ak es
emb ele
ĠMcL aren
Ġb áº½
ĠBank ing
ĠV ogue
âľĶ ï¸ı
ĠNg áº¡o
ĠAm b
M áºŃt
u it
ĠLux embourg
ĠV uong
ÄĲ á»ģn
ĠN ott
N áº¯m
Ġg áº¡
Ġrep resent
ĠF erdinand
ĠSoft ware
ĠFried rich
Ġf al
ðŁĵ £
ĠY eon
Ġb Ãºi
ĠTV B
ĠDum bledore
J et
t á»ĳ
ĠB eng
25 6
Ġh Æ¡
imb ab
( '
ĠM ul
T áº§m
Ġ ).
Ġb iet
Ġ090 5
ĠH ead
stant in
ĠT erry
ro b
Äĳ á»ĵ
Ġ48 0
Ġ áº¯ng
Ġph ÃŃch
ia h
es i
ĠM om
P ark
th áº£
Ġlu á»¹
Äĳ áº·t
N Ã©t
ĠT áºŃn
ĠG it
t ail
Ãļ c
% :
ol m
L Äĥng
ĠTh iáº¿p
Ġquy á»ĩt
V D
Ġm iáº¿t
Ġng Ã³t
t Ã¡c
ob er
Ġn ek
H H
ĠG ary
Ġst ud
ĠH eo
Ġho e
V M
00 4
xx xx
h oÃłn
ĠH uá»ĳng
23 7
Ġph om
e ff
B ulb
C áº¥m
27 4
+ .
or ity
19 5
its u
P O
au gh
Ġtem plate
Ġr á»ģn
Ġbo ot
Ġtab le
Ġform at
ĠKab ul
d f
ann i
s Ã¡t
b á»ĳc
ĠN ich
Ã ģn
ĠB á»ĨNH
19 95
Ġ eth
ĠC F
Äĳ iá»ĩn
ater ial
ĠStan ford
Ġd Ã¬m
ĠL ow
ĠP ad
Ġop port
h ail
T Ãºi
g io
ĠEm p
ĠPhan tom
Ġl á»¥i
Ġp all
Qu Ãª
ĠJ avascript
G V
Ġcho col
ĠS áº£ng
ĠGB P
ch uyá»ĥn
Ġkhu Ã¢ng
yc le
w ondo
Ġc entral
Ġb áº¥p
as ma
ter idaceae
Ġh Ã¡ch
Ġ20 2
ĠZ oom
ĠD Æ¡i
ĠCh anh
ĠT CC
ĠR iv
z on
ĠP ick
Ġsh e
ĠNass r
Ġs ite
11 4
ĠG an
H á»©a
L T
Ġ )\
ai ca
os um
Ð¾ Ð
V nM
ĠC á»ĵn
Ġl ol
ĠN áº¯m
ĠN as
ĠGi áº¥c
ĠE thi
ĠUp date
ou k
Ġsoc ial
ĠV isa
SE A
Ġwh at
ĠBrent ford
B al
ĠEm ir
VnM edia
ap i
m áº«u
ĠC Æł
ush ima
Ġprov inc
th á»ĥ
ĠEm manuel
M ag
B L
ĠN ancy
ĠM XH
ĠLu u
Ġcr op
nh ttp
ĠMir ror
ĠD j
N eymar
en ing
ĠPer ry
Ġdom estic
Ġâ ĨĴ
ĠtÃ³ e
âľ į
Ġ093 8
C mt
Ġ é
L oan
Ġcon tent
ĠAndre a
Ġqu áº§ng
ä »
ng on
ĠW ith
p Ã´
Ġl Ã²a
Ġm ark
eth od
Ġ37 0
ĠMat xcÆ¡va
ĠLau r
C á»«u
Ġng Æ°á»Łng
Ġ á»¥
ĠSch l
ĠK pop
ðŁĴĭ ðŁĴĭ
Ġr ich
Ġ3 12
Ġth anks
Å ¡
Ġd áº¥p
- \
Ġph Æ¡
Ġd Ãł
ĠK id
ĠDi or
c á»Ńa
Ġká» ģn
Q aeda
ist on
- >
t á»·
Ñ Ĥ
ĠEn rique
Ġgi Ã£i
Ġlu c
ĠI stanbul
ĠSt amford
ĠCoc a
x uáº¥t
oc arp
Ġval id
ester n
ĠDe an
Kh á»ķ
ON E
Ä ģ
+ ,
Zen eca
ĠC entre
ur us
Ġy en
H AGL
ĠTr Ã¡ng
av ing
19 97
ak s
g ame
Ġp os
ol t
Gi an
ĠLar ry
Y am
Äĳ Ãło
Ġm Æ¡n
ĠCH F
~ ~
ĠC Q
Ph á»ĳi
ĠNic olas
Ġhá»Ľ p
u v
av y
ĠPeters burg
imbab we
B el
ib i
Ġro ute
K Ãªnh
Ã´n e
ĠR ow
Ġ0 77
ĠCon c
RE A
Ä ¨
Ġth Ãºng
Ġr áº£
Ġcl os
ĠR A
ĠSh inhan
ĠD A
Æ°á»Ľ u
Ġto pping
ĠPers ie
S I
ĠAn field
ĠEr ling
l Ã£i
25 1
ĠMay a
Ġ ðŁĳĩ\
Ġth read
us se
Ġin it
o ides
ot is
11 6
ernand ez
å ı
Ġr áº¡
ĠTh áºŃn
ĠP PP
Ġgen er
Ġbut ton
Ġca fÃ©
ĠVin icius
ĠPoch ettino
Ġr Æ°á»Ŀm
ĠG uy
st ock
Ä ĩ
ĠTR ANG
ĠNik ol
âģ Ħ
ĠvÃŃ u
T iÃªm
Äĳ Ãłn
Ġwh ere
ĠSE K
ĠM á»ĭch
Ġdiff ic
Ġs Ãłm
Ġn CoV
C á»§a
em is
ph iÃªn
Ġm ust
19 68
eban on
Tr ÃŃ
ãĤ ¹
á»Ł m
p id
ĠB áºŃt
ĠL áº¯c
ol y
ĠR ud
h ung
ðŁĴ ª
ĠN á»Ĺ
Ġch ar
ĠR eb
ðŁĶ¥ ðŁĶ¥
ĠTh á»ı
ĠBr uce
ĠGr uzia
M as
ĠL ittle
un tain
ĠNg Ãµ
Äĳ á»ķi
ÄĲ Ã¡
id aphat
Shop ee
c ut
19 96
ĠJ Ãª
Viet in
Ġtr á»ĩt
Ġ19 09
17 0
ier i
N K
ĠAm ber
Ġch áº»
ĠðŁĺ ŀ
ĠTH áºº
16 5
H TV
Ġth áº£nh
ĠSer ena
Ġwork ing
ng uá»ĵn
Ġ14 2
ĠÃ´ xy
ĠTho Ã¡t
b Ã©
ĠBurn ley
Ġl eg
ĠX o
ĠTy son
ĠB ong
H Ã¬
Ġp o
M ed
as te
ĠBern ard
air s
c Ã²
ann ing
ĠV R
Ġtra vel
ach o
ĠðŁĺ Ģ
ĠTod ay
% );
Ġm Ã£ng
Ġf ace
em outh
ion a
ĠC I
ĠD á»«ng
n á»Ļi
Ġd ate
Ġm edia
Ġqu áº©y
ĠCong o
Ġthá»ķ n
ch ang
AT M
Scar abaeidae
ĠBruss els
land er
C rypt
Äĥ c
av es
Nh á»ĭp
cept ion
ĠL ump
Ġkh áº©y
ĠDis c
N Äĥng
Ġl Ã¬m
Ġr á»ĳng
ĠA ub
Ġ14 3
an ov
Ng Äĥn
Ġp ur
Ġ4 30
Äĳ Ã¡ng
Dr ive
Ġth áº«n
Ġnh á»«
B er
ĠG rant
Ġg á»įng
ĠJam ie
ĠH á»¡i
ĠTh Ã©p
ðŁĴ° ðŁĴ°
Ġc are
ik ip
b Ã¡o
y x
ĠM ap
O ff
ĠS id
m Ã´n
Ġth eme
Ġf ix
Ġj ob
Ġ á»£
ĠA x
Ġprom ote
Ġr Ãºp
ĠS z
ĠQuan trimang
ĠÄĲ iá»ĥu
ĠSt andard
23 5
h at
ar ma
23 3
ĠO tt
7 91
Ãģ CH
28 0
Ar gentina
h áº¡ng
Ġ âľħ
ĠRob in
en ix
ĠSh im
ĠBen jamin
cá»© u
p us
ĠC yrus
ian um
C ode
ãģ ¦
ĠQue ens
Ġng oc
ĠG em
Ġpass word
f eld
Ġc amp
Th á»ıa
ophi e
Ġh ÃŃch
r ina
Ġ15 4
ĠGu in
W est
Ġph Ã¢t
ĠW TO
ĠH áº¹n
ĠB Æ°á»Łi
Ng Å©
ĠVat ican
g b
620 9
ĠS Ãło
Ġá» Ķ
ĠÄĳ áº£n
R Æ°á»£u
Ġn anh
ch Ãº
A z
Ġmac ro
ï »¿
M obile
ĠB ond
en ne
ĠC Ã³i
ĠM ald
ĠS iu
ro ud
M ark
ĠS ÆłN
ĠArt eta
Ġchá»Ń a
v idia
ourn emouth
Ġká» īnh
L au
ĠÄĲ á»ĲI
ĠL B
F e
ĠV it
Ġ19 15
ðŁ¤Ĺ ðŁ¤Ĺ
ĠBlock chain
P aul
V K
ĠLÄĲ LÄĲ
l á»£i
Ġ19 26
ĠSerg ey
ĠCh Ã¨
ĠE ss
ĠJ ersey
ym b
ĠM Ã¼ll
ðŁĺ Ļ
Ser ies
ĠN ao
ert ies
ophyll a
ĠIn verter
icol or
Ġh Ã³m
ĠXH CN
Ġ21 5
amb a
AC O
d Ã¹
ĠT á»°
ĠV ong
Ġchocol ate
r ik
ĠMat thew
Ġsl ide
Ġ3 10
tr áºŃn
áĢ ½
Ġpat tern
k ei
c ung
ĠD Ãłn
' m
N C
R á»«ng
Q C
F E
ðŁĺ Ĵ
Ġsg k
ĠC ell
om i
L Ã¡i
Ġr est
Ġ á»§a
ĠG O
ĠHu gh
Ġn á»Ļm
ph Ãª
Ã ĩ
à º
ĠN Ã¨
ĠD iana
Ġb áºŃp
ĠTr áº£ng
th ÃŃch
ĠEin stein
ĠB ÃĮNH
pr ise
ĠTh ak
ag as
Ġeff ect
t áº¡o
Ġr Ãºc
ĠL ec
ĠCH áº¤P
ĠTh ailand
ĠJul ia
O s
Ġx á»ĳi
B áº¡c
Ġl á»ĵn
ĠJÃª sus
c á»±c
19 54
ĠÄĳ Æ°Æ¡c
doc s
UYá»Ĩ T
ĠEd en
as o
Ġtw eet
X Ã³a
Ġg uá»ĳc
ĠKiatis uk
Ġph áºŃp
id al
ac es
Ġv Æ°á»£n
ĠS oáº¡n
Kh ung
Ġl ife
ĠPh iáº¿u
l Æ°á»£t
Th oáº¡i
ĠL ov
ifi ed
Co M
ishi ng
c áº¯t
t us
âĢĿ ?
ĠT ask
ĠCh annel
ĠCam eroon
Ġm ov
Äĳ Ãªm
ĠDN NN
Ġn Ã²i
ĠH áº³n
Ġo ang
CÆ¡ m
D an
Ġal ong
Ġb logger
ĠNg ang
ĠKHÃģ CH
ĠB áº§n
ĠÄĳá»Ŀ m
Ġgh Ã¬
Ń Ĳ
l ik
t Ã¹y
Ġnh ao
ĠAstra Zeneca
ĠMo ore
Ġchá»Ń ng
s ong
Ġ2 99
f al
Ġd á»ĥ
c are
Ġv ery
tr ai
Ġn áº»
ĠS Ã³i
âļ ¡
t ag
ĠK M
ch áº¯c
Ġnh Äĥng
ĠKh á»§ng
in ter
19 6
ĠWay ne
amb urg
ĠShar p
ĠO COP
ĠAb b
c áº¥p
end y
Ġ14 00
ĠAd min
15 5
Do Ã£n
ar ning
ell es
L Ã´i
Ã Ĺ
it ect
ut ch
ĠTh Ã¹
Ġ19 5
Ġ15 3
ĠIsa ac
ĠDi jk
ĠQL TT
ĠLump ur
Ġl Æ¡i
im p
ell us
ĠNH áº¤T
ĠAss ad
ĠB orn
ĠA qua
ol is
O anh
ikip edia
S V
ĠX box
Ġinter est
mid t
Ġnh oi
Re uters
ĠB ae
T á»ĳc
Ġr uá»ĳc
ĠC Æ°á»Ľc
ĠG ucci
ĠSA U
au m
ĠNg on
ph Ã¡
ĠrÃ¬ u
Ġg g
ĠPhot oshop
p ad
Th á»©c
ðŁĺ İ
Ġkh ua
ĠTD TT
S ir
ĠW ifi
oooo oooo
Ġi Cloud
Ġde ep
ĠTU AN
Ġc áºŃt
ĠchÃ³ p
k ai
ĠL áº¡y
Ġr ai
13 8
M Ã¢u
ĠDou glas
M es
Ġph Å©
c iter
Ġl áº¡p
b Ã³ng
b ÃŃ
H á»Ļp
n us
ĠT erm
ĠN eu
le ction
ðŁĺħ ðŁĺħ
D áº¡y
it le
if ul
ĠN eo
ĠN Æ°á»Ľng
NG UYá»ĦN
r ap
in ed
ĠG Ã¢y
! âĢĵ
s á»ĳc
y ear
ĠL P
ĠLim ited
ĠKu ala
L D
Ġp osit
ĠD TTS
ĠX áº¿p
Ġd eveloper
hh h
ĠCru iser
ĠR áº¯n
Ġ ðŁ¥°
ad on
oc eph
J ames
Ġop tion
ĠL ock
ĠG at
ĠSky pe
ĠMer kel
ar at
PT PP
en ch
Ġtr an
ĠS ept
Ġthi u
A ss
ĠMan uel
SH B
F ox
s Ã¢n
100 68
n Ãłng
Ġ è
Ġ3 66
Ġs qu
Ġ3 93
L á»Ļc
ĠWar ren
ĠVH TT
Ġl arg
ch inh
ant is
L ÃŃnh
ĠPh iáº¿n
l ac
ĠM iáº¿n
ĠF ans
Ġo unce
ar r
Ġmain tain
th Ã¢n
ĠÃĲ a
ĠÄĲ áº©u
Ġ19 21
ng u
ĠÄĲ iá»ģm
á»ģ m
ĠSt yle
ĠArk ansas
ĠShar apova
S martphone
ĠðŁĴĸ :
ĠSal v
ag ing
Ok ay
el ess
ĠAl t
Ġman agement
ĠB uá»Ļc
Ġ3 68
m uá»ĳn
Ġg áº«y
ĠP s
ĠTr á»ĳng
enn y
x Ã¢y
Ġar ea
ĠSil icon
ph y
ĠHun ter
Ġr Ã©o
ÄĲ Ã¨n
ĠGi áº½
ed er
Ġmá»į n
ĠO PP
Ġme as
K ing
au c
ĠSp ears
ĠÄĳ Ã¹m
ĠðŁĺ ī
v á»ĭ
Ġ123 8
n ov
ngh Ä©a
ĠU g
ah n
ĠSV ÄĲ
h ome
av an
iv ed
Ġ14 7
ãģ Į
Ġpl atform
s Æ¡n
ĠB ung
Bu Ã´n
ĠY ing
es is
5 20
ĠT ÃĤM
av is
ĠA G
ĠCh rom
im et
im o
ĠG Hz
---------------- ----------------
) "
ĠTM ÄĲT
ĠJon athan
al ie
s burg
Ġmac OS
Ġr ice
ĠN athan
18 8
C ry
Ġng á»į
Ġ9 50
ĠMor ris
Ġu áº¿
B á»ī
ĠT á»¤C
ĠM Æ°u
Com p
jh j
F I
ĠÄĲ á»ķ
ĠKHÃģ NH
ĠBec amex
Ġd j
ĠTr á»¥c
Ch Ã¡n
ĠLeg end
ĠÄĲ O
Ġ25 9
ern er
Ġch alleng
th uy
Äĳ au
ĠKat ie
ĠL aser
Ġ16 4
ĠAl geria
omy ia
ĠT Æ°Æ¡i
Ġchá» ı
ĠY ear
ĠPh un
ĠAbd ul
Ġ2 12
ĠA aron
ĠHu Ãª
ĠAd obe
ĠFinal s
S uz
Ng Ã´n
Ġá» Ľ
ak o
âŀ¡ ï¸ı
Äĳ á»ķ
ĠLeop ard
ĠC ES
ĠColl agen
Ġt áº¯p
ĠKish ida
ĠMoy es
Ġngo ai
Ġá»¦ a
Ġc ost
ĠN A
ĠD z
ÄĲ ÄĤNG
ĠÄĳ Ã¡t
ĠLu d
Ġst udy
Ġshop house
ĠY i
ĠInd ustry
ĠC á»Ļt
Ġb itcoin
Ġl and
ĠSte fan
ĠBen fica
ĠXV I
ĠC Ã²
19 46
c ini
th áº¥y
ĠB áº¥m
ĠF ir
D Æ°á»Ŀng
u ed
ĠB ird
ĠR M
k V
ðŁĺ ľ
or es
ĠE CM
ĠD á»ĬCH
ast ian
ĠEthi opia
H uong
is p
ĠBuff et
ĠL ist
á»ĺ C
Ġqu Æ¡
ĠÄĲ Ã©c
Ġs ides
Ġs ustain
Ġthá» įc
ĠC trl
ĠK ro
ĠG und
l is
Ġch uá»ĳc
y es
Äĳ á»ģu
Ġv Ã¡t
Ġar ound
Ġá» ¨
ĠZ imbabwe
ib a
Ġbuild ing
ĠTh aco
ĠK oh
ĠOPP O
di en
Ġhá»Ł i
C Ãºp
ĠV á»Ĺ
ĠAp idae
ap ur
v áº«n
Ġr ui
Ġdo ping
ot elli
H TC
TV QH
B áº£y
Ãµ n
ĠL ip
ĠÄĥ ng
ĠOne Plus
ĠHen ri
sk a
ĠH oll
ĠS K
ĠK ov
ĠRep ublic
h l
Ġkh Æ°á»Ľc
ĠL áº¡ch
ag ar
Äĳ Ã´i
Ġ17 9
ĠIbrahim ovic
ĠTr Ã¢u
d Ã¹ng
all as
Ġf ive
ro e
ãģ ª
iden ce
ĠVietin bank
Äĳ á»ĳt
Ġ19 07
Bulb ophyllum
Ġn ong
ĠV ista
23 8
O lymp
á»£ c
ĠSen egal
b urn
x inh
ĠR á»Ńa
ðŁĺĦ ðŁĺĦ
ĠG az
ID EO
Ġs ince
am oto
M ÃŃt
Æ¯á»ļ NG
ç Ķ
Ġ18 95
ĠPe ugeot
S M
Ġr á»Ĺ
Ġ25 5
mm mm
m Ã¹a
Ġb Ãºng
Ġth á»ĳ
ÄĲ á»©a
Ġm áº£y
ĠO ver
ðŁĮ ¸
0 16
ĠBol ivia
av o
Ġr á»ĭch
ĠEv ans
ĠMcG regor
an um
ec ia
end ron
ĠGIA NG
r b
ĠL oa
Äĳ iÃªn
Ġres ources
ĠDia z
ĠR Ã¹a
ĠBrit ney
gi Ã¢y
Ġ0 10068
ĠMay weather
Ġt Æ°Æ¡m
Ġ( ;
ĠmÄ© m
Ġ010068 6209
tr ib
Ġn v
Ġr h
tic idae
ĠM ats
gggg gggg
Ġcá»© t
Ã¶ y
Ġbu g
Con troller
ĠIm ages
ĠEmir ates
ĠT ong
thg ate
1800 1090
ĠK iáº¿p
K Q
AS H
R es
ĠK as
ĠSal ticidae
ĠYouT uber
ãĥ¼ ãĥ
ÃĲ á»©c
ĠTitan ic
act ory
ĠÃĲ oÃłn
ĠSil ver
M D
Ġl Ã¹
erg y
Ph Ã¹
U T
y ahoo
ĠPort o
Fran ce
D end
Ġqu áº¡nh
Th ai
ĠOut look
n ÄĲá»ĥ
ĠUB KT
S áºŃp
Ġb á»ĩt
ĠP A
ix on
19 88
l iÃªn
ĠOp era
ĠMic ro
ĠB uck
ĠMich elle
A vay
ĠKyr gios
H al
ot ing
HO T
. [
A k
D áº¡o
s is
Ġro om
Ġp oster
5 21
Äĳ áº¡t
C op
] ,
42 99
ĠSt arl
ĠNott ingham
th áºŃt
ĠDo ha
ĠP it
ĠW ong
ĠAng ular
ĠTH á»¨C
Ä± r
al anta
ier ra
} }
Ġ ***
ĠK ind
S il
u j
ĠS áº¢N
ĠMar seille
ari idae
ĠEst onia
Ġhigh light
ĠJenn er
M itsubishi
Ġ Ø
ĠV ivo
st e
V ict
M Ã´n
is ic
Ġng áº©m
... ?
Ġth áº·ng
th al
ĠO re
oc a
Ġs ever
hi ro
oc kh
Thu Ãª
ĠDir ect
m ob
ĠLe v
ĠAir Pods
ĠK Ã©o
Ġ18 8
il et
Ġch Ãłm
ĠN áº¥m
13 4
Ph u
pl us
Ġqu Ã¬
Ġth áº©n
ĠN O
Ġin f
Ġnh Ã²m
ĠMid u
ch á»ĳt
Ãģ P
Ġ090 8
áº¨ U
Th Ã¡ch
and i
ĠP ele
en burg
ĠD embele
ag uay
C R
H Ã´n
Ġ ðŁĳį
Ġx Ã©n
ĠP ence
ĠLu ong
Ġtr áº©y
Th Äĥm
Ġ17 8
ev ich
yp od
X Ãºc
ĠÄĲ Ã¨o
T áº¡p
âľĮ ï¸ı
Ġf ind
d ao
ĠHo Ã¡n
V ol
J o
Ġá» Ľi
ĠT áº£n
ek i
Ġch ildren
ĠK erry
ĠTho áº¡t
ĠÄĳ Ä©
Ġm ode
it ary
Ġx áº©y
ID I
ĠĠĠĠĠĠĠĠĠĠĠĠĠĠĠĠ ĠĠĠ
ĠIndi ana
H á»¡i
Ġf arm
oy a
Ġeng ine
ĠH ind
ĠI Q
Ġre f
Sh are
err ard
ĠK ep
eb y
âĺ ĺ
Ġ15 9
ina wa
ĠS ON
Ġom ega
ĠSH K
ĠTor onto
Ġn orth
S áºµn
ĠV BA
ĠAle ks
H áº¹n
ĠN exus
ĠGeor g
Ġd áºŃm
os te
ann ah
âĻ «
ĠAl ba
It alia
Ġexport s
ĠL PG
Tr áº¡m
Ġmá»ı m
ĠÃģ ng
Ġph Ã¨n
Tr ai
Ġc ur
T D
Ġ15 1
ĠHe ard
ĠÆł n
ac ter
ĠY áº¿u
Ġlear ning
ĠNg á»§
ĠAm y
á»ľ I
Ġz ay
Ġth Ãły
ĠW el
end ed
ĠPro gram
G MT
Ġv Ã¡nh
ĠB Ã´
int endo
17 9
Ġxu áº©n
ĠL ily
d ia
ĠÄĳ ky
ĠOr gan
ĠIM F
ĠP il
Ph áº¥n
ĠWh ats
l em
Ġh ehe
l ao
ĠPr op
ĠTH áº®NG
ĠCour tois
Nghi Ãªm
X áº¿p
78 0
ĠBuff ett
Ġlocal ities
h ong
ĠPet ro
S Ã³c
19 8
âĺ ĳ
Ã¬ u
á» ļ
ĠBr om
Ġsá»© a
ĠJul ian
Ġcomm unity
ĠClin ic
ĠD áº¿
Ġco uld
ĠI CT
21 8
C á»Ńu
ĠL ebanon
Ġvá»ĭ n
n x
B Ã´ng
ph á»¥
kh oe
Ġf ocus
IMA RS
S á»Ľm
v as
Ġ91 23
Ġt uyá»ģn
Ġx á»Ľi
le e
Ġs áº©y
Th áº£
Ġoff line
ĠO a
áº¶ NG
L áº¡
ĠB áºłN
ĠS áº¯t
giá» ĳng
ĠÃĲ Ã³
ĠDO JI
H á»ķ
ÄĲ Ã¢m
ict news
3 90
ĠR ush
ul u
h á»ĵi
ĠIn t
ĠC ub
ĠMich el
H uawei
S áº¿p
2 23
Ġtr Ã¡m
Ġz oi
ĠFl ip
PC R
ĠN á»ĳi
K D
Ġp al
ĠT Ã¡n
oc er
L á»Ĺ
ĠY oshi
T ime
Ġm Æ°á»Ŀng
ĠN umber
ĠD aw
od i
áĢ ŀ
ĠK Ã¬
et i
ist ic
ĠÄĲá» Ĥ
Ġkh á»±ng
BN V
ĠMotor ola
ĠHow ard
ĠFans ipan
H ome
k es
ĠN ike
ÄĲ CÄĲ
ĠâĢ ¢
14 7
Ġcross over
tr ans
ĠC áº¥n
ĠV ie
Ġ15 8
ĠThu Ãª
let on
Ġkh áº£m
ĠG ong
j ik
Ġ0 34
Ġyá»ĥ u
ĠTun isia
Ġh áº¿n
Ġph Ãłng
Ġchi u
ĠAndre y
Ġap i
A sia
ĠAle ppo
C Ãłi
ĠHu d
ole on
ĠPat riot
ĠðŁ¤ Ĺ
Ġq a
G Hz
ĠMik hail
Ġd áºŃt
Ngh á»ī
ĠLaz ada
ĠThak sin
L áº¡m
Ġhá» «ng
ĠM am
ÃĶ N
t es
oc ash
ĠPH áºłM
Æ¯ U
asp ers
r á»ĵi
ĠBlack pink
ĠGuin ness
ĠPr ad
áº¶ C
ĠM á»µ
ĠBro ad
ĠJoh ann
v ui
ĠBol ero
ou d
Ġm ÃŃch
ĠNh áº¯c
ĠTr Æ°a
ĠRep ort
ĠSam uel
od en
ãģ Ł
ĠJosh ua
ĠFound ation
Ġh ello
ĠCS B
ĠVIá»Ĩ N
. *
H om
ĠH Ã¡ch
13 1
ĠSing h
ĠGord on
S mart
VI ET
Ġp il
P et
Ġr ÃŃu
ĠL áºŃt
reg as
ðŁĮº ðŁĮº
Ãģ NH
H am
oph agus
m áº¯t
n Em
ĠIP O
áº¤ Y
ĠH ao
ĠA IC
n Thá»§
ĠN un
ĠB á»ĺ
Al bum
s ay
ĠV áº¿t
ĠVI C
OL ED
an ie
ĠS ushi
B ox
ec redit
ĠAl onso
BO X
al aya
ðŁĴ Ľ
4 03
L Ãłn
Ġdiffic ult
Z alo
ĠV IN
ĠOP EC
Ġm un
ph at
ĠShin zo
K e
Ġr Æ°á»Ľi
ĠServ ices
ĠN vidia
C arl
Ġt p
ha el
ig ma
oth y
Ġback ground
æ ĸ
oi gu
Ġ15 7
ĠCh eck
ĠN SNN
iz en
Ġp ul
ðŁĵ ¢
X ong
ĠBrook lyn
08 0
gi Ã¡o
ĠBo ot
Ġch áº¡nh
Ġnh at
ĠJ oo
en k
ick y
Ġn Ã¡
ĠM MA
ĠS Ãłn
ĠD in
Tr áº¯ng
ĠY osh
ĠL ONG
ĠCh eng
Ġkh á»īnh
ĠCh ef
ĠSE O
Ġbnh iu
ĠB usan
ĠNh áº¡
ĠJ oy
ĠVol vo
< /
ĠVal ley
ĠSS I
Ġg á»ĵ
ill as
U AE
Ġh ecta
ĠTr á»©
ĠC Æ°á»Ľi
Ġ19 04
Ġlá» īnh
ĠMax im
ĠCh Ã¢m
Ġtrá»ĭ nh
ult an
á»² NH
ĠV M
Ġtru á»ĵng
tr uyá»ģn
Ġx áº¡o
on n
z ania
Ġn t
19 3
Ġsl ot
Ġsil icon
ĠPoi rot
c ai
á»ı e
áĢ¬ áĢ¸
ĠSp ider
S áº£i
ĠM ug
Ġper formance
ĠK V
Ġ19 02
Le uc
od er
Ġd Ãºi
Ġr á»¥c
ðŁĺ ŀ
Ġtr Ã¢m
Ġtr Ã¡p
ĠLe ad
Ġlay out
ĠP y
Ġ20 3
ph am
g Ãł
ĠW ard
ĠHom estay
ĠTh iá»ĩp
ĠGl ass
Ġf ront
ĠB F
Ng u
æ ĺ
th áº»
Ġk b
ĠGi o
17 5
d s
q q
ĠH UONG
ĠSou thgate
Ġl iá»ĩng
Ġng Ã¡p
ĠT Ã©
Ġpol icy
Ġt itan
Ġph á»Ľi
it ol
Ġj oin
.âĢĿ âĢľ
Ġb eg
ĠTeleg raph
Ġ091 86
% -
Ġh atchback
ĠPetr olimex
b Ã¡c
ak ov
ĠAlex andra
ĠÄĲá»Ĵ NG
H appy
ĠZ ero
Ġ2 11
21 4
ir ect
ĠBre xit
00 2
ĠU m
Ġpl us
27 0
ĠAth let
âķ¬ \
ch áº·t
ĠM iá»ĩng
V n
Ġ18 3
ĠTR ÃĮNH
Ġs uyá»ħn
ĠTh a
ely p
ĠnhÅ© n
Ch á»¯
19 44
ĠSun ny
ÄĲ á»§
Par is
n Ã©m
ĠWat son
Ġ3 88
Ġop era
P ink
/ -
26 9
Ġc áº§y
Ġdec or
e ast
ĠH ernandez
ĠL iz
áĢ ¼
17 6
qu ay
ush u
Ġn Ãª
ist o
ĠAl tis
out ique
ie ve
38 0
ĠT ext
ĠAC V
Ġfur ther
S Äĥn
Ġd ance
ĠW omen
Ġag ric
ĠB á»¥t
Ġf ire
Ġs á»©t
v ol
ĠV as
Ġg t
ĠE va
56 7
p ost
Ph oto
P ass
ĠÄĳá» įa
âķ¬ âķĲ
in em
t oÃłn
t iÃªu
Ġr á»£p
Ġpr ivate
ĠĠĠĠĠĠĠĠĠĠĠĠĠĠĠĠ ĠĠĠĠĠĠĠ
ang nam
enn ess
G old
O ct
f ree
ĠD ance
B Ãºn
ĠR ivers
R Ãºt
ĠVes pa
Ġnh áº£nh
Ġn Å©ng
Ġsh k
ĠSh oigu
L NH
ur ai
ĠMari upol
ent a
h á»Ļp
C ovid
le ep
b Ã¡nh
Ġ0 30
od acty
agn an
Ġáº¨ m
Ġch Æ°á»Ŀng
ph Æ°Æ¡ng
Ġ3 33
.... ...
ĠAd ams
ard y
13 3
v áºŃy
Ġngh áº¿ch
44 0
Ġf uture
ĠAt t
P I
ĠM old
T á»§
ĠN Ã©
f ish
Ġd á»Ńng
Ġqu ar
n áº±m
4 30
r est
um ents
uz u
L ist
Ġg reen
áºł P
Ġtr y
Ã¢n ia
ĠH á»ĳi
ðŁĳī ðŁı»
ĠÄĳ m
ĠA fr
ĠF irm
Ġth ose
ĠF rid
Ġe S
Äĳ áº¥u
Ġká» ģm
ĠTI ÃĬN
ĠCh ay
ĠLap ort
C ÄĲV
ĠTh iá»ĥm
Tr á»«
ĠR in
ac ea
ĠW onder
un ities
aut iful
Ġn á»©a
ĠVinc ent
Ġhu Ã½t
áº» n
Kh Ã³a
ĠF all
ĠVI ETTEL
Ġag encies
ĠSel tos
Ġ@ @
h Ã´
ĠTK The
Vin Fast
ĠM áºŃp
ĠAl fred
T ima
it ton
Ġgh áº¹
Ġ ent
Ġp ic
ĠN uÃ´i
Ġday s
l ah
Ġm er
Ġh áºŃm
ĠG ym
ĠU H
ad ow
Ġtest osterone
ĠMor ata
Ġ09 19
gi um
ock tail
k u
Ġ( ,
ĠHe art
ĠLau ren
Ġ0987 23
A sp
ĠHO SE
Ġ090 6
Ġgi Ã²ng
l ang
ĠM ond
ĠS TE
Ġl á»§ng
á»ĩ ch
ch ao
ĠCh ern
P akistan
21 6
ĠH ok
Ġ18 98
Tr á»©ng
Thu áºŃn
ðŁĺ ¥
ĠOl iv
ĠV Ãłm
P K
ĠMi y
ĠOtt oman
Ġ09186 99299
Ġ098723 4299
h á»Ļi
± a
ĠIn cheon
14 1
ĠOk inawa
ĠFad il
m ap
r Ã©
Ġcons ider
G ÄĲ
Ġngh Ã©n
ĠSir i
Ġ12 23
ä ¹
ĠH PV
ĠY as
Ġmarket s
F IFA
W ith
Ġ10 80
ut ing
ĠZaporizh zh
H iá»ĥn
x uá»ĳng
ĠMarsh all
ĠH os
W I
Ġus ers
Ġmake up
X T
ĠÄĲ TVN
x l
Ġs iÃªng
th an
ðŁįĢ ðŁįĢ
Ġs om
te am
Ġs Ãªn
ĠMan cini
ĠF utsal
Ġ17 6
âķ¬âķĲ âķ¬\
ĠÃĲ áº¥ng
T i
or ed
ĠE vent
ĠFT A
ĠB ee
os ia
ens ive
Ã «
ch ar
ĠM ore
Ġcon tact
h old
ĠGiá» ıi
St ation
M áº¡c
Ġl áº£nh
ĠJack pot
ĠMod i
ĠÄĳo Ã¡i
ame yang
Ġth au
n Sá»ĳ
ĠÄĳ Ã¬a
Kh anh
ĠEx citer
hel m
Ġop po
T á»ĳ
Ġ0 25
Ġr uá»ķi
Ġm ember
ĠB ion
ĠPark er
ch iá»ģu
ĠL este
ĠCh iá»ģng
Ġ. âĪĴ
ĠTTC K
Ġsp ecial
Ġpartic ip
al ish
d ep
app en
21 7
ae v
aw r
ĠC rai
ĠV á»ĲN
ab el
rl ink
T e
ĠRed mi
**** ****
r em
Ch uc
ĠSt ock
our t
Ġph p
ĠTh iago
ĠL á»©c
ĠQu i
Tr áº§m
tr od
ĠIm age
ĠMoham med
g ian
ang o
Ġ5 55
Ġtá»ĭ t
ĠSh are
ick s
ĠMos s
ĠPol y
g Ã¡i
Ġre act
ryopter idaceae
Ġhá» ·
ĠCor p
ĠHir oshima
ĠV D
ĠD ryopteridaceae
Ġban king
âĢĭ áĢ±
giá» ¯
ĠFernand o
Ġ inh
K Ã©o
ĠE o
Ù Ī
ĠD anny
Ġta t
Ro oney
agu ar
ĠF ront
19 92
ĠAp ollo
Ġmel an
Ġl á»§i
ĠT k
ĠT een
ĠB á»ĵn
ĠTH A
Ġsp in
ĠGre alish
Ġn Ãµn
ĠH E
ĠB ournemouth
22 9
68 9
Ġstream er
Ġ ðŁĳĩ
Ġl iá»ģm
ot or
ĠSol omon
s ql
Ġn á»ı
Ġn á»ĭt
Ġr ele
te k
unc il
C ard
Ġxá»ī a
St en
Ġch Æ¡n
Ġen ergy
Ġagain st
ĠN áº¡i
ĠCh in
k it
Ġr Ã©n
ÄĲ cs
ĠI DC
H eter
19 90
Ġcomp ared
Ġchat bot
ĠH ospital
u ary
Ġng Ã²
Ġlá» ĥ
Ng á»įn
ĠR Ãło
Ġhot girl
f b
ĠBer g
ĠSept ember
R u
Ġm Ã³i
l ib
Ġgr ac
ĠB á»ĳc
Ġ19 01
Ġbec ome
m Ah
ĠcÃ³ p
ch Ã¢u
Ġchá»ĭ t
ĠC AO
ĠB eta
ĠL ung
Ġng áº¡n
av in
b Ãłn
ĠA mar
ĠCh Æ¡n
48 0
ĠBH TN
un i
47 0
ĠLÅ© y
im al
ant o
ĠL una
ĠTP Bank
av ir
gg g
Ġp ush
ĠF our
Kh Ã¡
15 6
ĠMar ina
Ġx áº¹t
ÄĲ iá»ģn
un ter
ec ca
ĠD áº£i
ĠR á»ĳt
ĠRom Ã¢nia
gy z
ĠÆ¯ Æ¡ng
( ).
ĠPr ess
Ã© rie
ĠÃĲ Ã¬nh
err or
ç ļ
C anh
add y
X iao
ell idae
66 8
Ġ19 4
us en
Ġel ement
b áºŃt
Ġdá»¥ i
ĠHel en
ĠGirl s
Ch Ã¡nh
ĠR id
ĠNH AN
ĠAb raham
: ((
Ġes tr
k n
Tr Ã¡ch
N at
Ġ20 27
Ġdi pl
ĠSoh u
Ġt ie
if a
Ġp erson
ĠM á»ĺT
ĠMar gar
H er
Ġe ven
ĠPol ypod
Ġfollow ing
Ġ7 30
tr an
ov ietnam
Ġmu ch
Ġdem and
id ion
Ġ7 37
ĠElec tron
ab lo
Ġtre at
ĠSub aru
Ġeff orts
inh a
ĠR um
od ge
It aly
Ã¨ ng
ĠL ÃŃ
Ph un
ag alus
Kh áº©n
aspers ky
Ġl áº·t
ĠPh oto
re h
yp hi
U r
ĠHá»Ĵ NG
ĠÄĳ Ãªnh
ĠF um
Ġ16 9
ĠFran co
c ap
ja ja
H I
k av
S hi
Ġenz yme
ĠPolypod iaceae
K V
Ch j
Tr á»ĭ
ĠR el
A X
M Ã¡i
Tr ÃŃch
ĠJ en
26 8
ĠTan zania
E ver
6 90
Ġth ÃŃt
B GD
l á»Ŀi
id an
Ġh Ã³i
âĢĮ âĢĮ
ĠLÄĲ BÄĲ
Ġnear ly
Ġ25 2
ĠA ce
av erse
op l
ĠNew ton
s á»Ń
vay tien
Ġgolf er
Astr agalus
ĠC BS
as es
Ġpol y
ĠA st
ar ly
ĠAl ph
Ġhá»¥ i
Ù ĩ
ĠL et
19 91
ĠUg anda
ĠSo Ã¡i
Ġp or
ĠL uyáº¿n
17 8
olog ies
ĠRodr igo
ĠSel ena
Ġextens ion
Ġth áº£ng
Ġchá» £p
ĠMc K
h á»Ļ
Ġ00 2
Huy nh
Ġn eg
ian ce
ĠZaporizhzh ia
ĠF amily
Ġ18 99
ick er
Ġfield s
ĠKh am
ĠH á»ħ
H á»Ļ
ĠC t
ib lo
Ġl ed
ĠH as
AR T
h er
ĠM itch
ĠQu Ãł
Ġ: âĪĴ
D z
ĠTr iá»ĩt
ul ation
Ġsc ope
âĸ º
Mod el
Ġd Ã´
ĠL á»±u
ph uong
Å Ļ
G á»£i
ĠKh áº¥t
ĠR Ãºt
ĠG in
ĠN elson
Ã© l
ĠS ÃŃp
ĠCh un
T iá»ĩm
iform is
ĠD Ã¢y
ĠDis play
P o
Ġt Ã©t
Ph áº«u
ĠTom my
ĠUP CoM
Ġng oa
ĠMar x
g iáº¿t
m Ã³n
M á»«ng
S oi
Ġ entr
p ass
ĠÄĳ Ã¹n
Ġl Ã¡y
Ġr ight
ĠWhats App
th us
th áº§y
ĠFred er
Ġan t
Ġlar avel
Ġ17 2
S Ä©
to ine
C os
Ġtr áº¡c
Ġ16 1
P op
ĠR ico
10 19
ol Ã©on
ĠCh ip
anc es
R om
iv en
ĠPi que
ull ah
Ġtr áº£o
ĠNh iá»ħm
ĠE ner
av ier
ov sky
X áº£
ĠT ool
ĠV á»ı
w o
Ġc ort
Ġb Ä©u
ĠN est
ic ornis
Ġdi v
ÃĢ O
v ey
ĠN Ãª
is co
bo hyd
C á»ķng
v ious
ĠT oan
ĠKy oto
Ġl ithium
Ġn iÃªu
Ġtho ang
ĠInst it
m edia
ac ing
ĠmÃ´ t
ag in
ĠðŁĻ Ħ
UB G
ĠXU AN
S hip
5 90
Ġph uc
ash wagon
Ġ090 3
ild er
Ġb Ã´n
Ġn Ã¡n
ÄĲ á»īnh
ĠSt udi
ÄĲ áºŃp
25 9
qu oc
ĠEr n
ĠAss ist
ĠN ixon
ĠD et
Ġterm inal
ĠGD ÄĲT
Tay lor
Tr á»£
Ġxo e
gi Ãºp
y on
ĠTh r
awr inka
ĠL td
ĠG ard
ĠKh iáº¿u
ĠO ri
áº¾ U
æ Ī
V X
ĠPar aguay
ĠKH CN
ãģ¾ ãģĻ
lo e
Ġ5 15
r avel
amb ia
i Pad
Ġlo anh
ngh á»ĩ
V a
Ġl á»ķ
Ġph one
ĠN BC
ĠR B
ĠTCT D
ĠPhil adel
ĠSch midt
r ess
Ġvá» ±a
ore an
ind ex
Ġl á»ĭa
T F
on ic
al og
Ch rys
13 9
osit ory
: "
Ġtr á»ĵi
ĠNH A
Ġ4 60
Ġ9 084
da fi
an tra
Ġ2 21
ah l
ĠC áº¢
ĠH IMARS
ch uyáº¿n
18 7
ĠDO M
d at
quy á»ģn
Ġch Ã¢y
ot ter
Ġ4 16
ĠW igo
ĠRecord s
Ġ4 000
19 7
Dic ran
yphi idae
Ù ħ
ĠC Ã¡o
it us
Ġst at
ual ly
Ġâ ī
ĠD ick
ĠTR á»Į
Ġauth or
ĠS ave
25 5
ĠLin yphiidae
p y
Ð º
Ġg old
ĠT as
ustr ial
g al
ĠG LC
P eter
l Ã¡
ĠS X
ĠKu wait
E ur
ĠP K
Ġ18 97
u ation
ĠEurop ean
d h
áº¶ T
ĠH ae
ĠCy ber
c Ãº
ĠN K
Ġho use
ĠG ua
Ġn eu
ĠR at
ĠE sc
Ġchá»ĵ i
D ang
j b
m Ãª
ĠK Ã¬a
ĠE SP
our ist
yl er
emb ly
ĠNg an
as is
Ġbil ateral
ĠS ap
ĠL il
GH B
E W
ic ollis
ĠPh Ã¡ch
ig i
á Ĥ
ĠD áº¡o
Ġgr and
s á»©c
ĠA ud
Ġs and
uu u
ĠFuk ushima
Ġn á»Ľt
ĠCh á»Ń
al on
Tr á»ĵng
ĠG ust
tt tt
D Ã¢y
Ġ7 77
ock et
Ġd áº¥m
ĠB ib
v áºŃt
ĠB á»ĩ
ĠT CB
ĠKh áº©n
m Ã´
Ġgi Å©
T est
ĠF ury
V itamin
Ġg Ã¡p
Ġkho áº£i
ĠÃ ģn
l áº¡
Ġl Æ°á»Ŀn
ĠV áº£i
Gi Ãły
ðŁ¤ ª
Ġx áº¯t
* )
R P
W ow
ĠP ra
Ġ0 79
d uong
ĠCQ ÄĲT
Ġm Ã¡nh
ĠS ue
ĠA ction
Kh Ãºc
ev en
ĠInfin ity
r h
ĠN áº¡p
enc er
Ġt om
ov en
ĠOre gon
C re
ðŁĳ İ
Chu á»Ĺi
ĠÄĲ Ä©a
K E
Ġr Ã³n
ip al
ĠPrad esh
â ı
Ġth Æ°á»Ľt
Ġ17 7
Pr em
Ġs Ã©c
ĠP owell
at em
ĠMar oc
ĠBug atti
Ġv Ãª
Ġs ide
ĠS ug
ĠG oth
ĠE P
Ġres ults
Ġ38 92
á» Ģ
ĠL lor
ion al
L TS
á ¸
Ġc á»Ĺi
20 5
y en
ĠV GP
ÄĲ á»ķ
Ġsign ific
ĠN TM
t ao
M Ã¨o
Ġ âĿ¤ï¸ıâĿ¤ï¸ıâĿ¤ï¸ı
im um
ðŁ §
ĠReal me
Ġl et
ĠÄĲ áºłI
ent ina
18 6
ĠDom in
: (
ĠT ia
Ġcr edit
Ġ4 70
Cá»¥ m
ĠH ero
ar ov
Ġw ater
M Ã´ng
ig ation
15 3
ĠMad onna
do anh
ĠModern a
ĠP and
24 9
ĠJam aica
Ġ18 96
av irus
dan tri
ĠB UI
T á»¥i
Ġ17 1
L ew
m á»©c
ĠI ron
Ġt Ã¢ng
Ġi Pod
d ai
ĠR C
ĠBa ch
ĠMu ham
eb ase
ĠAt alanta
G áº¯n
nik ov
Ph Ãª
oc ar
ĠRal ph
ĠY a
Ġlau nch
M ir
Ġan ti
á»į p
ĠD á»įc
ĠD UONG
ĠMig uel
tr áº»
Ġch Ã£i
Ġqu á»ĩ
ĠSev en
ĠKHO áº¢N
ol ia
ĠFrank lin
anth es
H igh
J ess
Ġs áº¯ng
ĠPhiladel phia
ĠPho enix
N y
Ġcon text
... !
agas car
c áº§m
ĠKho Ã¡ng
ĠRuss ell
p x
Ġh Ã¹
Ġ23 4
Ġbec ause
B Ã¡t
g áº·p
ĠAM OLED
ĠH áº¢I
ber l
Ġchá»Ľ m
ech an
ĠDar win
net t
V H
+ )
F L
ĠC á»©ng
ĠTh Ãł
Ġ20 6
ĠAn aly
QU TW
Ġr Ã´m
R ec
th Ã¡nh
Ġsu it
m Ã©t
Ġv áº¡m
ĠECM O
h Ã³a
ĠKaw asaki
ĠG Ã³p
ĠGi up
!!! \
emb ley
Ġl Æ°á»Ŀm
fr astr
Ġt Ãło
il iano
ĠAs tr
ĠW TA
Ġgi t
ĠGi roud
Äĳ oÃłn
ood y
ĠDom inic
Rob ert
Ġá» īa
Ġlar ge
Ġcast ing
X Æ°á»Łng
c Æ°á»Ľp
Ġt el
ĠV áº¡c
ĠD á»°
Ġ3 45
ut ed
ĠBion ic
ĠM áº¿n
ĠP OS
ĠK ry
ĠW B
ĠM etr
ed ict
ĠCar Play
Ġ091 8
Ġout put
Ac count
Ġdel eg
ĠWood s
Ġstud ents
Ġc ell
ĠBat man
Ġpot ential
er en
ĠD ow
ĠF ish
ur as
Ġphá»§ i
ant i
S ec
ĠM ata
Ġtur n
ĠH unt
ĠN intendo
ĠA ch
Ġpres ent
ĠP earl
ĠMar ca
âĢįâĢįâĢįâĢįâĢįâĢįâĢįâĢįâĢįâĢįâĢįâĢįâĢįâĢįâĢįâĢį âĢįâĢįâĢįâĢįâĢįâĢįâĢįâĢįâĢįâĢįâĢįâĢįâĢįâĢįâĢįâĢį
L Æ°á»£t
Ġmá» ģ
th ai
Ġng á»¥t
ĠLan c
ĠCarol ine
an ies
Thu áºŃt
Ġ5 20
Ġw Ã¡
Ġv er
19 30
b iá»ĩt
J ose
ĠM á»ĵ
Ġg ran
ĠT Ã¨o
ed ul
78 7
ĠMarc os
Ġv ill
ch áº¿
Ġem p
m á»įi
ĠM ix
ĠLe ng
gyz stan
n Ai
Ġthá» Ľ
B áº¿
V ÄĲV
f il
ĠV log
ĠRad io
Ġlarg est
19 63
ro x
Ġv Ã³t
uá»ĳ m
th es
H Ãª
n in
ãģ ĵ
ðŁĸ¤ ðŁĸ¤
ÄĲ iá»ĥn
Ġbre v
tr ieu
35 5
est in
Ġlog in
Ġdep end
ĠAlb ania
h uy
14 6
uf act
P etr
b iá»ĥn
ĠI g
Ph Æ°á»Ŀng
irm ed
is i
P at
ĠK iss
Ġn áº¥ng
Ġso uth
LNH IDI
Ġh uman
57 0
erm ain
ĠNap olÃ©on
Ġnh oÃłi
n t
nh áº¡c
21 2
ĠCH á»Ĭ
ĠL M
ĠGr ace
ad es
end a
29 7
g in
v ant
Ġg á»«
ĠH in
Ġ18 90
Ġba ht
11 000
Ġmis thy
ĠTr ue
th Æ°á»£ng
Ġd Ã³
ĠÄĲ Ã³n
ĠAp ache
frastr ucture
n ell
Ġnh áº©y
Ġn iá»ģng
t Ã¬m
ed e
F ood
Tr ans
ĠArt agnan
! âĢĿ,
ald o
C áº£ng
ĠNá»Ļi Tel
ĠVi enna
ĠSt ars
ĠCl ay
Ġm ut
ĠR ab
S K
in ay
ph Ã¢n
ĠFin ancial
ĠB oh
ĠD istrict
IM F
Ġz ai
iat us
Iá»Ĥ U
ĠFit ness
Ġf low
ĠSp eed
M er
P in
ĠAn a
26 3
ĠTr Ã¹m
ĠPh arma
Ãĵ P
Ġcall back
Sup er
ĠV CCI
ĠQu Ã¡t
evel t
T áºłP
ĠH ist
ĠL aptop
ĠSoc ial
ĠÃĲ á»ĵng
ĠSom alia
Ġh iá»ģm
Ġng Ã¹n
ĠCh Ã¡o
Äĳ á»«ng
S ay
ĠD ANG
Ġl áº¿t
ĠKar im
ro y
ĠP rix
ĠAcc ord
ĠTr á»©ng
Ġcomp any
Ġto Ã©t
ĠV NG
Ch Ãł
28 5
29 2
qu ets
an na
ĠT ag
Ġtrá»¥ y
ĠPu erto
Ġ20 9
21 5
ĠAd vanced
l im
ĠHá» ®
ĠðŁĺ ĳ
ĠFor ce
ĠThom pson
Ġ2 19
t iga
Ġc lear
ĠN Y
th ophagus
ĠW embley
Ġc Æ°u
Ġ3 16
ĠNgh Ã©
ind y
ĠVin mec
ĠJo el
ags hip
Ġsustain able
Ġ09 66
Ġn á»ĭu
ĠKH áº¨U
Ġest ab
Ġlead ers
w oo
Ġ ),
Ã¡ s
ĠN Ã¹ng
og i
Ġas p
Ġsp am
ĠÄĳáº½ o
L in
ĠRo os
H at
Ġng áº£i
Ġph ung
ĠÄĲ V
G er
Cl ick
ĠHá»® U
Ch á»©c
ĠUnd er
. âĢĭ
ĠEr agon
ĠVÃĢ O
ĠQueens land
og ram
hor bia
ĠSpot ify
n or
ĠcÃ³ ng
or ial
Tr Ã¡c
ĠĠĠĠĠĠĠĠ ĠĠĠĠĠĠ
ph Ã¡p
nn nn
S ub
Ġh ic
ĠV all
ĠK op
ant ic
T AND
Ĥ ï¸ı
Ġgi áº»
17 7
az ada
Ġl Ã©t
Ġqu ality
ic ies
Al pes
C rist
ĵ ng
Ġx Æ¡i
ĠRen o
ĠRivers ide
ĠS yl
ĠWar ner
ĠMend y
ĠSt u
anc er
ĠBill y
CH á»Ī
ĠKh Æ°u
ack ing
ith u
ĠSe ABank
ĠS ale
Q uyÃªn
r ak
Ġng á»ĳn
ĠTr ip
ĠGi ll
str eam
ĠNev ille
ðŁĺ¢ ðŁĺ¢
y ad
ĠH ÄĲT
ĠVill age
D own
ĠC OP
ĠI z
sh a
Ġshop ping
ĠAz ov
ĠGel ex
ĠTh Æ°á»Ľc
ib ility
Ġqu Ã¡ch
ĠK le
ah u
ĠEd die
Iá»Ĩ M
ĠJor ge
ĠBen th
Ġc ert
op t
Ġkh am
ĠTr á»«ng
ĠSor ento
ĠL TE
ĠGiá» Ĺ
ĠA u
io ch
20 8
Yam aha
ĠN Ã´m
ĠH ey
ĠK ien
ĠCH Ãļ
Ġfri ends
Ġl áº¡ch
Ġph ui
ĠMull er
1 22
n Náº¿u
ĠH omes
ĠPlay er
ĠKn ight
ĠVik tor
t ung
Ġkh Ã²
ĠT ir
ĠMan s
ĠDu á»ĩ
ĠMÃ£ nh
Ġestr ogen
C yr
Ġm ig
Ġs á»§i
ĠT á»³
amb on
tap chiyhocvietnam
h Ã£y
ĠV á»±c
ĠÄĲ Ãłng
ĠCh air
ĠL ig
i idae
ĠS ix
ĠGi Ãły
Ġcs kh
t Ã¡i
ĠCap itol
ĠS em
hi b
Ġd istr
ĠS áºµn
Ġ5 70
ent in
ĠLaz io
E ri
ĠDen is
l eo
ĠTH á»°C
ĠGam ing
iá»ħ ng
ber to
Ġsc an
Ġkh Ã¨
ĠCH á»¨C
ac et
est on
Ġr ob
ĠC ustom
Ġ2 24
78 71
gr aph
ap ar
Ġh Ã¡ng
Ch á»£t
p is
Ġ16 6
Ġ36 7
Ġgu á»ĵng
an ium
ĠJ O
ĠTh ey
áº® C
ĠDown load
Ġkh Æ°
Ġ18 6
ĠEl antra
Ġex ample
L áº¡ng
ĠD AO
Ġin ox
ĠDynam ic
Ġt áº¥y
ĠS ean
29 6
ĠPel osi
Y áº¿u
Ps ych
C ai
ĠðŁĺĭ ðŁĺĭ
Ġsup ply
ĠK end
ĠG ro
Th ang
D E
h al
ĠH T
ĠK ings
ĠXV II
ur ation
M G
ir it
ĠSum mit
ĠÄĳ Ã¡u
ĠN C
ĠCh áºŃm
ĠF oreign
T nv
ĠHP G
rut gon
ĠC rown
d it
j oy
Ġp Ã´
Ġ24 5
Ġ37 5
Ġdiffer ent
C ua
Ġh s
ĠV iv
Ġm Ãłnh
Ġthá» «
ĠIn f
On thophagus
ì Ŀ
Ġb s
ĠN á»Ł
Ġht ml
Ġngh á»ħ
ĠZ ika
D b
Ġv oan
tr áº¯ng
gi áº£
H SD
ĠH ilton
Ġ23 5
ĠCout inho
r ec
Ġh Ã¡m
ĠTh Ã¡ch
han ouk
st a
Ġmeas ures
M exico
Ġs á»ĵi
ĠÄĲ ak
B Ã¡
Ġd áº±ng
ass o
ĠC U
in fo
R obot
Ġso Ã¡n
ĠWil helm
Ġco ffee
O xy
ĠP ier
G reen
Ġ18 1
ne w
Ġv cl
H ub
ĠV Å¨
Th uá»Ļc
âĢĿ. âĢľ
Ġc i
ĠU FO
ĠR Ã¢u
ĠHD R
Ġch Ã¹n
Ġto ilet
Ġf inal
ĠHarv ey
ĠAtl anta
ite z
ĠY un
os ed
H Æ¡i
H á»§y
ĠÄĲ Iá»ĢU
st anding
Ġso da
Ġm ao
Ġm ik
ĠT oáº¡i
ĠĠĠĠĠĠĠĠ ĠĠĠĠĠĠĠ
ain ing
ðŁı §
ĠNev ada
lo d
99 8
18 3
thi ng
f ession
ĠP on
ello w
ĠNh Æ°á»£ng
Ġv acc
ĠSte wart
h á»ĵ
asc us
Ġmethod s
N issan
c d
ia e
ĠchÃŃ p
Ġph Ã¹ng
ĠC au
ĠF B
Ġx á»Ļc
ell en
ĠNG UYÃĬN
Ġtrad itional
Ġph iáº¿m
ĠL ast
ĠEr tiga
Ġdes c
ok i
ov i
15 7
ar ay
ĠFu j
Tip ula
ĠH ua
et to
Ġsug gest
ĠGund ogan
ĠK ad
16 7
ĠOd essa
ĠK iÃªu
Ġ: <
Ġcháº¿ ch
ab ad
te a
ĠK itco
ĠAl ab
1 12
ĠA vent
ĠMin sk
H Ãłi
c áº£nh
ĠNhu áº¿
L áº½
p at
Ġs áºŃm
ell ig
B on
X P
ĠI phone
Ġrun ner
Ġ âĿ¤âĿ¤
T or
m á»¹
Ġm áº¿u
m obile
Ġser um
ðŁĴ¥ ðŁĴ¥
w r
ĠSt orm
ĠKho áº£nh
âĢįâĻ Ĥï¸ı
M obi
il ities
ĠJapan ese
Ġmak ing
ĠK ona
any ol
Suz uki
n LÃ£i
ĠS aka
Ġ: __
Ph e
ĠMich elin
ĠFranc es
Ù Ĩ
! ",
ĠJS ON
l ike
25 7
ĠThu an
az ar
Ġpe ace
j c
l uck
ĠL á»«a
00 5
19 79
enc ent
x áº¥u
Ġl t
ch á»įn
Ġ09 77
Ġ09 79
ĠV Ã©
ĠD Å©
ĠAl m
oh ama
ĠNh at
ac er
áĢ¹ áĢ¸
j p
ĠN D
ĠH Q
ch im
ĠAl g
Ġ093 5
r el
ied ad
ĠAlex is
n Ãły
ĠÄĳ áºŃn
ĠS á»ĳt
ĠVi rus
Ġdr op
Ġh ard
ĠÄĳ iáº¿ng
B R
ĠI U
ðŁĴ Ł
H Ã¡n
ĠH á»±u
Ġ18 89
lo cal
ĠPlay Station
Tom inay
ĠL Æ°á»¡ng
ĠK err
at ors
tr á»ĭ
ak ing
ĠCH áº¾
ĠKr as
ph us
ĠCamp bell
ĠOut lander
T ur
t uyá»ĩt
ĠT ÃŃt
ĠPh ao
Ġ12 00
ĠLe arning
15 8
Ġpro bl
ag ment
ĠLind a
C ute
Ġf lo
gg s
ĠSch w
Ang ela
w orth
Ġ20 8
âĢĿ )
ĠThi en
ĠPro duct
M is
ĠK ÄĲT
ĠSt ol
ĠMo Mo
K ey
t uy
ĠS ton
Ġqu áº³ng
ĠM ing
ðŁĺĢ ðŁĺĢ
ĠToshi ba
ĠP ublic
Äĳ á»ģ
opter is
Ġh Ãºp
hu hu
b and
Ġcor on
ĠS á»¬
or f
Ġ21 4
Ġkil Ã´m
ĠTRá»Į NG
D uong
ĠP ath
Ġnh Ã¡m
ĠÄĲ ÆłN
ĠS amp
Ġ ðŁİ
ĠZ ar
ĠHav ertz
N i
Ġy outube
yb ala
ĠL loyd
ĠS r
ĠP UBG
ĠF un
Ġ18 94
ĠLoc kh
H ab
ĠV il
Ch am
Ġ24 7
y outube
ĠCharl otte
ĠS ophie
ĠFirm ino
V áº£
ðŁ¥°ðŁ¥° ðŁ¥°
ĠRap tor
Ġposit ive
ict idae
Ġr ails
Ġpr act
ĠV á»ĭt
ĠD á»ĭp
Ġexper ience
Ġn itr
es ch
ĠMy SQL
Ġbá»ĩ ch
Ġg á»Ł
ĠL ÃŃnh
l idae
en di
X Äĥng
ĠS ime
ĠF idel
Ġpr ice
ĠRoos evelt
ĠG áº¡c
ĠR asp
Ġw el
uct or
ĠV ent
ĠR and
ĠNh á»ĭp
aw k
itz er
Ġgluc ose
Ġc áº¡m
ĠK ub
n CÃ³
v Ã©
ch á»£
ĠB E
Ġde al
ym ph
an u
45 5
ĠA E
c ens
Ġc á»¯
ĠÄĲ áº£n
op ark
ĠÄĳ ag
Ch inh
Ġf f
N á»ĵi
Ġadd ed
c ua
L Ä©nh
Th anks
ĠH MS
er land
ph Ã¹
con fig
4 21
N ick
Äĳ á»īnh
ĠBil bao
G eor
s ing
ĠF uture
Kh oan
Ġ09 83
Ġx Ã²a
ĠY uri
Ġ:)) \
Ġ:(( (
L ou
ĠLit va
y i
gg io
Ġt Æ°á»Łi
ial is
j ek
en kov
ĠJ a
Ġadd ition
un ea
ĠchÃº i
s um
ĠInvest ment
4 17
Ġl Ãµa
Ġtr á»ĳi
ĠV áº½
Å Ĥ
id us
ans om
ĠVu itton
ons ai
ĠLaur ent
ĠP ack
ĠGr aph
ĠH oi
26 6
ĠKCN A
Ġm eo
ĠKh Ã¡t
ĠRi hanna
ĠSib eria
t á»ĳt
Ġnh uá»ĳm
ĠT axi
ĠH ana
gr ess
qu et
Ġand roid
S á»ĳt
Ġ:)))) )
f h
Ġ20 4
ĠMir anda
I raq
N ote
Ġnh á»ĥ
os is
Ġ09 68
Ġj ack
ĠGad dafi
E c
ens on
ĠEV FTA
