{
  "version": "1.0",
  "truncation": null,
  "padding": null,
  "added_tokens": [
    {
      "id": 0,
      "content": "<|endoftext|>",
      "single_word": false,
      "lstrip": false,
      "rstrip": false,
      "normalized": false,
      "special": true
    },
    {
      "id": 1,
      "content": "<|padding|>",
      "single_word": false,
      "lstrip": false,
      "rstrip": false,
      "normalized": false,
      "special": true
    }
  ],
  "normalizer": {
    "type": "NFKC"
  },
  "pre_tokenizer": {
    "type": "ByteLevel",
    "add_prefix_space": false,
    "trim_offsets": true,
    "use_regex": true
  },
  "post_processor": {
    "type": "ByteLevel",
    "add_prefix_space": true,
    "trim_offsets": true,
    "use_regex": true
  },
  "decoder": {
    "type": "ByteLevel",
    "add_prefix_space": true,
    "trim_offsets": true,
    "use_regex": true
  },
  "model": {
    "type": "BPE",
    "dropout": null,
    "unk_token": null,
    "continuing_subword_prefix": null,
    "end_of_word_suffix": null,
    "fuse_unk": false,
    "byte_fallback": false,
    "vocab": {
      "<|endoftext|>": 0,
      "<|padding|>": 1,
      "!": 2,
      "\"": 3,
      "#": 4,
      "$": 5,
      "%": 6,
      "&": 7,
      "'": 8,
      "(": 9,
      ")": 10,
      "*": 11,
      "+": 12,
      ",": 13,
      "-": 14,
      ".": 15,
      "/": 16,
      "0": 17,
      "1": 18,
      "2": 19,
      "3": 20,
      "4": 21,
      "5": 22,
      "6": 23,
      "7": 24,
      "8": 25,
      "9": 26,
      ":": 27,
      ";": 28,
      "<": 29,
      "=": 30,
      ">": 31,
      "?": 32,
      "@": 33,
      "A": 34,
      "B": 35,
      "C": 36,
      "D": 37,
      "E": 38,
      "F": 39,
      "G": 40,
      "H": 41,
      "I": 42,
      "J": 43,
      "K": 44,
      "L": 45,
      "M": 46,
      "N": 47,
      "O": 48,
      "P": 49,
      "Q": 50,
      "R": 51,
      "S": 52,
      "T": 53,
      "U": 54,
      "V": 55,
      "W": 56,
      "X": 57,
      "Y": 58,
      "Z": 59,
      "[": 60,
      "\\": 61,
      "]": 62,
      "^": 63,
      "_": 64,
      "`": 65,
      "a": 66,
      "b": 67,
      "c": 68,
      "d": 69,
      "e": 70,
      "f": 71,
      "g": 72,
      "h": 73,
      "i": 74,
      "j": 75,
      "k": 76,
      "l": 77,
      "m": 78,
      "n": 79,
      "o": 80,
      "p": 81,
      "q": 82,
      "r": 83,
      "s": 84,
      "t": 85,
      "u": 86,
      "v": 87,
      "w": 88,
      "x": 89,
      "y": 90,
      "z": 91,
      "{": 92,
      "|": 93,
      "}": 94,
      "~": 95,
      "¡": 96,
      "¢": 97,
      "£": 98,
      "¤": 99,
      "¥": 100,
      "¦": 101,
      "§": 102,
      "¨": 103,
      "©": 104,
      "ª": 105,
      "«": 106,
      "¬": 107,
      "®": 108,
      "¯": 109,
      "°": 110,
      "±": 111,
      "²": 112,
      "³": 113,
      "´": 114,
      "µ": 115,
      "¶": 116,
      "·": 117,
      "¸": 118,
      "¹": 119,
      "º": 120,
      "»": 121,
      "¼": 122,
      "½": 123,
      "¾": 124,
      "¿": 125,
      "À": 126,
      "Á": 127,
      "Â": 128,
      "Ã": 129,
      "Ä": 130,
      "Å": 131,
      "Æ": 132,
      "Ç": 133,
      "È": 134,
      "É": 135,
      "Ê": 136,
      "Ë": 137,
      "Ì": 138,
      "Í": 139,
      "Î": 140,
      "Ï": 141,
      "Ð": 142,
      "Ñ": 143,
      "Ò": 144,
      "Ó": 145,
      "Ô": 146,
      "Õ": 147,
      "Ö": 148,
      "×": 149,
      "Ø": 150,
      "Ù": 151,
      "Ú": 152,
      "Û": 153,
      "Ü": 154,
      "Ý": 155,
      "Þ": 156,
      "ß": 157,
      "à": 158,
      "á": 159,
      "â": 160,
      "ã": 161,
      "ä": 162,
      "å": 163,
      "æ": 164,
      "ç": 165,
      "è": 166,
      "é": 167,
      "ê": 168,
      "ë": 169,
      "ì": 170,
      "í": 171,
      "î": 172,
      "ï": 173,
      "ð": 174,
      "ñ": 175,
      "ò": 176,
      "ó": 177,
      "ô": 178,
      "õ": 179,
      "ö": 180,
      "÷": 181,
      "ø": 182,
      "ù": 183,
      "ú": 184,
      "û": 185,
      "ü": 186,
      "ý": 187,
      "þ": 188,
      "ÿ": 189,
      "Ā": 190,
      "ā": 191,
      "Ă": 192,
      "ă": 193,
      "Ą": 194,
      "ą": 195,
      "Ć": 196,
      "ć": 197,
      "Ĉ": 198,
      "ĉ": 199,
      "Ċ": 200,
      "ċ": 201,
      "Č": 202,
      "č": 203,
      "Ď": 204,
      "ď": 205,
      "Đ": 206,
      "đ": 207,
      "Ē": 208,
      "ē": 209,
      "Ĕ": 210,
      "ĕ": 211,
      "Ė": 212,
      "ė": 213,
      "Ę": 214,
      "ę": 215,
      "Ě": 216,
      "ě": 217,
      "Ĝ": 218,
      "ĝ": 219,
      "Ğ": 220,
      "ğ": 221,
      "Ġ": 222,
      "ġ": 223,
      "Ģ": 224,
      "ģ": 225,
      "Ĥ": 226,
      "ĥ": 227,
      "Ħ": 228,
      "ħ": 229,
      "Ĩ": 230,
      "ĩ": 231,
      "Ī": 232,
      "ī": 233,
      "Ĭ": 234,
      "ĭ": 235,
      "Į": 236,
      "į": 237,
      "İ": 238,
      "ı": 239,
      "Ĳ": 240,
      "ĳ": 241,
      "Ĵ": 242,
      "ĵ": 243,
      "Ķ": 244,
      "ķ": 245,
      "ĸ": 246,
      "Ĺ": 247,
      "ĺ": 248,
      "Ļ": 249,
      "ļ": 250,
      "Ľ": 251,
      "ľ": 252,
      "Ŀ": 253,
      "ŀ": 254,
      "Ł": 255,
      "ł": 256,
      "Ń": 257,
      "á»": 258,
      "áº": 259,
      "ng": 260,
      "Ġt": 261,
      "Ġc": 262,
      "ĠÄ": 263,
      "ĠÄĳ": 264,
      "nh": 265,
      "Ãł": 266,
      "Æ°": 267,
      "Ġv": 268,
      "Ġth": 269,
      "Ã¡": 270,
      "Ġl": 271,
      "Ġh": 272,
      "Ġch": 273,
      "iá»": 274,
      "Ġb": 275,
      "Ġm": 276,
      "Ġk": 277,
      "Ġtr": 278,
      "Æ°á»": 279,
      "Ã´": 280,
      "Ġs": 281,
      "Ġnh": 282,
      "áº¿": 283,
      "áº¡": 284,
      "Ġn": 285,
      "Ġg": 286,
      "á»Ļ": 287,
      "Ġkh": 288,
      "Ã³": 289,
      "Ãª": 290,
      "áº£": 291,
      "Ġng": 292,
      "Ġd": 293,
      "á»ĳ": 294,
      "áº¥": 295,
      "Ġp": 296,
      "Ã¢": 297,
      "ĠT": 298,
      "Ġph": 299,
      "iá»ĩ": 300,
      "Ã´ng": 301,
      "Ãªn": 302,
      "á»§": 303,
      "Ã¡c": 304,
      "ĠÄĳá»": 305,
      "Ġvá»": 306,
      "Ã¬": 307,
      "ĠvÃł": 308,
      "Æ¡": 309,
      "áºŃ": 310,
      "qu": 311,
      "Ġqu": 312,
      "áº§": 313,
      "ĠlÃł": 314,
      "Ġtá»": 315,
      "iáº¿": 316,
      "Æ°á»Ŀ": 317,
      "Ġr": 318,
      "ĠN": 319,
      "Ġgi": 320,
      "Ľi": 321,
      "Ġx": 322,
      "Ġthá»": 323,
      "ÃŃ": 324,
      "uy": 325,
      "áº¡i": 326,
      "ĠC": 327,
      "Ġcá»§": 328,
      "Æ°á»£": 329,
      "Ġcá»§a": 330,
      "Äĥ": 331,
      "Ã£": 332,
      "an": 333,
      "ong": 334,
      "ĠcÃ³": 335,
      "Ġhá»": 336,
      "Ã¢n": 337,
      "á»ĭ": 338,
      "áº¥t": 339,
      "Ãº": 340,
      "ĠH": 341,
      "áº¯": 342,
      "ĠcÃ¡c": 343,
      "á»Ļt": 344,
      "Ã¬nh": 345,
      "iá»ģ": 346,
      "Æ°á»£c": 347,
      "Ġchá»": 348,
      "á»±": 349,
      "Ãły": 350,
      "á»Ł": 351,
      "ch": 352,
      "ĠB": 353,
      "ĠÄĳÆ°á»£c": 354,
      "Ġmá»Ļt": 355,
      "Æ°á»Ŀi": 356,
      "á»¯": 357,
      "ĠkhÃ´ng": 358,
      "ay": 359,
      "Ã²": 360,
      "iÃªn": 361,
      "ĠV": 362,
      "Ġtrong": 363,
      "Ġ1": 364,
      "ai": 365,
      "Ġcho": 366,
      "Æ°á»Ľ": 367,
      "anh": 368,
      "Æ°Æ¡": 369,
      "ĠM": 370,
      "iá»ĩn": 371,
      "Ã¹": 372,
      "ĠÄĲ": 373,
      "á»¥": 374,
      "inh": 375,
      "Ġvá»Ľi": 376,
      "ĠngÆ°á»Ŀi": 377,
      "áº§n": 378,
      "ĠTh": 379,
      "áº·": 380,
      "ao": 381,
      "on": 382,
      "Ġngh": 383,
      "iá»ĥ": 384,
      "am": 385,
      "ĠL": 386,
      "iá»ģu": 387,
      "ang": 388,
      "Æ°Æ¡ng": 389,
      "ĠÄĳÃ£": 390,
      "Ġ2": 391,
      "áº£i": 392,
      "Ãłnh": 393,
      "©ng": 394,
      "Ã´i": 395,
      "in": 396,
      "á»ĩ": 397,
      "oÃł": 398,
      "á»ĵ": 399,
      "Æ°á»Ŀng": 400,
      "áº§u": 401,
      "Æ°á»Ľc": 402,
      "©c": 403,
      "á»Ļi": 404,
      "ĠnhÆ°": 405,
      "áº¿n": 406,
      "uá»ĳ": 407,
      "ĠS": 408,
      "á»¯ng": 409,
      "ung": 410,
      "Ã¢y": 411,
      "áºŃn": 412,
      "á»ķ": 413,
      "ĠnÄĥ": 414,
      "ĠP": 415,
      "Ġmá»": 416,
      "áº£n": 417,
      "áº¡n": 418,
      "Ãłng": 419,
      "áº¿t": 420,
      "âĢ": 421,
      "ĠTr": 422,
      "Ġnhá»¯ng": 423,
      "ĠÄĳá»ĥ": 424,
      "au": 425,
      "Ġhá»į": 426,
      "ĠnÃły": 427,
      "áºŃt": 428,
      "Ŀi": 429,
      "..": 430,
      "iáº¿t": 431,
      "ĠÄĳá»Ļ": 432,
      "ĠK": 433,
      "ÃŃnh": 434,
      "Ġlá»": 435,
      "ĠÄĳÃ³": 436,
      "Ġá»Ł": 437,
      "Ã¹ng": 438,
      "Æ¡n": 439,
      "Ġtá»«": 440,
      "Ġgiá»": 441,
      "ĠNg": 442,
      "Ã¡n": 443,
      "ĠA": 444,
      "áº½": 445,
      "Ã¡t": 446,
      "Ġra": 447,
      "ĠCh": 448,
      "iáº¿n": 449,
      "ĠcÃ´ng": 450,
      "áº¥y": 451,
      "ĠÄĳáº¿n": 452,
      "Ã¡i": 453,
      "er": 454,
      "en": 455,
      "Ã½": 456,
      "Ã©": 457,
      "á»Ń": 458,
      "Ġ(": 459,
      "iá»ĩt": 460,
      "Ġthá»ĥ": 461,
      "Ġsá»ĳ": 462,
      "á»į": 463,
      "00": 464,
      "Ġvá»ģ": 465,
      "á»ĳi": 466,
      "Ġkhi": 467,
      "ĠnÄĥm": 468,
      "Å©ng": 469,
      "ĠvÃło": 470,
      "eo": 471,
      "ĠÄĳá»ĭ": 472,
      "áº±": 473,
      "Ġcáº£": 474,
      "Ã¡ng": 475,
      "ĠD": 476,
      "Ġ-": 477,
      "ĠQ": 478,
      "ĠnÃ³": 479,
      "Ã¡o": 480,
      "Ġtáº¡i": 481,
      "Ġho": 482,
      "áºŃp": 483,
      "Ġláº¡i": 484,
      "Ãłi": 485,
      "uyá»": 486,
      "Ãªu": 487,
      "ĠlÃłm": 488,
      "áº©": 489,
      "Ġsáº½": 490,
      "em": 491,
      "ĠcÅ©ng": 492,
      "ĠÄĳáº§u": 493,
      "ĠPh": 494,
      "ĠG": 495,
      "ĠÄĳá»ĵ": 496,
      "Ġthu": 497,
      "áº«": 498,
      "ĠtrÃªn": 499,
      "Ä©": 500,
      "Ãło": 501,
      "ĠmÃł": 502,
      "oÃłn": 503,
      "Ġbá»ĭ": 504,
      "iá»ĩu": 505,
      "iá»ĩc": 506,
      "Ġnhiá»ģu": 507,
      "Ġchá»ī": 508,
      "Ã¡ch": 509,
      "Ġ.": 510,
      "Äĥng": 511,
      "Ã²ng": 512,
      "ÄĲ": 513,
      "ar": 514,
      "ĠtÃ´i": 515,
      "ĠNh": 516,
      "á»Ļc": 517,
      "±c": 518,
      "Ġpháº£i": 519,
      "Ãºng": 520,
      "Ġ,": 521,
      "áº±ng": 522,
      "Ġsá»±": 523,
      "ĠÄĳá»Ļng": 524,
      "Ã²n": 525,
      "ĠthÃłnh": 526,
      "Ġhiá»ĩn": 527,
      "ĠnhÃł": 528,
      "Ã¢u": 529,
      "Ġquy": 530,
      "áº£o": 531,
      "ĠngÃły": 532,
      "Ġviá»ĩc": 533,
      "Äĥn": 534,
      "iá»ĥm": 535,
      "ĠÄĳá»ĵng": 536,
      "ia": 537,
      "ĠÄĳi": 538,
      "áº¯c": 539,
      "Æ°a": 540,
      "Ġ3": 541,
      "ĠĠ": 542,
      "Ã¢m": 543,
      "Ġhá»įc": 544,
      "áº»": 545,
      "á»±c": 546,
      "Ã¡nh": 547,
      "Ġtiáº¿": 548,
      "áº¡o": 549,
      "Æ°á»£ng": 550,
      "áº¥p": 551,
      "Ġdá»¥": 552,
      "ĠnhÃ¢n": 553,
      "Ãºc": 554,
      "Ã´n": 555,
      "ĠÄĳá»ĭnh": 556,
      "Ġbáº¡n": 557,
      "áº¹": 558,
      "á»ı": 559,
      "áº¯t": 560,
      "Ġcon": 561,
      "ĠNam": 562,
      "ĥn": 563,
      "ÃŃch": 564,
      "áº¡t": 565,
      "Ġ20": 566,
      "áº¥n": 567,
      "áº«n": 568,
      "uyá»ĩ": 569,
      "ģn": 570,
      "ħn": 571,
      "ĠnÆ°á»Ľc": 572,
      "ĠhÃłng": 573,
      "Ġquan": 574,
      "Ġkho": 575,
      "áº£ng": 576,
      "Ġy": 577,
      "áº·t": 578,
      "á»ĳc": 579,
      "al": 580,
      "áº·c": 581,
      "Ġnháº¥t": 582,
      "uyÃªn": 583,
      "Ã¡p": 584,
      "ĠÃ´ng": 585,
      "Ġdo": 586,
      "or": 587,
      "ĠnÃ³i": 588,
      "es": 589,
      "ĠthÃ¬": 590,
      "ĠhÆ¡n": 591,
      "Th": 592,
      "Æ°á»Ł": 593,
      "Ġgia": 594,
      "ĠcÃ²n": 595,
      "á»ĭch": 596,
      "ĠViá»ĩt": 597,
      "Æ°á»Łng": 598,
      "Æ¡i": 599,
      "Ġsau": 600,
      "20": 601,
      "oÃłi": 602,
      "ĠâĢ": 603,
      "á»¥c": 604,
      "Ġanh": 605,
      "Ġ\"": 606,
      "ĠgiÃ¡": 607,
      "ĠchÃŃnh": 608,
      "Ãªm": 609,
      "Ġtháº¿": 610,
      "ĠmÃ¬nh": 611,
      "iá»ģn": 612,
      "Ġká»": 613,
      "á»ĵi": 614,
      "Ġbiáº¿t": 615,
      "á»©": 616,
      "á»ĳng": 617,
      "Ġthá»±c": 618,
      "iá»ĥn": 619,
      "á»ķi": 620,
      "Ãłn": 621,
      "£p": 622,
      "ĠcÆ¡": 623,
      "Ġmá»Ľi": 624,
      "Ġta": 625,
      "Ġtheo": 626,
      "Ġdá»±": 627,
      "Ġdá»¥ng": 628,
      "Ġthá»Ŀi": 629,
      "ĠÄĳá»ģ": 630,
      "ĊĊ": 631,
      "uá»ĳc": 632,
      "Ġhá»£p": 633,
      "ĠlÃªn": 634,
      "âĢĿ": 635,
      "ĠthÃ´ng": 636,
      "im": 637,
      "ĠnhÆ°ng": 638,
      "Ġnghiá»ĩ": 639,
      "ĠÄĳiá»ģu": 640,
      "Ch": 641,
      "ĠÄĳang": 642,
      "uyá»ĩn": 643,
      "iÃªu": 644,
      "...": 645,
      "Ġlu": 646,
      "ĠtrÆ°á»Ŀng": 647,
      "áº¥u": 648,
      "iá»ĥu": 649,
      "ot": 650,
      "á»©c": 651,
      "áº¡nh": 652,
      "ĠnháºŃn": 653,
      "oáº¡i": 654,
      "ĠKh": 655,
      "á»ĩnh": 656,
      "ĠdÃ¢n": 657,
      "Ġqua": 658,
      "Ġtin": 659,
      "el": 660,
      "ĠcÃ¹ng": 661,
      "Ġvá»¥": 662,
      "ĠviÃªn": 663,
      "Ġsinh": 664,
      "Ng": 665,
      "uáº¥t": 666,
      "at": 667,
      "ĠhÃłnh": 668,
      "ĠphÃ¡t": 669,
      "áº¡ng": 670,
      "á»£": 671,
      "ĠhÃ¬nh": 672,
      "Ġcao": 673,
      "ĠtrÆ°á»Ľc": 674,
      "áº¿u": 675,
      "ĠÄĳÃ¢y": 676,
      "ĠâĢľ": 677,
      "ĠQu": 678,
      "Ġráº¥t": 679,
      "á»«": 680,
      "ĠcÃ¡ch": 681,
      "ĠU": 682,
      "Ġem": 683,
      "Ġtu": 684,
      "Ġ4": 685,
      "Tr": 686,
      "Ġhá»Ļi": 687,
      "ĠnÃªn": 688,
      "Ġtháº¥y": 689,
      "is": 690,
      "Ġtá»ķ": 691,
      "Ġbá»Ļ": 692,
      "ĠR": 693,
      "Ġlá»Ľ": 694,
      "uá»Ļc": 695,
      "et": 696,
      "Æ°á»Ľng": 697,
      "ĠvÃ¬": 698,
      "Ġxe": 699,
      "Ġchá»©c": 700,
      "Ġsáº£n": 701,
      "Ġhai": 702,
      "áºŃy": 703,
      "ĠlÃ½": 704,
      "Ġsá»Ń": 705,
      "ĠkhÃ¡c": 706,
      "Ġtiáº¿p": 707,
      "á»ĵn": 708,
      "ĠtrÃ¬nh": 709,
      "Ġ5": 710,
      "ĠÄĳá»ĳi": 711,
      "Ġtá»Ľi": 712,
      "Ġná»¯": 713,
      "it": 714,
      "ĠnÃło": 715,
      "Ġtáº¿": 716,
      "om": 717,
      "ĠchÃºng": 718,
      "áº¯n": 719,
      "ĠÄĳiá»ĥm": 720,
      "ĠcÃ´": 721,
      "áº£m": 722,
      "ĠQuá»ĳc": 723,
      "Å©": 724,
      "ua": 725,
      "Ġkáº¿t": 726,
      "áº£nh": 727,
      "ðŁ": 728,
      "áº©m": 729,
      "id": 730,
      "Ġchá»§": 731,
      "ĠthÃ¡ng": 732,
      "ĠgÃ¬": 733,
      "Ġcáº¥p": 734,
      "Ã¡y": 735,
      "īnh": 736,
      "iá»ħn": 737,
      "áº¯ng": 738,
      "Ã³ng": 739,
      "Ġxuáº¥t": 740,
      "as": 741,
      "ĠtÃ¬nh": 742,
      "áº¡m": 743,
      "Ġ&": 744,
      "Ġtá»±": 745,
      "Ġan": 746,
      "Ġchá»ĭ": 747,
      "ĠÃ": 748,
      "á»¹": 749,
      "á»ĳt": 750,
      "Ãºt": 751,
      "ĠÄĳÆ°á»Ŀng": 752,
      "Ġnghiá»ĩp": 753,
      "ĠlÆ°á»£ng": 754,
      "Ġváº«n": 755,
      "uyá»ĥn": 756,
      "Ġcáº§n": 757,
      "ĠtÆ°": 758,
      "uá»ĵn": 759,
      "uá»ĳn": 760,
      "ĠtÃ¡c": 761,
      "Ġmáº·t": 762,
      "ic": 763,
      "ĠtoÃłn": 764,
      "Ġrá»ĵi": 765,
      "Ġbáº£o": 766,
      "Ġcáº§u": 767,
      "ĠTrung": 768,
      "Ġá»": 769,
      "Ã¨": 770,
      "Ġvá»ĭ": 771,
      "Äĥm": 772,
      "ĠnÄĥng": 773,
      "Ĺi": 774,
      "Ġgiá»¯": 775,
      "Ġgiáº£i": 776,
      "ĠtÃ¢m": 777,
      "áº¡c": 778,
      "Ġcá»©": 779,
      "Ġthá»§": 780,
      "Ġlá»Ľn": 781,
      "Ã³a": 782,
      "Ġthá»ĭ": 783,
      "«a": 784,
      "ĠphÃ²ng": 785,
      "Ġdá»ĭch": 786,
      "Ġnay": 787,
      "Ġbáº£n": 788,
      "Ġbáº±ng": 789,
      "Ġtiá»ģn": 790,
      "hi": 791,
      "ĠphÃŃ": 792,
      "ĠÄĳáº¡i": 793,
      "á»ģn": 794,
      "Æ°ng": 795,
      "Ġ6": 796,
      "ĠkhÃ¡ch": 797,
      "ĠF": 798,
      "Ġbá»ĩnh": 799,
      "áº¡ch": 800,
      "áº³": 801,
      "Ġgiá»Ľi": 802,
      "Ġtáº¡o": 803,
      "á»Ļng": 804,
      "ĠGi": 805,
      "Ġcuá»Ļc": 806,
      "iá»ĩm": 807,
      "Ġlá»±c": 808,
      "Ġgian": 809,
      "us": 810,
      "áº§m": 811,
      "ĠX": 812,
      "Ġhay": 813,
      "ĠI": 814,
      "ĠÃ½": 815,
      "ĠtÄĥng": 816,
      "Ġquá»ĳc": 817,
      "Ġráº±ng": 818,
      "il": 819,
      "Æ°u": 820,
      "á»ĵng": 821,
      "Ãµ": 822,
      "Ġto": 823,
      "ĠHÃł": 824,
      "Ġkhu": 825,
      "ĠnhiÃªn": 826,
      "ĠbÃ¡o": 827,
      "Nh": 828,
      "ac": 829,
      "Ġláº§n": 830,
      "Ġkinh": 831,
      "uyá»ģn": 832,
      "áºŃu": 833,
      "ol": 834,
      "Ġtay": 835,
      "ĠAnh": 836,
      "Ã¡m": 837,
      "Ġtriá»ĥn": 838,
      "Ġtrá»Ł": 839,
      "ĠtÃŃnh": 840,
      "ĠÄĳá»Ļi": 841,
      "ĠÄĥn": 842,
      "ĠquÃ¡": 843,
      "á»įng": 844,
      "ĠváºŃy": 845,
      "Ġmuá»ĳn": 846,
      "Ġhá»ĵ": 847,
      "Ġtá»īnh": 848,
      "Ġ19": 849,
      "Ġáº£nh": 850,
      "ĠchÆ°a": 851,
      "ĠÄĳá»ķ": 852,
      "ĠE": 853,
      "ĠtÃłi": 854,
      "Ġpháº§n": 855,
      "ĠyÃªu": 856,
      "ĠthÆ°á»Ŀng": 857,
      "Ġthá»ĳng": 858,
      "Ãºp": 859,
      "áº©n": 860,
      "Ġtrá»ĭ": 861,
      "ĠÃ¡n": 862,
      "ĠnghÄ©": 863,
      "ĠBá»Ļ": 864,
      "áº³ng": 865,
      "uá»ĳng": 866,
      "Ġsá»ĳng": 867,
      "Ġthi": 868,
      "á»Łi": 869,
      "Ġhá»ĩ": 870,
      "¥c": 871,
      "Ġ0": 872,
      "Ġsao": 873,
      "iáº¿u": 874,
      "ĠĠĠĠ": 875,
      "Ġgiá»Ŀ": 876,
      "23": 877,
      "uyá»ħn": 878,
      "Ġthá»©": 879,
      "Ġquáº£": 880,
      "Ġthá»©c": 881,
      "quot": 882,
      "ĠcÃ¡i": 883,
      "ĠxÃ£": 884,
      "000": 885,
      "ĠtáºŃp": 886,
      "Ġcáº£m": 887,
      "Ġ:": 888,
      "á»Ľ": 889,
      "Ġ10": 890,
      "Ã¬m": 891,
      "Ġchiáº¿n": 892,
      "Ã¬n": 893,
      "ĠquÃ¢n": 894,
      "Ã©t": 895,
      "ĠlÃ£": 896,
      "ĠthÆ°Æ¡ng": 897,
      "Ã³c": 898,
      "Ġ201": 899,
      "ĠphÆ°Æ¡ng": 900,
      "ĠÄĳá»ĭa": 901,
      "ĠmÃ¡y": 902,
      "ĠsÄ©": 903,
      "ĠtiÃªn": 904,
      "Ġtiáº¿ng": 905,
      "á»Ŀ": 906,
      "ĠÄĳiá»ĩn": 907,
      "Ġquyáº¿t": 908,
      "op": 909,
      "ĠliÃªn": 910,
      "á»Ńa": 911,
      "ĠphÃ¡p": 912,
      "áº¹p": 913,
      "ĠMá»¹": 914,
      "ĠtiÃªu": 915,
      "th": 916,
      "Ġvá»«a": 917,
      "Ġcháº¥t": 918,
      "Ġhoáº·c": 919,
      "Ġtrá»įng": 920,
      "Ġso": 921,
      "Ġ7": 922,
      "Ġdoanh": 923,
      "Ġdiá»ħn": 924,
      "Ġpháº©m": 925,
      "ĠY": 926,
      "Ġgiao": 927,
      "Æ°á»Ľi": 928,
      "Ġhiá»ĩu": 929,
      "á»ī": 930,
      "Ġtriá»ĩu": 931,
      "ĠgiÃºp": 932,
      "ĠCÃ´ng": 933,
      "ĠbÃªn": 934,
      "ĠdÃ¹ng": 935,
      "Ġtuá»ķi": 936,
      "áº¯m": 937,
      "ĠÄĳáº¡o": 938,
      "áº·p": 939,
      "Ġthiáº¿t": 940,
      "Ġbao": 941,
      "ıi": 942,
      "Ġbáº¥t": 943,
      "á»Ŀi": 944,
      "ĠbÃł": 945,
      "tr": 946,
      "ĠNá»Ļi": 947,
      "ur": 948,
      "ĠbÃ¡n": 949,
      "ĠÄĳá»ķi": 950,
      "ed": 951,
      "Ġtrang": 952,
      "Ġtá»ĳt": 953,
      "ĠW": 954,
      "Ġnhau": 955,
      "Ġbáº¯t": 956,
      "ĠÄĳáº¥t": 957,
      ").": 958,
      "ĠNguyá»ħn": 959,
      "Ġchiáº¿": 960,
      "ĠÄĳÃ¡nh": 961,
      "ĠtÃ¬m": 962,
      "Ġlo": 963,
      "Ġ8": 964,
      "Ġtá»¥c": 965,
      "ĠÄĳá»ģu": 966,
      "áº§y": 967,
      "Ġhoáº¡t": 968,
      "á»ķng": 969,
      "Ġtham": 970,
      "Ġtrung": 971,
      "Ġbá»ĳ": 972,
      "ĠthÃªm": 973,
      "ĠÄĳÆ°a": 974,
      "ĠváºŃt": 975,
      "Ġtráº»": 976,
      "Ġtra": 977,
      "os": 978,
      "un": 979,
      "Ġloáº¡i": 980,
      "22": 981,
      "ĠÄĳo": 982,
      "ĠÄĳÆ¡n": 983,
      "Ġbiá»ĩt": 984,
      "ĠTP": 985,
      "ĠthÃ¢n": 986,
      "ad": 987,
      "Ã²a": 988,
      "áº·ng": 989,
      "Ġchu": 990,
      "Ġmáº¡nh": 991,
      "Ġkhá»ı": 992,
      "Ġsá»Ł": 993,
      "Ġchuyá»ĥn": 994,
      "Ġgáº§n": 995,
      "ĠhÃ³a": 996,
      "Ġá»©ng": 997,
      "ĠkhÃ³": 998,
      "Ph": 999,
      "ĠÄĳáº¹p": 1000,
      "ĠluÃ´n": 1001,
      "ĠsÃ¡ng": 1002,
      "ĠÄĳáº¥u": 1003,
      "Ġchi": 1004,
      "á»įc": 1005,
      "ĠtÃªn": 1006,
      "19": 1007,
      "le": 1008,
      "ent": 1009,
      "ing": 1010,
      "ĠngoÃłi": 1011,
      "uyáº¿n": 1012,
      "uá»ĳi": 1013,
      "ĠJ": 1014,
      "Ġmáº¯t": 1015,
      "Ã©p": 1016,
      "Ġthuá»Ļc": 1017,
      "Ġáº¥y": 1018,
      "ĠtrÆ°á»Łng": 1019,
      "),": 1020,
      "Ġ9": 1021,
      "á»«ng": 1022,
      "Ġváº¥n": 1023,
      "ĠláºŃp": 1024,
      "Ġká»³": 1025,
      "áº¥m": 1026,
      "áº¡y": 1027,
      "á»įi": 1028,
      "Ġmáº¹": 1029,
      "Ġvi": 1030,
      "ag": 1031,
      "ov": 1032,
      "Ġquyá»ģn": 1033,
      "Ġdáº«n": 1034,
      "Ġvá»±c": 1035,
      "ĠlÃºc": 1036,
      "Ġtrá»£": 1037,
      "Ġná»¯a": 1038,
      "Ġcáº£nh": 1039,
      "ĠhoÃłn": 1040,
      "Ġmua": 1041,
      "áº±m": 1042,
      "Ġchá»į": 1043,
      "Ġháº¿t": 1044,
      "Ġnhiá»ĩm": 1045,
      "Ġcháº¿": 1046,
      "Ġmang": 1047,
      "Ġgiáº£m": 1048,
      "ĠnhÃ¬n": 1049,
      "áº£y": 1050,
      "Ġlá»Ŀi": 1051,
      "Ġmá»į": 1052,
      "Ġtá»«ng": 1053,
      "Ġphá»ĳ": 1054,
      "Ġxem": 1055,
      "ĠsÃ¡t": 1056,
      "Ġnguá»ĵn": 1057,
      "Ġkhiáº¿n": 1058,
      "Ġtá»Ń": 1059,
      "Ġchuyá»ĩn": 1060,
      "Ġf": 1061,
      "ĠtÃŃch": 1062,
      "ĠchÃŃ": 1063,
      "Ġty": 1064,
      "Ġkhai": 1065,
      "Ġnghá»ĩ": 1066,
      "Ġsá»©c": 1067,
      "ĠnÆ¡i": 1068,
      "Ġcá»©u": 1069,
      "Ã´m": 1070,
      "Ġdá»±ng": 1071,
      "ĠÄĳÃ¬nh": 1072,
      "ĠO": 1073,
      "Ġchá»įn": 1074,
      "ĠvÄĥn": 1075,
      "á»ģ": 1076,
      "ĠsÃ¡ch": 1077,
      "ĠÄĳoÃłn": 1078,
      "Ġphá»¥c": 1079,
      "ĠhÆ°á»Ľng": 1080,
      "Ġtá»·": 1081,
      "Ġnáº¿u": 1082,
      "ĠnháºŃp": 1083,
      "Ġkiá»ĥm": 1084,
      "Ġkáº¿": 1085,
      "ĠbÃłn": 1086,
      "Ã¡u": 1087,
      "£i": 1088,
      "Ġmá»įi": 1089,
      "ĠbÃ¬nh": 1090,
      "Ġkhoa": 1091,
      "Ġliá»ĩu": 1092,
      "á»ĳn": 1093,
      "ĠÄĳáº·c": 1094,
      "Ġdiá»ĩn": 1095,
      "ĠtrÃŃ": 1096,
      "Ġbá»ı": 1097,
      "oÃłng": 1098,
      "Ġhá»ıi": 1099,
      "ĠthÆ°": 1100,
      "Ġphá»¥": 1101,
      "ĠVÄĥn": 1102,
      "ĠtÆ°á»£ng": 1103,
      "Ġgiá»¯a": 1104,
      "Ġkiáº¿n": 1105,
      "Ãłu": 1106,
      "Ġbiáº¿n": 1107,
      "áº¯p": 1108,
      "Ġthay": 1109,
      "oa": 1110,
      "Ġgáº·p": 1111,
      "um": 1112,
      "Ġchiáº¿c": 1113,
      "Ġkhoáº£ng": 1114,
      "ĠtráºŃn": 1115,
      "Ġca": 1116,
      "Ġmáº¡ng": 1117,
      "ÃŃt": 1118,
      "ĠxÃ¢y": 1119,
      "oo": 1120,
      "Ġai": 1121,
      "Ġngay": 1122,
      "Ã£i": 1123,
      "Ġgá»įi": 1124,
      "ĠgÃ¢y": 1125,
      "ĠvÃ´": 1126,
      "ĠAn": 1127,
      "Ġlá»ĭch": 1128,
      "Ä©nh": 1129,
      "Ġtruyá»ģn": 1130,
      "Kh": 1131,
      "ĠgiÃ¡o": 1132,
      "Ķng": 1133,
      "ion": 1134,
      "Ġviá»ĩn": 1135,
      "á»Ĺ": 1136,
      "áº«u": 1137,
      "ĠkÃ½": 1138,
      "\".": 1139,
      "Ġchá»©ng": 1140,
      "Ġdi": 1141,
      "Ġmá»©c": 1142,
      "ĠcÃ¡": 1143,
      "Ġnghá»ĭ": 1144,
      "Theo": 1145,
      "ĠthÃŃch": 1146,
      "Ġnhá»ı": 1147,
      "Ġban": 1148,
      "ĠbÃ³ng": 1149,
      "ĊĊĊ": 1150,
      "ĠlÃ²ng": 1151,
      "įng": 1152,
      "ĠdÃłi": 1153,
      "Ġxuá»ĳng": 1154,
      "Ġo": 1155,
      "á»ħ": 1156,
      "eb": 1157,
      "ĠchuyÃªn": 1158,
      "Ġmá»Ł": 1159,
      "ter": 1160,
      "Ġláº¥y": 1161,
      "Ġná»Ļi": 1162,
      "Ġcá»Ńa": 1163,
      "Ġbay": 1164,
      "á»³": 1165,
      "ĠtháºŃt": 1166,
      "Ã³m": 1167,
      "Ã¹a": 1168,
      "Ġhá»Ļ": 1169,
      "10": 1170,
      "ĠthuáºŃt": 1171,
      "ap": 1172,
      "ail": 1173,
      "ĠÄĳáº·t": 1174,
      "ĠMinh": 1175,
      "iÃªm": 1176,
      "ĠBÃ¬nh": 1177,
      "Ġin": 1178,
      "ĠxÃ¡c": 1179,
      "ro": 1180,
      "Æ°á»£t": 1181,
      "ðŁĺ": 1182,
      "ĠloÃłi": 1183,
      "Ġnghiá»ĩm": 1184,
      "Ġchia": 1185,
      "Ġvá»ĩ": 1186,
      "ĠThanh": 1187,
      "Ġmáº¥t": 1188,
      "ĠÄĳá»Ŀi": 1189,
      "ĠcÃ¡o": 1190,
      "ĠgÃ³": 1191,
      "ĠÄĳá»§": 1192,
      "ĠbÃłi": 1193,
      "ĠChÃŃnh": 1194,
      "ec": 1195,
      "Ġmá»Ĺi": 1196,
      "Ġhoa": 1197,
      "Ġtráº£": 1198,
      "Ġthanh": 1199,
      "Ġbá»Łi": 1200,
      "21": 1201,
      "iáº¿m": 1202,
      "ui": 1203,
      "Ġná»ķi": 1204,
      "Ġba": 1205,
      "ĠphÃŃa": 1206,
      "Æ°á»¡": 1207,
      "Ãªng": 1208,
      "Ġnhanh": 1209,
      "ND": 1210,
      "á»Ľi": 1211,
      "ĠtÆ°á»Ľng": 1212,
      "ĠgÃ¡i": 1213,
      "ĠphÃ¢n": 1214,
      "ĠÄĳÃ¢u": 1215,
      "Ġchung": 1216,
      "Ġkiá»ĩn": 1217,
      "áº¢": 1218,
      "ĠTÃ´i": 1219,
      "Ġhuy": 1220,
      "Ġcá»ķ": 1221,
      "Ġtiáº¿n": 1222,
      "ĠdÆ°á»Ľi": 1223,
      "Ġcung": 1224,
      "Ã£y": 1225,
      "á»įn": 1226,
      "Ġ12": 1227,
      "Ġpháº¡m": 1228,
      "Ġdanh": 1229,
      "Ġ&#": 1230,
      "Ġw": 1231,
      "Ġphá»§": 1232,
      "ĠÄĲáº¡i": 1233,
      "ĠnguyÃªn": 1234,
      "ĠÄĳÄĥng": 1235,
      "oi": 1236,
      "Ġdu": 1237,
      "á»§y": 1238,
      "Ġhá»Ĺ": 1239,
      "Ġtranh": 1240,
      "Ġnghe": 1241,
      "ĠTrong": 1242,
      "ĠbÃ©": 1243,
      "Ġhuyá»ĩn": 1244,
      "ĠchÃ¢n": 1245,
      "Ġquáº£n": 1246,
      "uyá»ĩt": 1247,
      "ĠmÃ´": 1248,
      "á»ĥ": 1249,
      "Ġtiáº¿t": 1250,
      "ĠkhÃŃ": 1251,
      "Ġmá»¥c": 1252,
      "ig": 1253,
      "ĠvÃ¹ng": 1254,
      "Ġbiá»ĥu": 1255,
      "Ġlá»£i": 1256,
      "Ġcuá»ĳi": 1257,
      "Trong": 1258,
      "ĠchÆ¡i": 1259,
      "Ġbu": 1260,
      "Ġxá»Ń": 1261,
      "Ġháº¡n": 1262,
      "á»ĵm": 1263,
      "Ġtá»ĭ": 1264,
      "áºŃm": 1265,
      "Ġtáº¥t": 1266,
      "¯u": 1267,
      "iÃªng": 1268,
      "and": 1269,
      "Ġgiáº£": 1270,
      "Ġbiá»ĥn": 1271,
      "ĠrÃµ": 1272,
      "CM": 1273,
      "Ġcháº¿t": 1274,
      "Äĳ": 1275,
      "Ġtrá»±c": 1276,
      "Ġchá»ĳng": 1277,
      "áº©u": 1278,
      "âĢĿ.": 1279,
      "93": 1280,
      "com": 1281,
      "Ġvá»£": 1282,
      "Ġhiá»ĥu": 1283,
      "Ġcá»ĳ": 1284,
      "ĠcÃ¢u": 1285,
      "one": 1286,
      "Æ°Æ¡i": 1287,
      "ĠluáºŃt": 1288,
      "ink": 1289,
      "\",": 1290,
      "Æ°á»¡ng": 1291,
      "Ġ11": 1292,
      "Ġ15": 1293,
      "Ġa": 1294,
      "Ġsang": 1295,
      "Ġtá»ĭch": 1296,
      "á»±a": 1297,
      "Ġminh": 1298,
      "Ġhá»¯u": 1299,
      "ĠNga": 1300,
      "Ġthe": 1301,
      "©a": 1302,
      "Ġchuáº©n": 1303,
      "Ġtá»ķng": 1304,
      "CÃ¡c": 1305,
      "iá»ĩp": 1306,
      "ĠchÆ°Æ¡ng": 1307,
      "Ġtá»ĳi": 1308,
      "Ġchá»ĵ": 1309,
      "ĠÄĳÃºng": 1310,
      "ĠTá»ķng": 1311,
      "uÃ¢n": 1312,
      "Ġphim": 1313,
      "Ġtinh": 1314,
      "Ġgá»ĵm": 1315,
      "ĠÄĳÃ¡": 1316,
      "Ġsáº¯c": 1317,
      "ĠTuy": 1318,
      "«ng": 1319,
      "Ġká»ĥ": 1320,
      "Ġtháº§n": 1321,
      "ĠtÆ°Æ¡ng": 1322,
      "Ġ18": 1323,
      "ĠchÃº": 1324,
      "ĠÄĳáº£m": 1325,
      "ĠmÃłu": 1326,
      "ĠdÃ¹": 1327,
      "áº¢nh": 1328,
      "ĠnghÄ©a": 1329,
      "ĠhÆ°á»Łng": 1330,
      "Ġchá»ĵng": 1331,
      "Ġ200": 1332,
      "2023": 1333,
      "Ġe": 1334,
      "ĠÄĳáº¡t": 1335,
      "Ġcháº¡y": 1336,
      "ĠngÃłnh": 1337,
      "lo": 1338,
      "Ã¢ng": 1339,
      "ĠvÃ²ng": 1340,
      "ÃŃn": 1341,
      "ĠxÃ©t": 1342,
      "ĠNgh": 1343,
      "ne": 1344,
      "ĠcÃ¢y": 1345,
      "ĠvÃłng": 1346,
      "ĠkÃ©": 1347,
      "re": 1348,
      "ut": 1349,
      "ĠHáº£i": 1350,
      "Ġmáº«u": 1351,
      "á»Ĺi": 1352,
      "NG": 1353,
      "ĠsÃ¢n": 1354,
      "Ġ30": 1355,
      "ĠnhÃ©": 1356,
      "Ġthoáº¡i": 1357,
      "Ġtho": 1358,
      "ĠÄĲá»©c": 1359,
      "ĠÄĳoáº¡n": 1360,
      "ul": 1361,
      "Ġtuyá»ĥn": 1362,
      "Ġkhá»ıi": 1363,
      "ĠbÆ°á»Ľc": 1364,
      "Ġtháº¯ng": 1365,
      "Ġdá»ħ": 1366,
      "ĠÄĳá»©ng": 1367,
      "Ġsáº»": 1368,
      "ak": 1369,
      "ĠÃŃt": 1370,
      "Ã³n": 1371,
      "áºµ": 1372,
      "ĠBáº¯c": 1373,
      "up": 1374,
      "Ġvui": 1375,
      "á»ĭp": 1376,
      "Ãłm": 1377,
      "ie": 1378,
      "á»©ng": 1379,
      "ĠÄĳÃ¡ng": 1380,
      "ĠcÃłng": 1381,
      "Ġphong": 1382,
      "ĠcÆ°á»Ŀi": 1383,
      "iv": 1384,
      "od": 1385,
      "Ġkháº£": 1386,
      "12": 1387,
      "ĠtÆ°á»Łng": 1388,
      "ĠUS": 1389,
      "tp": 1390,
      "Ãºi": 1391,
      "ĠÄĳá»Ļc": 1392,
      "vn": 1393,
      "Ġhoáº¡ch": 1394,
      "ĠváºŃn": 1395,
      "ĠÄĳáº§y": 1396,
      "ĠNhÆ°ng": 1397,
      "Ġxin": 1398,
      "Ġghi": 1399,
      "Ġcá»Ļng": 1400,
      "Ġcáº¡nh": 1401,
      "ĠHoÃłng": 1402,
      "Ġhá»ĵi": 1403,
      "ae": 1404,
      "11": 1405,
      "ĠhÃ´m": 1406,
      "ip": 1407,
      "ĠphÃ©p": 1408,
      "Ġviáº¿t": 1409,
      "ĠThÃ¡i": 1410,
      "Ġdung": 1411,
      "ĠlÆ°u": 1412,
      "ĠháºŃu": 1413,
      "ĠThá»ĭ": 1414,
      "ĠÃ¡p": 1415,
      "Ġlao": 1416,
      "ĠÄĲÃ´ng": 1417,
      "Ġcá»±c": 1418,
      "ĠVi": 1419,
      "ĠâĢĵ": 1420,
      ":-": 1421,
      "ĠlÃ£nh": 1422,
      "Ġcá»¥": 1423,
      "ĠÃ¡o": 1424,
      "TÃ´i": 1425,
      "ĠBan": 1426,
      "Ġxa": 1427,
      "ub": 1428,
      "ĠCÃ¡c": 1429,
      "ine": 1430,
      "Ġká»¹": 1431,
      "Ġyáº¿u": 1432,
      "ĠTÃ¢y": 1433,
      "ĠÄĳÃ³ng": 1434,
      "á»Ńi": 1435,
      "Ġkháº©u": 1436,
      "ĠDÆ°Æ¡ng": 1437,
      "Ġrá»Ļng": 1438,
      "ĠHá»Ļi": 1439,
      "áº©y": 1440,
      "ĠÄĳÃªm": 1441,
      "mail": 1442,
      "Ġ?": 1443,
      "Ġkhoáº£n": 1444,
      "ĠChá»§": 1445,
      "Ġháº¡": 1446,
      "ĠQuÃ¢n": 1447,
      "ĠnhÃ³m": 1448,
      "ĠKhÃ´ng": 1449,
      "ow": 1450,
      "áº¿p": 1451,
      "ĠSÆ¡n": 1452,
      "Ġtáº£": 1453,
      "ĠtÃłu": 1454,
      "ir": 1455,
      "Ġgh": 1456,
      "Ġchá»¯": 1457,
      "Ġvá»įng": 1458,
      "ĠnÃłng": 1459,
      "ĠThÃłnh": 1460,
      "ĠLan": 1461,
      "HCM": 1462,
      "Ġcháº³ng": 1463,
      "ĠriÃªng": 1464,
      "ĠtrÃ¡i": 1465,
      "áº¡p": 1466,
      "ĠÄĳÃ´i": 1467,
      "Ġvay": 1468,
      "Ġdá»¥c": 1469,
      "ĠNhÃł": 1470,
      "Ġchá»ĭu": 1471,
      "Ġtrai": 1472,
      "Ġlá»Ļ": 1473,
      "ĠÄĳÃłn": 1474,
      "ĠÄĳa": 1475,
      "Ġnáº±m": 1476,
      "ĠHoa": 1477,
      "Ġlá»ĩ": 1478,
      "Ġáº¡": 1479,
      "ĠtrÃ²": 1480,
      "âĢĿ,": 1481,
      "Ġgá»Ńi": 1482,
      "uyáº¿t": 1483,
      "ĠkhÄĥn": 1484,
      "ab": 1485,
      "ĠluáºŃn": 1486,
      "ĠmÃ¹a": 1487,
      "Ġthuá»ĳc": 1488,
      "Ġkiáº¿m": 1489,
      "ĠUSD": 1490,
      "oc": 1491,
      "//": 1492,
      "ĠThu": 1493,
      "ĠHá»ĵ": 1494,
      "Ġvá»ĳn": 1495,
      "ĠngÃ¢n": 1496,
      "Ã£o": 1497,
      "ttp": 1498,
      "ĠLong": 1499,
      "Link": 1500,
      "Ġxáº£y": 1501,
      "ĠlÃ¢u": 1502,
      "ob": 1503,
      "Ġtuáº§n": 1504,
      "Ġ'": 1505,
      "ĳng": 1506,
      "Ġtráº¡ng": 1507,
      "ĠThá»§": 1508,
      "://": 1509,
      "ĠsÆ¡": 1510,
      "Ġká»·": 1511,
      "Ġnhá»Ľ": 1512,
      "ĠÄĳáº£o": 1513,
      "Ġi": 1514,
      "ĠNgá»įc": 1515,
      "Ġkhá»ıe": 1516,
      "ĠNháºŃt": 1517,
      "ĠÃģ": 1518,
      "ĠÄĲáº£ng": 1519,
      "Ġtá»ĳ": 1520,
      "ĠSau": 1521,
      "ĠthÃ´i": 1522,
      "Ġváº»": 1523,
      "iá»ħ": 1524,
      "av": 1525,
      "ĠTH": 1526,
      "ĠchÃłng": 1527,
      "ĠIn": 1528,
      "Ġthiáº¿u": 1529,
      "ĠtrÃ¡ch": 1530,
      "ĠphÃ¡": 1531,
      "Ġnáº¡n": 1532,
      "Ġchiá»ģu": 1533,
      "ĠNáº¿u": 1534,
      "įc": 1535,
      "Ġ[": 1536,
      "Ġtá»©c": 1537,
      "Ġngoáº¡i": 1538,
      "Nguá»ĵn": 1539,
      "ĠkhÃ¡": 1540,
      "Ġcháº¯c": 1541,
      "Ġnam": 1542,
      "ĠÄĳÃ´": 1543,
      "Ġtáº¥n": 1544,
      "Ã¹i": 1545,
      "Ġvai": 1546,
      "Ġnhu": 1547,
      "á»¡": 1548,
      "ĠmÃ´n": 1549,
      "ist": 1550,
      "ĠTráº§n": 1551,
      "Má»Ļt": 1552,
      "ort": 1553,
      "Ġpháº£n": 1554,
      "ĠgÃ³p": 1555,
      "Ġquay": 1556,
      "ĠsÆ°": 1557,
      "Ġtuyáº¿n": 1558,
      "Ġ2022": 1559,
      "ĠÄĳÃ´ng": 1560,
      "ĠdÃłnh": 1561,
      "ĠhÃ²a": 1562,
      "Ġlá»Ľp": 1563,
      "Ġtáº£i": 1564,
      "á»§ng": 1565,
      "Ġda": 1566,
      "ĠcÄĥn": 1567,
      "ĠLÃª": 1568,
      "ĠtoÃ¡n": 1569,
      "ĠÄĳÃ¡p": 1570,
      "Ġnháº¡c": 1571,
      "Ġgiá»ĳng": 1572,
      "ĠmÃ´i": 1573,
      "Ġlá»ħ": 1574,
      "ĠÃ¢m": 1575,
      "Ġnguy": 1576,
      "Ġsá»£": 1577,
      "ĠÃĶng": 1578,
      "ĠMá»Ļt": 1579,
      "Gi": 1580,
      "uáº¥n": 1581,
      "ĠbÃ¡c": 1582,
      "Ã³i": 1583,
      "ĠĠĠĠĠĠĠĠ": 1584,
      "ph": 1585,
      "ook": 1586,
      "ĠphÃºt": 1587,
      "Ġof": 1588,
      "Ġngá»Ŀ": 1589,
      "ĠTrÆ°á»Ŀng": 1590,
      "Ġ14": 1591,
      "ĠvÃłi": 1592,
      "ĠCÃ³": 1593,
      "ĠÃ´": 1594,
      "Ġhiá»ĥm": 1595,
      "Ġngá»ĵi": 1596,
      "Sau": 1597,
      "50": 1598,
      "Ġtrá»Ŀi": 1599,
      "ĠchÃ¢u": 1600,
      "NgÃły": 1601,
      "30": 1602,
      "Ġ16": 1603,
      "Ġphá»ĳi": 1604,
      "ĠphÃ¹": 1605,
      "Ġchá»©": 1606,
      "ĠÄĳá»ĳc": 1607,
      "á»Ľm": 1608,
      "Ġtá»ı": 1609,
      "ĠmÃ³n": 1610,
      "91": 1611,
      "ĠphiÃªn": 1612,
      "Ã£n": 1613,
      "ĠcÃ¡n": 1614,
      "uÃ´i": 1615,
      "ĠKá»³": 1616,
      "ĠdÆ°á»¡ng": 1617,
      "KhÃ´ng": 1618,
      "est": 1619,
      "ĠGiang": 1620,
      "Ġthá»Ń": 1621,
      "âĢľ": 1622,
      "Ġmáº·c": 1623,
      "ĠnÃ¢ng": 1624,
      "amp": 1625,
      "Ġchá»Ĺ": 1626,
      "Ġ;": 1627,
      "ĠnghiÃªn": 1628,
      "ĠÆ°u": 1629,
      "ttps": 1630,
      "Nhá»¯ng": 1631,
      "Ġtiá»ĩn": 1632,
      "ĠcÃ¡nh": 1633,
      "Ã£ng": 1634,
      "ĠtÃŃn": 1635,
      "Ġná»ģn": 1636,
      "ĠgiÃ¡m": 1637,
      "Ã¨o": 1638,
      "ĠÄĲiá»ģu": 1639,
      "Ġsuáº¥t": 1640,
      "ÃĶng": 1641,
      "Ġsai": 1642,
      "ĠÃŃch": 1643,
      "Ġnháº±m": 1644,
      "ĠkÃ©o": 1645,
      "Ġnáº·ng": 1646,
      "Ġlá»±a": 1647,
      "iá»ģm": 1648,
      "ĠthÆ¡": 1649,
      "Ġxanh": 1650,
      "ĠÄĳau": 1651,
      "Ġháº¡i": 1652,
      "ess": 1653,
      "TT": 1654,
      "ĠvÆ°á»£t": 1655,
      "Ġtháº¥t": 1656,
      "Ġcá»Ń": 1657,
      "ĠKhi": 1658,
      "ĠhÃ£y": 1659,
      "Ġbá»ķ": 1660,
      "Ġ17": 1661,
      "ĠÄĲá»ĵng": 1662,
      "á»¯a": 1663,
      "Ġláº¯m": 1664,
      "ĠÆ°Æ¡ng": 1665,
      "uá»ĳt": 1666,
      "Ġcháº¥p": 1667,
      "Ġlá»ĩnh": 1668,
      "Ġnghá»ī": 1669,
      "ĠÄĳáº©y": 1670,
      "Ġ13": 1671,
      "Ġuá»ĳng": 1672,
      "ill": 1673,
      "Ġsá»Ľm": 1674,
      "ĠCÃ´": 1675,
      "ĠPhÃ¡p": 1676,
      "Ġmong": 1677,
      "Ġá»§y": 1678,
      "Ġtá»Ļi": 1679,
      "Ġduy": 1680,
      "ĠcáºŃp": 1681,
      "Ġthiá»ĩn": 1682,
      "ĠViet": 1683,
      "ĠlÄ©nh": 1684,
      "Ã¨n": 1685,
      "ĠdÃ²ng": 1686,
      "ĠthÃºc": 1687,
      "ĠNgÆ°á»Ŀi": 1688,
      "Ġmáº¥y": 1689,
      "ĠquÃ¡n": 1690,
      "ik": 1691,
      "ra": 1692,
      "Ġsh": 1693,
      "ĠsÃ¢u": 1694,
      "ĠcÆ°": 1695,
      "st": 1696,
      "ĠngÃ´i": 1697,
      "Ġ100": 1698,
      "ĠxÃºc": 1699,
      "di": 1700,
      "ĠLe": 1701,
      "Qu": 1702,
      "ĠvÅ©": 1703,
      "ĠcáºŃu": 1704,
      "ĠtÃ¹": 1705,
      "ĠHÃłn": 1706,
      "Ġtai": 1707,
      "Ġkhá»Łi": 1708,
      "ĠLiÃªn": 1709,
      "ĠsoÃ¡t": 1710,
      "ovid": 1711,
      "áº·n": 1712,
      "ce": 1713,
      "ĠkÃŃch": 1714,
      "Ġbuá»ķi": 1715,
      "ĠquÃ½": 1716,
      "Ġlá»Ń": 1717,
      "ĠthÄĥm": 1718,
      "ĠniÃªn": 1719,
      "iá»ħm": 1720,
      "Ġtiá»ĥu": 1721,
      "BND": 1722,
      "Ġdáº§u": 1723,
      "Ġáº¢nh": 1724,
      "Ġcha": 1725,
      "ĠHu": 1726,
      "ĠÄĳá»įc": 1727,
      "Ġmáº¯c": 1728,
      "Ġtráº£i": 1729,
      "Ġdáº¡ng": 1730,
      "Ġtá»ĳc": 1731,
      "Ġdá»¯": 1732,
      "Ġand": 1733,
      "ĠPhÆ°Æ¡ng": 1734,
      "Ġláº½": 1735,
      "ĠÄĳá»ı": 1736,
      "ĠNhá»¯ng": 1737,
      "ĠlÃ£o": 1738,
      "ĠÆ¡n": 1739,
      "Ġnghá»ģ": 1740,
      "Ġbinh": 1741,
      "ĠÄĳem": 1742,
      "ĠthÆ°á»Łng": 1743,
      "ĠBáº£n": 1744,
      "ĠÄĲÃ¢y": 1745,
      "ĠLoÃłi": 1746,
      "ĠPhÃ³": 1747,
      "ĠquáºŃn": 1748,
      "ĠKim": 1749,
      "ĠÄĳÃło": 1750,
      "iáº¿p": 1751,
      "Ġtuyá»ĩt": 1752,
      "á»ĭnh": 1753,
      "Ġá»ķ": 1754,
      "ĠÆ¡i": 1755,
      "ĠtrÃ¬": 1756,
      "ĠLu": 1757,
      "rai": 1758,
      "Ġháº¡ng": 1759,
      "ĠmáºŃt": 1760,
      "))": 1761,
      "24": 1762,
      "ĠthÃ¡i": 1763,
      "Ġtháº¥p": 1764,
      "Ġma": 1765,
      "ĠÃĤ": 1766,
      "ĠhÃ¡t": 1767,
      "Ġlá»Ńa": 1768,
      "ĠCovid": 1769,
      "CÃ³": 1770,
      "ĠhÃºt": 1771,
      "ĠXuÃ¢n": 1772,
      "ĠLinh": 1773,
      "ĠQuáº£ng": 1774,
      "Ġchá»Ŀ": 1775,
      "AN": 1776,
      "ĠmÃłn": 1777,
      "te": 1778,
      "á»·": 1779,
      "ĠthuáºŃn": 1780,
      "áºµn": 1781,
      "ĠAl": 1782,
      "Ġ24": 1783,
      "ĠchÄĥm": 1784,
      "ĠchÃ¡u": 1785,
      "Ġnháº¹": 1786,
      "Ġmiá»ģn": 1787,
      "kh": 1788,
      "áĢ": 1789,
      "ĠsÃ´ng": 1790,
      "Ġkáº»": 1791,
      "Ġ2023": 1792,
      "if": 1793,
      "Ġquanh": 1794,
      "ou": 1795,
      "ĠVÅ©": 1796,
      "NgÆ°á»Ŀi": 1797,
      "ew": 1798,
      "Ġ!": 1799,
      "Ġluyá»ĩn": 1800,
      "ĠnghiÃªm": 1801,
      "ĠNguyÃªn": 1802,
      "ly": 1803,
      "Ġchá»īnh": 1804,
      "ĠUBND": 1805,
      "ebook": 1806,
      "Ġngá»§": 1807,
      "Anh": 1808,
      "oan": 1809,
      "Ġná»ĳi": 1810,
      "90": 1811,
      "Ġtháº©m": 1812,
      "ĠbÃ¡nh": 1813,
      "Ġcáº£i": 1814,
      "ĠnÃ³ng": 1815,
      "ĠxuyÃªn": 1816,
      "ĠnÃ´ng": 1817,
      "acebook": 1818,
      "Ġdáº¥u": 1819,
      "Ġlá»Ĺi": 1820,
      "ue": 1821,
      "?.": 1822,
      "Ġung": 1823,
      "201": 1824,
      "ard": 1825,
      "Ġtrao": 1826,
      "Ġsáºµn": 1827,
      "Ġháº¯n": 1828,
      "ĠTháº¿": 1829,
      "Ġnhiá»ĩt": 1830,
      "Ġ25": 1831,
      "ĠtÃ´": 1832,
      "Ġnhá»Ŀ": 1833,
      "Ġquen": 1834,
      "ĠhÃ´n": 1835,
      "2022": 1836,
      "ĠÄĳáº¥y": 1837,
      "krai": 1838,
      "ĠmÃ£": 1839,
      "ep": 1840,
      "ĠHá»ĵng": 1841,
      "ĠmÆ°a": 1842,
      "á»£i": 1843,
      "ĠChÃŃ": 1844,
      "ĠÄĳÃ³n": 1845,
      "ĠbiÃªn": 1846,
      "idae": 1847,
      "Ġbáº£ng": 1848,
      "ĠmÃ¡u": 1849,
      "ers": 1850,
      "ĠtrÃ¡nh": 1851,
      "ĠAr": 1852,
      "Ġgiáº¥y": 1853,
      "ĠcÆ°á»Ŀng": 1854,
      "art": 1855,
      "ĠZ": 1856,
      "ĠtuyÃªn": 1857,
      "Ġtráº¯ng": 1858,
      "ĠgiÃ¡c": 1859,
      "qd": 1860,
      "Ġcoi": 1861,
      "ĠlÆ°Æ¡ng": 1862,
      "áº¤": 1863,
      "Ġpháº¡t": 1864,
      "Ġkháº¯c": 1865,
      "ĠPhÃº": 1866,
      "ĠQuang": 1867,
      "ev": 1868,
      "ĠChÃºng": 1869,
      "á»«a": 1870,
      "Ġmáº¡i": 1871,
      "ĠcÅ©": 1872,
      "Ġnghi": 1873,
      "ĠChÃ¢u": 1874,
      "Ġgiai": 1875,
      "ĠÄĲÃł": 1876,
      "áº§ng": 1877,
      "ĠthiÃªn": 1878,
      "Ġxáº¿p": 1879,
      "Ġbá»©c": 1880,
      "Ġkia": 1881,
      "ĠsiÃªu": 1882,
      "Ġtáº·ng": 1883,
      "ation": 1884,
      "Ġly": 1885,
      "kraine": 1886,
      "ĠbáºŃt": 1887,
      "ah": 1888,
      "Ġcam": 1889,
      "ĠTheo": 1890,
      "ĠTá»«": 1891,
      "ĠPháº¡m": 1892,
      "ðŁĳ": 1893,
      "ĠthÃŃ": 1894,
      "ell": 1895,
      "Ġgiáº£n": 1896,
      "ĠphÃ³ng": 1897,
      "ok": 1898,
      "Ġtháº³ng": 1899,
      "Khi": 1900,
      "Ġsáº¯p": 1901,
      "Ġnhiá»ħm": 1902,
      "ww": 1903,
      "ĠgÃ³i": 1904,
      "Ġtháº£o": 1905,
      "Ġmay": 1906,
      "Ġ50": 1907,
      "Ãµi": 1908,
      "ĠhÆ¡i": 1909,
      "ĠEm": 1910,
      "ĠthÃº": 1911,
      "ĠHÃ²a": 1912,
      "Ġ:-": 1913,
      "ĠchÃºt": 1914,
      "Ã²i": 1915,
      "LV": 1916,
      "ĠSá»Ł": 1917,
      "Ġniá»ĩm": 1918,
      "Ġtáº§m": 1919,
      "Ġláº¡": 1920,
      "Ġxong": 1921,
      "Ġthuáº¿": 1922,
      "Ġbuá»Ļc": 1923,
      "áº¹n": 1924,
      "ĠgiÃłnh": 1925,
      "ĠkÃª": 1926,
      "ĠÄĳá»ĭch": 1927,
      "Ġquáº§n": 1928,
      "ĠsÃ³c": 1929,
      "Ġláº¡c": 1930,
      "ĠChá»ī": 1931,
      "nd": 1932,
      "Ġko": 1933,
      "ĠThiÃªn": 1934,
      "ĠDo": 1935,
      "Ġhá»įp": 1936,
      "Ġ\\": 1937,
      "ĠnuÃ´i": 1938,
      "ideo": 1939,
      "ĠCon": 1940,
      "Ġ21": 1941,
      "Ġdáº¡y": 1942,
      "ĠÃ¡nh": 1943,
      "ĠkhÃ¡m": 1944,
      "uá»ķi": 1945,
      "ĠNinh": 1946,
      "iáº¿ng": 1947,
      "ĠUkraine": 1948,
      "Ġsuy": 1949,
      "ĠBáº£o": 1950,
      "ĠthuÃª": 1951,
      "¦y": 1952,
      "ĠnháºŃt": 1953,
      "ĠtáºŃn": 1954,
      "Ġsá»Ńa": 1955,
      "....": 1956,
      "ĠTiÃªn": 1957,
      "sh": 1958,
      "Ġláº¡nh": 1959,
      "Ġmá»ĳi": 1960,
      "ĠVÃ¬": 1961,
      "Ġbáº§u": 1962,
      "Ġ/": 1963,
      "ĠMai": 1964,
      "ĠÄĳá»Ļt": 1965,
      "Ġáº¥n": 1966,
      "Ġthao": 1967,
      "Ġchiáº¿m": 1968,
      "Ġtá»ī": 1969,
      "ex": 1970,
      "ĠnÃºi": 1971,
      "ry": 1972,
      "Ġmiá»ħn": 1973,
      "ĠÄĳen": 1974,
      "ity": 1975,
      "Ãºy": 1976,
      "Ġtá»Ļc": 1977,
      "Ġtháº§y": 1978,
      "ĠngÆ°Æ¡i": 1979,
      "ĠlÃłng": 1980,
      "Ġtáº§ng": 1981,
      "Ġ22": 1982,
      "Ġkháº³ng": 1983,
      "Ġliá»ģn": 1984,
      "Ġchuyáº¿n": 1985,
      "ĠTáº¿t": 1986,
      "08": 1987,
      "Ġá»ķn": 1988,
      "ĠlÃ¡i": 1989,
      "ĠBa": 1990,
      "Ġcáº§m": 1991,
      "Ġthá»ĭt": 1992,
      "Ġá»¦y": 1993,
      "Å©i": 1994,
      "06": 1995,
      "NH": 1996,
      "Ãºa": 1997,
      "ri": 1998,
      "Ġháº¥p": 1999,
      "2021": 2000,
      "Ġphiáº¿u": 2001,
      "Náº¿u": 2002,
      "Ġkháº£o": 2003,
      "ĠTÃ¢n": 2004,
      "Ġchá»¯a": 2005,
      "TrÆ°á»Ľc": 2006,
      "uc": 2007,
      "Ġ23": 2008,
      "nam": 2009,
      "ĠcÃ¢n": 2010,
      "ģm": 2011,
      "ore": 2012,
      "ĠCH": 2013,
      "Ã¨m": 2014,
      "Ġsuá»ĳt": 2015,
      "á»ĭa": 2016,
      "Ġtáº¡m": 2017,
      "PT": 2018,
      "Ġtruy": 2019,
      "á»©t": 2020,
      "age": 2021,
      "ĠÄĳá»©a": 2022,
      "Ġhttps": 2023,
      "ĠBÃł": 2024,
      "ĠVÃł": 2025,
      "Ġcá»¥c": 2026,
      "Ġcá»©ng": 2027,
      "ĠhÆ°Æ¡ng": 2028,
      "Ġtim": 2029,
      "ĠhoÃłng": 2030,
      "Ġloáº¡t": 2031,
      "á»Ļn": 2032,
      "á»³nh": 2033,
      "ĠlÆ°á»£t": 2034,
      "ĠchÃ³ng": 2035,
      "ĠphÃª": 2036,
      "ĠtÃ¡i": 2037,
      "ĠÃĤu": 2038,
      "igh": 2039,
      "og": 2040,
      "25": 2041,
      "á»¥ng": 2042,
      "¯ng": 2043,
      "ĠSh": 2044,
      "Ġrá»«ng": 2045,
      "bo": 2046,
      "Vá»Ľi": 2047,
      "99": 2048,
      "ĠLÃ½": 2049,
      "ĠbÃŃ": 2050,
      "ank": 2051,
      "âĿ": 2052,
      "Ġngon": 2053,
      "ord": 2054,
      "Ġsung": 2055,
      "ark": 2056,
      "ĠHai": 2057,
      "ĠphÃºc": 2058,
      "ĠsÃłng": 2059,
      "Ġnha": 2060,
      "Ã³t": 2061,
      "ĠVá»Ľi": 2062,
      "Ġká»ĭp": 2063,
      "Ġná»£": 2064,
      "ĠhÃłi": 2065,
      "Ġninh": 2066,
      "Ġcáº¯t": 2067,
      "Ġkiá»ĥu": 2068,
      "ĠHá»": 2069,
      "ĠtÃ³c": 2070,
      "ıa": 2071,
      "ina": 2072,
      "ĠlÃ¡": 2073,
      "ton": 2074,
      "ens": 2075,
      "ĠLÃ¢m": 2076,
      "Ġcháº¯n": 2077,
      "ÃĶ": 2078,
      "ĠhÃ£ng": 2079,
      "ack": 2080,
      "ĠrÃºt": 2081,
      "Ġmá»«ng": 2082,
      "07": 2083,
      "Táº¡i": 2084,
      "ame": 2085,
      "Ġnháº¥n": 2086,
      "ĠcáºŃn": 2087,
      "Ġlá»¥c": 2088,
      "ĠPhong": 2089,
      "ĠbÃły": 2090,
      "ĠPhÃ²ng": 2091,
      "Ġgá»ĳc": 2092,
      "ĠquÃª": 2093,
      "Ġlai": 2094,
      "ĠkhÃ³a": 2095,
      "ich": 2096,
      "all": 2097,
      "ĠdÃłng": 2098,
      "Bá»Ļ": 2099,
      "gmail": 2100,
      "ĠyÃªn": 2101,
      "15": 2102,
      "ĉĉ": 2103,
      "Tuy": 2104,
      "ĠÄĳoÃ¡n": 2105,
      "Ġháº¡t": 2106,
      "âĿ¤": 2107,
      "ĠSt": 2108,
      ".-": 2109,
      "ite": 2110,
      "ea": 2111,
      "Ġthá»§y": 2112,
      "Ġgiáº¿t": 2113,
      "17": 2114,
      "Ġvá»¯ng": 2115,
      "ff": 2116,
      "Ġsong": 2117,
      "Ġchá»£": 2118,
      "Ġdá»«ng": 2119,
      "ĠVÃ¢n": 2120,
      "--": 2121,
      "ĠmÃ¡i": 2122,
      "ian": 2123,
      "ĠÆ°á»Ľc": 2124,
      "áºµng": 2125,
      "Ġtá»ĵ": 2126,
      "iz": 2127,
      "Ġbuá»ĵn": 2128,
      "ĠrÆ¡i": 2129,
      "ĠmÃ£i": 2130,
      "ĠtrÄĥm": 2131,
      "ĠNgoÃłi": 2132,
      "Ġdáº§n": 2133,
      "ile": 2134,
      "ĠchÃło": 2135,
      "ĠVÆ°Æ¡ng": 2136,
      "Ġbáº¡i": 2137,
      "ĠðŁĺ": 2138,
      "Ġháº¡nh": 2139,
      "Ġngá»¯": 2140,
      "Phone": 2141,
      "Ġmá»Ŀi": 2142,
      "âĢĵ": 2143,
      "Ġchá»¥": 2144,
      "ĠTá»ķ": 2145,
      "16": 2146,
      "ĠmÃły": 2147,
      "Ġphá»ķ": 2148,
      "pp": 2149,
      "Ġcan": 2150,
      "eg": 2151,
      "Ġmá»ģm": 2152,
      "Ġthá»«a": 2153,
      "Ġkhá»ķ": 2154,
      "ĠkÃªu": 2155,
      "Ġ26": 2156,
      "ChÃºng": 2157,
      "Ġxáº¥u": 2158,
      "ĠcÆ°á»Ľi": 2159,
      "ĠTuáº¥n": 2160,
      "Ġgiá»įng": 2161,
      "ðŁĴ": 2162,
      "ĠgiÃ³": 2163,
      "Ġliá»ĩt": 2164,
      "ĠGia": 2165,
      "Ġvong": 2166,
      "09": 2167,
      "ĠchÃ¡y": 2168,
      "ĠlÃ£i": 2169,
      "ĠngÄĥn": 2170,
      "18": 2171,
      "az": 2172,
      "ĠÄĳÃ¡m": 2173,
      "Ġchá»¥p": 2174,
      "ib": 2175,
      "ĠNÃ³": 2176,
      "ĠkhÃ¡n": 2177,
      "ĠdÃµi": 2178,
      "ĠmÃª": 2179,
      "ĠNhÃ¢n": 2180,
      "Ġru": 2181,
      "ĠdÃ¢y": 2182,
      "45": 2183,
      "line": 2184,
      "Æ°á»Ŀn": 2185,
      "ĠtÃ²a": 2186,
      "ĠNgÃły": 2187,
      "ï¸": 2188,
      "ï¸ı": 2189,
      "Ġtá»¥": 2190,
      "Ġchá»©a": 2191,
      "Ġbang": 2192,
      "Ġdá»ĭ": 2193,
      "Ġnháº¯c": 2194,
      "ĠNha": 2195,
      "ĠsÃ³ng": 2196,
      "Ġcháº·t": 2197,
      "Ġhá»įa": 2198,
      "Ġ2020": 2199,
      "Ġdá»ĭp": 2200,
      "ĠdÆ°Æ¡ng": 2201,
      "Ġkhá»ĳi": 2202,
      "ĠBá»ĩnh": 2203,
      "ĠNáºµng": 2204,
      "ĠthoÃ¡t": 2205,
      "ĠTrang": 2206,
      "Ġbá»įn": 2207,
      "iá»ĩng": 2208,
      "ĠHLV": 2209,
      "ax": 2210,
      "Ġbáº¡c": 2211,
      "ĠtháºŃm": 2212,
      "CÃ´ng": 2213,
      "ĠkÃŃnh": 2214,
      "ain": 2215,
      "Ġtrá»¥": 2216,
      "ĠNÄĥm": 2217,
      "ass": 2218,
      "á»±u": 2219,
      "Ġháº§u": 2220,
      "ĠÄĳÃŃch": 2221,
      "Ġgáº¯n": 2222,
      "Ä©a": 2223,
      "ect": 2224,
      "ee": 2225,
      "Ġngáº¯n": 2226,
      "ĠChi": 2227,
      "Æ°á»£u": 2228,
      "ld": 2229,
      "ĠCá»¥c": 2230,
      "ĠngÅ©": 2231,
      "ĠNghá»ĭ": 2232,
      "ĠTÃłi": 2233,
      "Ġmu": 2234,
      "ĠMan": 2235,
      "Ġthiá»ĩu": 2236,
      "ÄĲá»ĥ": 2237,
      "ĠlÆ°á»£c": 2238,
      "Ġbiá»ĩn": 2239,
      "ĠHÆ°Æ¡ng": 2240,
      "ĠDÃ¢n": 2241,
      "ĠThÃ´ng": 2242,
      "Ġlinh": 2243,
      "ĠTiá»ĥu": 2244,
      "Ġxung": 2245,
      "á»įt": 2246,
      "Ġ...": 2247,
      "ĠNgÃ¢n": 2248,
      "Ġ2021": 2249,
      "Ġnáº¯m": 2250,
      "Ġthá»Ł": 2251,
      "ran": 2252,
      "27": 2253,
      "ĠPhi": 2254,
      "Ġ40": 2255,
      "Ġ09": 2256,
      "88": 2257,
      "thg": 2258,
      "ĠTáº¡i": 2259,
      "Ġrá»Ŀi": 2260,
      "ĠphÃ³": 2261,
      "ĠHá»į": 2262,
      "Ġphi": 2263,
      "á»īnh": 2264,
      "Ġmá»¹": 2265,
      "ĠÄĳá»£i": 2266,
      "Ġáº¤": 2267,
      "ĠÄĳá»«ng": 2268,
      "Ġmá»Ļ": 2269,
      "uyen": 2270,
      "ĠRe": 2271,
      "Ġsáº¡ch": 2272,
      "NgoÃłi": 2273,
      "Ġtá»Ŀ": 2274,
      "ind": 2275,
      "Ġmiá»ĩng": 2276,
      "ĠgiÃł": 2277,
      "Ġbáº¯n": 2278,
      "ĠÄĳá»¡": 2279,
      "ĠBr": 2280,
      "ĠbÃ¢y": 2281,
      "Tá»«": 2282,
      "ĠÄĳÃ£i": 2283,
      "14": 2284,
      "Ġná»Ńa": 2285,
      "ĠBáº¡n": 2286,
      "ĠKhÃ¡nh": 2287,
      "Ġcáº¥u": 2288,
      "ĠÄĲá»Ļ": 2289,
      "ĠMar": 2290,
      "ĠCup": 2291,
      "Báº¡n": 2292,
      "ĠrÆ°á»£u": 2293,
      "Ġhy": 2294,
      "Ġtáº¯c": 2295,
      "Ġgáº¯ng": 2296,
      "ĠdÃ¡ng": 2297,
      "ate": 2298,
      "ud": 2299,
      "ĠnhiÃªu": 2300,
      "ĠphÆ°á»Ŀng": 2301,
      "26": 2302,
      "á»ĩt": 2303,
      "Ġtháº»": 2304,
      "ÄĲiá»ģu": 2305,
      "Ġkhuyáº¿n": 2306,
      "ĠÄĲÃ¬nh": 2307,
      "ĠÃł": 2308,
      "ıng": 2309,
      "Ġháº£i": 2310,
      "ĠHo": 2311,
      "Ã©o": 2312,
      "Ġshop": 2313,
      "03": 2314,
      "05": 2315,
      "ĠkhÃºc": 2316,
      "IN": 2317,
      "Ġngáº¡i": 2318,
      "ond": 2319,
      "2020": 2320,
      "ĠNhÆ°": 2321,
      "ĠYÃªn": 2322,
      "Ġ27": 2323,
      "ĠKinh": 2324,
      "ĠthÃ¡c": 2325,
      "Ġnháº¯n": 2326,
      "Nam": 2327,
      "Ġniá»ģm": 2328,
      "Ġkhá»§ng": 2329,
      "ĠquÃł": 2330,
      "ĠtÆ°Æ¡i": 2331,
      "13": 2332,
      "end": 2333,
      "ID": 2334,
      "Ġweb": 2335,
      "Em": 2336,
      "Chá»ĭ": 2337,
      "ĠÄĳÆ°Æ¡ng": 2338,
      "Ġthiá»ĩt": 2339,
      "ĠtÃ´n": 2340,
      "ĠdáºŃy": 2341,
      "ĠtiÃªm": 2342,
      "Ġtáº¡p": 2343,
      "ey": 2344,
      "Ġtáº¥m": 2345,
      "ĠLuáºŃt": 2346,
      "erv": 2347,
      "ĠCÆ¡": 2348,
      "OV": 2349,
      "Ġtuy": 2350,
      "ĠBiÃªn": 2351,
      "Ġláº¯ng": 2352,
      "ata": 2353,
      "ĠpháºŃn": 2354,
      "ts": 2355,
      "ĠGiÃ¡m": 2356,
      "ĠmÅ©i": 2357,
      "ĠGiá»": 2358,
      "Ġtá»ĵn": 2359,
      "28": 2360,
      "Ġon": 2361,
      "Ġ28": 2362,
      "ĠdÃ¡m": 2363,
      "Ġcuá»ĳn": 2364,
      "ĠmiÃªu": 2365,
      "Ġngang": 2366,
      "und": 2367,
      "our": 2368,
      "Ġná»Ĺi": 2369,
      "Ġthua": 2370,
      "ĠkÃ©m": 2371,
      "ĠSA": 2372,
      "ĠNew": 2373,
      "á»Ļp": 2374,
      "Ġbá»ĳi": 2375,
      "ii": 2376,
      "Ġcáº·p": 2377,
      "ÃĬ": 2378,
      "II": 2379,
      "Ġná»ķ": 2380,
      "ald": 2381,
      "ĠbÄĥng": 2382,
      "ĠLa": 2383,
      "Ġxinh": 2384,
      "ĠÄĲiá»ĩn": 2385,
      "Ġtop": 2386,
      "Ġhuynh": 2387,
      "ĠquÃªn": 2388,
      "ĠrÃłng": 2389,
      "Ġmai": 2390,
      "NÄĥm": 2391,
      "ĠCÃ²n": 2392,
      "Ġkim": 2393,
      "Ġthuyáº¿t": 2394,
      "ĠtrÃº": 2395,
      "įt": 2396,
      "ðŁ¤": 2397,
      "ÄĲT": 2398,
      "ĠgiÃłu": 2399,
      "Ġlan": 2400,
      "ĠtrÃ´ng": 2401,
      "Ġvideo": 2402,
      "era": 2403,
      "io": 2404,
      "04": 2405,
      "Ġbá»ĳn": 2406,
      "ĠmÆ¡": 2407,
      "Æ¯": 2408,
      "ĠÄĳua": 2409,
      "Ġchiáº¿u": 2410,
      "ĠÄĲÃ³": 2411,
      "Ġá»§ng": 2412,
      "Ġkháº¯p": 2413,
      "Ġduyá»ĩt": 2414,
      "Ġnguyá»ĩn": 2415,
      "ĠthÃ´n": 2416,
      "Ġáº¤n": 2417,
      "ĠbÃło": 2418,
      "yr": 2419,
      "ĠkÃ¨m": 2420,
      "Ġthá»¥": 2421,
      "ĠcháºŃm": 2422,
      "ĠnghÃ¨o": 2423,
      "Ġná»Ĺ": 2424,
      "Ġvua": 2425,
      "ĠTop": 2426,
      "Ġngá»«ng": 2427,
      "ĠHÆ°ng": 2428,
      "TV": 2429,
      "ĠThÆ°Æ¡ng": 2430,
      "Ġcl": 2431,
      "orld": 2432,
      "oy": 2433,
      "ĠvÃ©": 2434,
      "ast": 2435,
      "Ġxu": 2436,
      "ĠPhan": 2437,
      "net": 2438,
      "Con": 2439,
      "ĠHy": 2440,
      "ague": 2441,
      "ÄĲÃ¢y": 2442,
      "ĠngÆ°á»£c": 2443,
      "ĠÄĳÃ¨n": 2444,
      "ĠHÃ¹ng": 2445,
      "ĠBÃŃ": 2446,
      "Ġxo": 2447,
      "Ġhiá»ĩp": 2448,
      "Ġco": 2449,
      "ĠVN": 2450,
      "Ġ29": 2451,
      "ĠcÃº": 2452,
      "Nguyá»ħn": 2453,
      "Ġdá»±a": 2454,
      "Ġcáº¥m": 2455,
      "ĠÃĲ": 2456,
      "ĠÄĲoÃłn": 2457,
      "Ġhá»ģ": 2458,
      "âĢĻ": 2459,
      "NhÆ°ng": 2460,
      "ĠxÄĥng": 2461,
      "Ġngo": 2462,
      "Ġdá»©t": 2463,
      "á»Ĺng": 2464,
      "ĠMy": 2465,
      "ĠngÃ´n": 2466,
      "ĠtÃ¹y": 2467,
      "Ġbá»Ŀ": 2468,
      "ace": 2469,
      "Hiá»ĩn": 2470,
      "HÃł": 2471,
      "ber": 2472,
      "Ġlá»ĳi": 2473,
      "Ġká»ĭch": 2474,
      "ĠÄĲÃło": 2475,
      "Ġtrá»ĵng": 2476,
      "Ġláº«n": 2477,
      "Ġthá»ķ": 2478,
      "Ġuy": 2479,
      "ĠsÃºng": 2480,
      "ĠNgoáº¡i": 2481,
      "ĠhÃ¨": 2482,
      "Ġmáº¡ch": 2483,
      "Ġpha": 2484,
      "ÃĢ": 2485,
      "ĠiPhone": 2486,
      "ĠTR": 2487,
      "Ġtrá»«": 2488,
      "ĠTÆ°": 2489,
      "TH": 2490,
      "ÃĶNG": 2491,
      "Ġsá»©": 2492,
      "ĠHuy": 2493,
      "ick": 2494,
      "Ġfor": 2495,
      "ello": 2496,
      "Æ°á»Ľp": 2497,
      "Ġtung": 2498,
      "ĠTá»Ń": 2499,
      "ĠPhÃºc": 2500,
      "ant": 2501,
      "ĠthÃ¹": 2502,
      "VN": 2503,
      "SÃ¡ng": 2504,
      "Ġhuáº¥n": 2505,
      "ĠÄĲá»ĥ": 2506,
      "Ġkm": 2507,
      "ĠHÃ³a": 2508,
      "ĠvÃµ": 2509,
      "áº³n": 2510,
      "ĠDu": 2511,
      "asia": 2512,
      "CÃ´": 2513,
      "ĠCá»Ļng": 2514,
      "Ġtráº¥n": 2515,
      "Giá»": 2516,
      "ĠSp": 2517,
      "Ġnáº¯ng": 2518,
      "are": 2519,
      "site": 2520,
      "ĠÄĳáº£ng": 2521,
      "Ġla": 2522,
      "ĠÄĳÃ²i": 2523,
      "ĠmÆ°u": 2524,
      "ĠTiáº¿n": 2525,
      "ĠcÃł": 2526,
      "ĠTriá»ģu": 2527,
      "ĠtrÃºc": 2528,
      "oh": 2529,
      "ĠÄĳá»ĩ": 2530,
      "ĠlÅ©": 2531,
      "ĠkhÃ³c": 2532,
      "ĠThe": 2533,
      "Ġgháº¿": 2534,
      "LÃł": 2535,
      "ĠÄĲá»ĭnh": 2536,
      "ĠPr": 2537,
      "ĠnghÃ¬n": 2538,
      "ĠhÃło": 2539,
      "200": 2540,
      "Ġáº©n": 2541,
      "Ġchá»¥c": 2542,
      "app": 2543,
      "ĠGiÃ¡o": 2544,
      "01": 2545,
      "ChÃło": 2546,
      "Ġtá»ĩ": 2547,
      "Ġsá»¯a": 2548,
      "Ġthuyá»ģn": 2549,
      "iáº¿c": 2550,
      "29": 2551,
      "mar": 2552,
      "44": 2553,
      "ĠCao": 2554,
      "78": 2555,
      "Ġthá»ıa": 2556,
      "ĠgÃ³c": 2557,
      "ies": 2558,
      "Ġmáº½": 2559,
      "ĠtrÆ°Æ¡ng": 2560,
      "Ġ199": 2561,
      "Ġháº¹n": 2562,
      "ĠMob": 2563,
      "ĠnÃ©t": 2564,
      "ĠbÃ¨": 2565,
      "ĠÄĳÃ¡o": 2566,
      "son": 2567,
      "ĠtÃ¡": 2568,
      "Ã©m": 2569,
      "ĠDÅ©ng": 2570,
      "Ġá»ŀ": 2571,
      "Ġhuyáº¿t": 2572,
      "Ġ2015": 2573,
      "ĠViá»ĩc": 2574,
      "ĠtháºŃn": 2575,
      "ĠÄĳuá»ķi": 2576,
      "Ġláº·ng": 2577,
      "Ġgame": 2578,
      "ĠgÃł": 2579,
      "ÃĬN": 2580,
      "man": 2581,
      "ĠgÆ°Æ¡ng": 2582,
      "á»ŀ": 2583,
      "ĠtÃºi": 2584,
      "Ġvá»Ŀi": 2585,
      "ĠÄĲáº¿n": 2586,
      "ĠHiá»ĩn": 2587,
      "ith": 2588,
      "Ġsá»ķ": 2589,
      "ĠHiá»ĩp": 2590,
      "Ġchá»§ng": 2591,
      "ĠSÃłi": 2592,
      "Ġcháº¡m": 2593,
      "ĠNG": 2594,
      "Ġbá»¯a": 2595,
      "Ġngá»įt": 2596,
      "Ġ198": 2597,
      "ĠKhoa": 2598,
      "ĠWorld": 2599,
      "ĠThi": 2600,
      "áºŃc": 2601,
      "Ġhá»ĵng": 2602,
      "ĠVÄ©nh": 2603,
      "Ã¹m": 2604,
      "ĠcÆ¡m": 2605,
      "ĠnÃªu": 2606,
      "ĠhÃ¹ng": 2607,
      "ĠThÆ°á»£ng": 2608,
      "tel": 2609,
      "ĠĠĠ": 2610,
      "ach": 2611,
      "ĠlÆ°ng": 2612,
      "Ġháº³n": 2613,
      "Ġáº¥m": 2614,
      "Ġsá»ĳt": 2615,
      "Ġnháº£y": 2616,
      "Ġbá»¥ng": 2617,
      "ĠbÃ£o": 2618,
      "Ġquáº£ng": 2619,
      "ĠcÆ¡n": 2620,
      "list": 2621,
      "ĠlÆ°á»Ľi": 2622,
      "orten": 2623,
      "ĠtrÃ¹ng": 2624,
      "Ġcháº·n": 2625,
      "Nhiá»ģu": 2626,
      "Ġmáº¡c": 2627,
      "Ãģ": 2628,
      "ĠTrÆ°á»Ľc": 2629,
      "ĠlÃłnh": 2630,
      "qdnd": 2631,
      "á»¥y": 2632,
      "ĠThÆ°á»Ŀng": 2633,
      "shorten": 2634,
      "ĠvÃŃ": 2635,
      "Ġ60": 2636,
      "ive": 2637,
      "Ġtáº£ng": 2638,
      "TP": 2639,
      "Ġu": 2640,
      "Ġ2018": 2641,
      "Ġal": 2642,
      "Ġ2019": 2643,
      "Ġrá»ĳi": 2644,
      "ĠthÆ°á»£ng": 2645,
      "ĠtrÃºng": 2646,
      "Ġhá»ĵn": 2647,
      "ĠVÃµ": 2648,
      "%.": 2649,
      "ern": 2650,
      "ĠbáºŃc": 2651,
      "sk": 2652,
      "£t": 2653,
      "ĠÄĳá»īnh": 2654,
      "entu": 2655,
      "Ġgáº¥p": 2656,
      "Ġim": 2657,
      "onald": 2658,
      "ĠÄĳÃłi": 2659,
      "35": 2660,
      "VÃł": 2661,
      "dient": 2662,
      "ĠCáº£nh": 2663,
      "Ġdientu": 2664,
      "ubqd": 2665,
      "Ġthai": 2666,
      "dientubqd": 2667,
      "Ġ2016": 2668,
      "Ġvá»Ļi": 2669,
      "ĠphÃ¡n": 2670,
      "Ġrau": 2671,
      "Ġchá»Ł": 2672,
      "Ġloáº¡n": 2673,
      "Ġ31": 2674,
      "ĠVietnam": 2675,
      "ump": 2676,
      "eck": 2677,
      "á»Ļm": 2678,
      "ĠlÃ¢m": 2679,
      "Ġhá»§y": 2680,
      "ĠtháºŃp": 2681,
      "Ġtri": 2682,
      "co": 2683,
      "TTO": 2684,
      "á»§i": 2685,
      "ĠTrÆ°Æ¡ng": 2686,
      "Ngh": 2687,
      "Ġsáº¯t": 2688,
      "ĠgÃ£": 2689,
      "ĠTáºŃp": 2690,
      "ĠÄĳá»£t": 2691,
      "ĠThá»§y": 2692,
      "ĠvÆ°á»Ŀn": 2693,
      "ĠApp": 2694,
      "ĠcÄĥng": 2695,
      "kg": 2696,
      "ĠFacebook": 2697,
      "Ġmáº¯n": 2698,
      "Ã©n": 2699,
      "Tá»ķng": 2700,
      "ice": 2701,
      "ĠGÃ²n": 2702,
      "ĠCity": 2703,
      "ork": 2704,
      "Ġcháº¥n": 2705,
      "Ġcháº¥m": 2706,
      "uch": 2707,
      "áº¥c": 2708,
      "ĠxÆ°a": 2709,
      "02": 2710,
      "Ġlá»«a": 2711,
      "ug": 2712,
      "ĠNhiá»ģu": 2713,
      "ĠLI": 2714,
      "ĠÄĳÃł": 2715,
      "ien": 2716,
      "ĠBar": 2717,
      "Ġná»Ļp": 2718,
      "Ġhá»Ļp": 2719,
      ",...": 2720,
      "ĠgiáºŃn": 2721,
      "ty": 2722,
      "Ġphá»©c": 2723,
      "ĠTrá»įng": 2724,
      "iet": 2725,
      "ĠtrÆ°ng": 2726,
      "ode": 2727,
      "ĠViá»ĩn": 2728,
      "ĠphÃ¡i": 2729,
      "Vá»ģ": 2730,
      "ĠkhuÃ´n": 2731,
      "ĠdÆ°": 2732,
      "ĠbÃ²": 2733,
      "AM": 2734,
      "ĠKhu": 2735,
      "ĠhoÃ¡": 2736,
      "Ġphu": 2737,
      "60": 2738,
      "Ġgiáº£ng": 2739,
      "ĠGr": 2740,
      "55": 2741,
      "Trung": 2742,
      "á»įa": 2743,
      "ĠVáºŃy": 2744,
      "Ġj": 2745,
      "ĠVinh": 2746,
      "Ġ500": 2747,
      "ĠngÃłn": 2748,
      "ĠthÃ¡ch": 2749,
      "'.": 2750,
      "ĠTÃ¢m": 2751,
      "ĠvÆ°Æ¡ng": 2752,
      "BÃªn": 2753,
      "ĠDuy": 2754,
      "Ġgá»¡": 2755,
      "Ġpr": 2756,
      "GiÃ¡": 2757,
      "ĠMa": 2758,
      "ĠBÃªn": 2759,
      "ĠmÃ¡t": 2760,
      "ðŁĺĤ": 2761,
      "ĠkhÃ¡ng": 2762,
      "Ġváº¿t": 2763,
      "ĠbÃ£i": 2764,
      "Ġcá»±u": 2765,
      "Ġxá»©": 2766,
      "ĠNghá»ĩ": 2767,
      "SE": 2768,
      "Ġbá»ģn": 2769,
      "Ġhá»©ng": 2770,
      "á»Ľt": 2771,
      "Ġcom": 2772,
      "Ġkiá»ĩm": 2773,
      "Ġtháº±ng": 2774,
      "!!": 2775,
      "ĠhÃłm": 2776,
      "ĠtÃ¡n": 2777,
      "Chiá»ģu": 2778,
      "ĠTIN": 2779,
      "Ġtrá»¯": 2780,
      "els": 2781,
      "ĠInd": 2782,
      "Ġ2017": 2783,
      "ines": 2784,
      "Ġkhung": 2785,
      "Ġhá»ķ": 2786,
      "Ġtháº£i": 2787,
      "ĠkÃ¬": 2788,
      "ĠchÃ³": 2789,
      "ĠphÃº": 2790,
      "33": 2791,
      "uk": 2792,
      "Ġquang": 2793,
      "Ġngá»±a": 2794,
      "EN": 2795,
      "ĠÄĲH": 2796,
      "66": 2797,
      "CB": 2798,
      "Ġgiá»ıi": 2799,
      "ĠAnd": 2800,
      "Ġsáº¡n": 2801,
      "box": 2802,
      "ĠDi": 2803,
      "ros": 2804,
      "ĠToplist": 2805,
      "Hai": 2806,
      "act": 2807,
      "ĠPhÃ¡t": 2808,
      "gle": 2809,
      "iss": 2810,
      "Ġvá»¡": 2811,
      "48": 2812,
      "ĠTHPT": 2813,
      "ĠcÆ°á»Ľc": 2814,
      "ath": 2815,
      "UY": 2816,
      "á»¯u": 2817,
      "ĠChá»ĭ": 2818,
      "ĠInter": 2819,
      "ĠLÃło": 2820,
      "ĠlÃłn": 2821,
      "Ġhuá»ĳng": 2822,
      "ĠChiáº¿n": 2823,
      "Ġráº»": 2824,
      "rid": 2825,
      "Ġtháº£m": 2826,
      "Ġdinh": 2827,
      "ĠPháºŃt": 2828,
      "ÄĲáº¡i": 2829,
      "Ġtá»ıa": 2830,
      "ĠsÃłn": 2831,
      "Chá»ī": 2832,
      "ĠCáº§n": 2833,
      "ĠGD": 2834,
      "ames": 2835,
      "Ġkhiá»ĥn": 2836,
      "ones": 2837,
      "ĠthÆ¡m": 2838,
      "47": 2839,
      "ĠkhÃ´": 2840,
      "ĠTrump": 2841,
      "ans": 2842,
      "oogle": 2843,
      "ĠThuáºŃn": 2844,
      "ĠgiáºŃt": 2845,
      "ĠÄĳáº¿": 2846,
      "gi": 2847,
      "Hello": 2848,
      "ĠNhi": 2849,
      "alia": 2850,
      "ĠÃ´m": 2851,
      "ĠngÃ£": 2852,
      "áº¯k": 2853,
      "ĠÄĳÃłm": 2854,
      "ta": 2855,
      "VÃ¬": 2856,
      "ThÃ´ng": 2857,
      "ĠcÆ°á»Ľp": 2858,
      "ĠBÃ¡o": 2859,
      "ĠTPHCM": 2860,
      "Viá»ĩc": 2861,
      "BÃł": 2862,
      "ĠLIÃĬN": 2863,
      "ĠÄĳoáº¡t": 2864,
      "ĠHá»Ĩ": 2865,
      "ll": 2866,
      "ge": 2867,
      "Ġ197": 2868,
      "sia": 2869,
      "Ġcháº£y": 2870,
      "ĠnÃ£o": 2871,
      "Ġkhen": 2872,
      "Do": 2873,
      "ĠGiáº£i": 2874,
      "ĠchÃºc": 2875,
      "NhÃł": 2876,
      "ear": 2877,
      "Ġbá»ĵi": 2878,
      "Ġkháº©n": 2879,
      "ÄĲÆ°á»£c": 2880,
      "aw": 2881,
      ".\\": 2882,
      "ĠHCM": 2883,
      "km": 2884,
      "ier": 2885,
      "Ġtráº§m": 2886,
      "ĠThiáº¿u": 2887,
      "ĠBÃ¡c": 2888,
      "ĠÄĲá»ĳi": 2889,
      "Ġ35": 2890,
      "ĠQuá»³nh": 2891,
      "ĠHuáº¿": 2892,
      "ĠbÃ³": 2893,
      "Ġlá»Ĺ": 2894,
      "ĠkhoÃ¡n": 2895,
      "Ãªnh": 2896,
      "ĠDá»±": 2897,
      "ĠdÃły": 2898,
      "OVID": 2899,
      "áº«y": 2900,
      "Ġchá»«ng": 2901,
      "Ġláº»": 2902,
      "Ġgá»Ĺ": 2903,
      "39": 2904,
      "Ġgá»£i": 2905,
      "Má»¹": 2906,
      "ĠLeague": 2907,
      "ĠLÆ°u": 2908,
      "ĠÄĳáº¡n": 2909,
      "68": 2910,
      "ĠBáº¡ch": 2911,
      "ĠmÆ°á»Ŀi": 2912,
      "Ġtháº§u": 2913,
      "ĠÄĲáº·c": 2914,
      "Ġnhi": 2915,
      "THÃĶNG": 2916,
      "ĠHÃ£y": 2917,
      "Ġres": 2918,
      "ĠSa": 2919,
      "ĠNguyen": 2920,
      "Ġfan": 2921,
      "ĠLÆ°Æ¡ng": 2922,
      "ĠÄĲÃłi": 2923,
      "ĠmÃ¹i": 2924,
      "ĠCOVID": 2925,
      "page": 2926,
      "ĠtÆ°á»Ŀng": 2927,
      "facebook": 2928,
      "ĠCÃ¡i": 2929,
      "ĠtÃ¢y": 2930,
      "Ġdao": 2931,
      "Ġngáº¡c": 2932,
      "LB": 2933,
      "Ġthá»Ŀ": 2934,
      "ipp": 2935,
      "ram": 2936,
      "Ġ08": 2937,
      "ĠNgÃ´": 2938,
      "ĠHáº¡": 2939,
      "ment": 2940,
      "ðŁĳī": 2941,
      "ĠTáº¥t": 2942,
      "ĠSá»±": 2943,
      "ĠMal": 2944,
      "ĠMÃ£": 2945,
      "Ġtiáº¿c": 2946,
      "Ġthoáº£i": 2947,
      "ĠChu": 2948,
      "ĠLÃºc": 2949,
      "ions": 2950,
      "Ġtrá»ĳn": 2951,
      "Ġ000": 2952,
      "ĠTháº£o": 2953,
      "Ġst": 2954,
      "ĠphÃ¡o": 2955,
      "ĠQuy": 2956,
      "Ġxáº¿": 2957,
      "Ġthiá»ĥu": 2958,
      "Ġ70": 2959,
      "ĠÄĲÆ°á»Ŀng": 2960,
      "38": 2961,
      "Ġláº§m": 2962,
      "ĠChÆ°Æ¡ng": 2963,
      "enn": 2964,
      "37": 2965,
      "Ġhoang": 2966,
      "ĠVin": 2967,
      "ĠDung": 2968,
      "ĠngáºŃp": 2969,
      "Ġá»ĳng": 2970,
      "ÄĲND": 2971,
      "ĠPH": 2972,
      "âĿ¤ï¸ı": 2973,
      "ĠhÃ´": 2974,
      "ood": 2975,
      "ÄĲáº¿n": 2976,
      "ðŁ¤£": 2977,
      "ĠkÃªnh": 2978,
      "ĠcÃłi": 2979,
      "Ġtan": 2980,
      "ĠgiÃ¢y": 2981,
      "Ġháº£": 2982,
      "ĠHá»¯u": 2983,
      "Ġ2014": 2984,
      "40": 2985,
      "ĠLai": 2986,
      "ĠÄĳc": 2987,
      "ĠrÄĥng": 2988,
      "ĠÄĳáº³ng": 2989,
      "Ġtáº¯t": 2990,
      "Ġáº©m": 2991,
      "100": 2992,
      "TrÃªn": 2993,
      "ĠCar": 2994,
      "ĠDÃ¹": 2995,
      "ĠxÆ°Æ¡ng": 2996,
      "Ġquá»¹": 2997,
      "ĠHá»įc": 2998,
      "Ġthang": 2999,
      "ĠÄĳáºŃp": 3000,
      "ĠApple": 3001,
      "ez": 3002,
      "ĠkhÃŃch": 3003,
      "Ġhiáº¿m": 3004,
      "ĠtrÃło": 3005,
      "rus": 3006,
      "ĠkÃŃn": 3007,
      "ĠLoan": 3008,
      "ash": 3009,
      "PhÃ¡t": 3010,
      "Ġcu": 3011,
      "Ġchá»ĳi": 3012,
      "Ġhoáº£ng": 3013,
      "ĠtÃºy": 3014,
      "ix": 3015,
      "ĠthÆ°á»Ľc": 3016,
      "ool": 3017,
      "ustr": 3018,
      "ĠSao": 3019,
      "ĠÃ©p": 3020,
      "oll": 3021,
      "Ġtao": 3022,
      "Ġmá»ĩnh": 3023,
      "Ġmá»ĩt": 3024,
      "Ġdá»įa": 3025,
      "ĠThá»Ŀi": 3026,
      "ĠCan": 3027,
      "ams": 3028,
      "Ġbáº¡o": 3029,
      "ĠHáºŃu": 3030,
      "ĠÃ¡c": 3031,
      "ĠTrÆ°á»Łng": 3032,
      "Ġ2010": 3033,
      "Iá»": 3034,
      "ĠBl": 3035,
      "Ġnon": 3036,
      "ĠTam": 3037,
      "ĠÄĳai": 3038,
      "ĠUy": 3039,
      "Ġva": 3040,
      "Ġ37": 3041,
      "ĠÄĳá»©c": 3042,
      "49": 3043,
      "Ġche": 3044,
      "Ġcá»Ļt": 3045,
      "36": 3046,
      "á»¥i": 3047,
      "ost": 3048,
      "ĠÄĳáºŃm": 3049,
      "ĠnhÃ¡nh": 3050,
      "Ġtráº¡i": 3051,
      "ĠbÆ°á»Ľ": 3052,
      "www": 3053,
      "ĠThÆ¡": 3054,
      "Ġbáº¯c": 3055,
      "ĠHÃłng": 3056,
      "ĠtÄ©nh": 3057,
      "Ġchá»ĳt": 3058,
      "ct": 3059,
      "Ġhá»©a": 3060,
      "ĠTa": 3061,
      "Ġnáº¥u": 3062,
      "Ġkháº¥u": 3063,
      "Ġde": 3064,
      "ĠAm": 3065,
      "ĠCÆ°á»Ŀng": 3066,
      "Ġcá»Ŀ": 3067,
      "ĠMáº·t": 3068,
      "Ġbá»Ĺng": 3069,
      "ĠĠĠĠĠĠĠĠĠĠĠĠĠĠĠĠ": 3070,
      "ĠÄĳáºŃu": 3071,
      "XH": 3072,
      "Ġ36": 3073,
      "Thá»Ŀi": 3074,
      "sen": 3075,
      "ĠMU": 3076,
      "ĠtrÃ²n": 3077,
      "ðŁĺį": 3078,
      "Ġbáº¿p": 3079,
      "Ġ300": 3080,
      "âľ": 3081,
      "ĠlÃŃnh": 3082,
      "ĠÄĳÃ¢m": 3083,
      "onesia": 3084,
      "58": 3085,
      "ĠtrÃŃch": 3086,
      "ĠdÃ¢u": 3087,
      "ca": 3088,
      "Ġchuá»Ĺi": 3089,
      "Ġtá»ķn": 3090,
      "ĠxÃ¢m": 3091,
      "ĠHar": 3092,
      "Ġ68": 3093,
      "Ġruá»Ļt": 3094,
      "Ġdiá»ĩt": 3095,
      "Ġcáº£n": 3096,
      "Ġsáº¯m": 3097,
      "Ã¹y": 3098,
      "Ġngá»±c": 3099,
      "34": 3100,
      "Ġcáº¥t": 3101,
      "ĠÄĲá»ĭa": 3102,
      "The": 3103,
      "SG": 3104,
      "Ġdáº¡": 3105,
      "500": 3106,
      "Ġvang": 3107,
      "Ġfile": 3108,
      "ĠMáº¡nh": 3109,
      "ĠQuyáº¿t": 3110,
      "ĠnÆ°Æ¡ng": 3111,
      "ft": 3112,
      "iver": 3113,
      "ĠAi": 3114,
      "indow": 3115,
      "ĠtrÃł": 3116,
      "ĠNháº¥t": 3117,
      "ĠTháº¯ng": 3118,
      "Ġsa": 3119,
      "Ġtiá»ģm": 3120,
      "Ġ80": 3121,
      "Cho": 3122,
      "Thanh": 3123,
      "ĠÄĳá»ĳt": 3124,
      "Sá»±": 3125,
      "Ġtráº§n": 3126,
      "ĠCLB": 3127,
      "Ġgá»įn": 3128,
      "ĠQuÃ½": 3129,
      "ĠÄĳiá»ĩu": 3130,
      "ona": 3131,
      "Ġtrá»©ng": 3132,
      "Ġro": 3133,
      "ĠCamp": 3134,
      "AT": 3135,
      "ĠPhil": 3136,
      "ert": 3137,
      "ĠSá»ĳ": 3138,
      "ĠÄĲáº§u": 3139,
      "ĠrÃ¡c": 3140,
      "Ġbom": 3141,
      "Ġpháº«u": 3142,
      "Ġchim": 3143,
      "ĠviÃªm": 3144,
      "iá»ħu": 3145,
      "Tin": 3146,
      "Ġkhoe": 3147,
      "Ġháº£o": 3148,
      "ĠÄĳe": 3149,
      "ĠchiÃªu": 3150,
      "ĠKho": 3151,
      "Ġváº½": 3152,
      "ĠMad": 3153,
      "BÃłi": 3154,
      "rom": 3155,
      "Ã£nh": 3156,
      "anpage": 3157,
      "Ġtháº§m": 3158,
      "ini": 3159,
      "ĠtÃłn": 3160,
      "Ġib": 3161,
      "Ġ:))": 3162,
      "ĠxuÃ¢n": 3163,
      "ĠhÃ¢m": 3164,
      "Ġláº¯p": 3165,
      "ĠMá»Ĺi": 3166,
      "Æ°á»Ľt": 3167,
      "ãģ": 3168,
      "ĠvÃ¡y": 3169,
      "Ġcá»ı": 3170,
      "Ġchá»Ľ": 3171,
      "ĠÄĳiá»ĥn": 3172,
      "Ġgan": 3173,
      "ĠHuyá»ģn": 3174,
      "ĠThá»±c": 3175,
      "TC": 3176,
      "ĠCl": 3177,
      "Ġgáº¡o": 3178,
      "ĠPl": 3179,
      "Ġvinh": 3180,
      "ĠThá»©": 3181,
      "Chá»§": 3182,
      "Ġtáº¯m": 3183,
      "ĠQuan": 3184,
      "áº¹o": 3185,
      "Thá»§": 3186,
      "ĠBÃ¹i": 3187,
      "ial": 3188,
      "ĠGiao": 3189,
      "ĠAd": 3190,
      "Ġcheck": 3191,
      "CÃ¡ch": 3192,
      "indows": 3193,
      "ĠÄĳá»ĵn": 3194,
      "âĪ": 3195,
      "ust": 3196,
      "Ġtrá»Ļm": 3197,
      "----": 3198,
      "Ġpháº¥n": 3199,
      "Ġsu": 3200,
      "ĠPro": 3201,
      "ĠgiÆ°á»Ŀng": 3202,
      "ĠNghÄ©a": 3203,
      "ĠÄĲá»Ĺ": 3204,
      "NhÆ°": 3205,
      "Ġbe": 3206,
      "Ġ38": 3207,
      "ox": 3208,
      "ĠbÆ°á»Ľm": 3209,
      "ota": 3210,
      "Ġ=": 3211,
      "ĠNhÄ©": 3212,
      "Ġz": 3213,
      "ĠtrÃłn": 3214,
      "CÅ©ng": 3215,
      "ĠCá»ķ": 3216,
      "ĠNH": 3217,
      "ight": 3218,
      ";.": 3219,
      "ĠtÃŃ": 3220,
      "77": 3221,
      "ÄĲá»ĳi": 3222,
      "ĠEl": 3223,
      "Ġmá»ī": 3224,
      "ĠPark": 3225,
      "Ġmá»±c": 3226,
      "ĠbuÃ´n": 3227,
      "áº±n": 3228,
      "Ġáº£o": 3229,
      "ĠSÆ°": 3230,
      "Ġlá»įc": 3231,
      "ada": 3232,
      "Ġex": 3233,
      "Ã¹n": 3234,
      "CÃ²n": 3235,
      "ĠThá»ķ": 3236,
      "acc": 3237,
      "ĠsÄĥn": 3238,
      "na": 3239,
      "ĠSing": 3240,
      "ĠIndonesia": 3241,
      "Ġ06": 3242,
      "ĠgiÃ¡p": 3243,
      "Ġad": 3244,
      "Ġ90": 3245,
      "ĠPar": 3246,
      "Ġngáº§m": 3247,
      "ĠLá»ħ": 3248,
      "ĠmÆ°Æ¡i": 3249,
      "Ġmáº£nh": 3250,
      "Ġ2013": 3251,
      "ana": 3252,
      "Ġcamera": 3253,
      "ĠcÆ°Æ¡ng": 3254,
      "âĪĴ": 3255,
      "Ġga": 3256,
      "Ġcá»ķng": 3257,
      "Ġtháº£": 3258,
      "ĠTrÃªn": 3259,
      "ÄĲá»ĭa": 3260,
      "áº¹t": 3261,
      "Ġváº¯c": 3262,
      "á»ıng": 3263,
      "ĠcÃ£i": 3264,
      "ĠTiá»ģn": 3265,
      "ĠchÃºa": 3266,
      "ĠPhÆ°á»Ľc": 3267,
      "SEAN": 3268,
      "amb": 3269,
      "ĠBá»Łi": 3270,
      "Ġrá»Ńa": 3271,
      "ĠxÃ³a": 3272,
      "pl": 3273,
      "ĠTÃ¹ng": 3274,
      "ĠGoogle": 3275,
      "ĠkiÃªn": 3276,
      "ĠHoÃłn": 3277,
      "Ġtiá»ĩc": 3278,
      "ĠlÃ¢y": 3279,
      "):": 3280,
      "Ġinbox": 3281,
      "ĠÄĲÄĥng": 3282,
      "ĠQuáº£n": 3283,
      "Ġsay": 3284,
      "2019": 3285,
      "Ġ+": 3286,
      "ĠHoÃłi": 3287,
      "ĠTu": 3288,
      "ĠCáº£": 3289,
      "Ġcanh": 3290,
      "uchia": 3291,
      "ium": 3292,
      "CC": 3293,
      "Sao": 3294,
      "ĠlÃ´ng": 3295,
      "ock": 3296,
      "ĠEd": 3297,
      "Ġtrá»ĳng": 3298,
      "Ġgiam": 3299,
      "!.": 3300,
      "onaldo": 3301,
      "ĠngÆ°á»¡ng": 3302,
      "DÃ¹": 3303,
      "TS": 3304,
      ");": 3305,
      "ĠSE": 3306,
      "Ġmá»ıi": 3307,
      "Ġthan": 3308,
      "ĠHáº±ng": 3309,
      "ĠkhuyÃªn": 3310,
      "ĠCáº§u": 3311,
      "Ġtreo": 3312,
      "ei": 3313,
      "Ġ2011": 3314,
      "hone": 3315,
      "ĠÃĿ": 3316,
      "ĠdÆ°á»Ŀng": 3317,
      "ĠLá»Ļc": 3318,
      "pr": 3319,
      "ĠhÆ°": 3320,
      "ĠthÃ¡o": 3321,
      "ĠWindows": 3322,
      "yl": 3323,
      "áº«m": 3324,
      "%,": 3325,
      "con": 3326,
      "ĠNÃłng": 3327,
      "ĠtáºŃt": 3328,
      "ĠÄĳá»ģn": 3329,
      "ĠMobi": 3330,
      "ver": 3331,
      "ĠQuáºŃn": 3332,
      "ÄĲiá»ĩn": 3333,
      "ĠchÃ¹a": 3334,
      "apore": 3335,
      "á»¥t": 3336,
      "elsea": 3337,
      "orn": 3338,
      "46": 3339,
      "ebsite": 3340,
      "Ġis": 3341,
      "ðŁĻ": 3342,
      "VÃło": 3343,
      "ĠToÃłn": 3344,
      "ĠCÃ¡ch": 3345,
      "Ġbáº¡ch": 3346,
      "ico": 3347,
      "Ġcáº£ng": 3348,
      "bank": 3349,
      "ĠCho": 3350,
      "ĠthÄĥng": 3351,
      "ĠnhuáºŃn": 3352,
      "ĠMáº¹": 3353,
      "Ġtha": 3354,
      "ĠTÃº": 3355,
      "Ġhiá»ĥn": 3356,
      "Ġgiáº¥u": 3357,
      "ĠViettel": 3358,
      "old": 3359,
      "gh": 3360,
      "ĠTÄ©nh": 3361,
      "ĠchÃŃn": 3362,
      "ĠUn": 3363,
      "ĠÄĲa": 3364,
      "Ġngá»įn": 3365,
      "yria": 3366,
      "eal": 3367,
      "ĠTá»īnh": 3368,
      "eth": 3369,
      "ĠÄĳáº¡p": 3370,
      "ĠAs": 3371,
      "isa": 3372,
      "SN": 3373,
      "ĠKH": 3374,
      "ĠÄĲá»Ļi": 3375,
      "ĠChÃºa": 3376,
      "ara": 3377,
      "Ġsá»¹": 3378,
      "Ġcá»ĳt": 3379,
      "ĠBáº±ng": 3380,
      "ĠGiÃ¡": 3381,
      "ĠYáº¿n": 3382,
      "Ġtruyá»ĩn": 3383,
      "Ġpro": 3384,
      "oth": 3385,
      "ĠReal": 3386,
      "ĠkÃŃ": 3387,
      "Ġtá»ĳn": 3388,
      "Ġ2012": 3389,
      "Ġbá»į": 3390,
      "khÃ´ng": 3391,
      "Ġváº¯ng": 3392,
      "ĠCuá»Ļc": 3393,
      "ĠBiá»ĥn": 3394,
      "Ġgiáº¥c": 3395,
      "ĠTháº§n": 3396,
      "ĠBÃ¡n": 3397,
      "Ġhiáº¿n": 3398,
      "ÄĲá»ĵng": 3399,
      "ĠsÃ¡u": 3400,
      "port": 3401,
      "ĠlÃ´": 3402,
      "ĠsÆ¡n": 3403,
      "Æ°á»£n": 3404,
      "56": 3405,
      "ĠÃļ": 3406,
      "ĠThiáº¿t": 3407,
      "ma": 3408,
      "Ġha": 3409,
      "eam": 3410,
      "ĠTriá»ĩu": 3411,
      "Ġlang": 3412,
      "ĠASEAN": 3413,
      "Æ°á»¡i": 3414,
      "ights": 3415,
      "ĠÄĲT": 3416,
      "Ġvá»ı": 3417,
      "Ġbá»ģ": 3418,
      "Ġdá»įc": 3419,
      "Ã½t": 3420,
      "ĠbÃ©o": 3421,
      "Ġxá»©ng": 3422,
      "Ġhá»ĳi": 3423,
      "Ġláº¯c": 3424,
      "ĠngoÃ¡i": 3425,
      "ĠtÃ¢n": 3426,
      "Ġvirus": 3427,
      "ĠÄĳáº¯t": 3428,
      "ĠlÃ£ng": 3429,
      "ĠnÃºt": 3430,
      "Ib": 3431,
      "Ã¬a": 3432,
      "á»©a": 3433,
      "57": 3434,
      "Ġhá»ıng": 3435,
      "aysia": 3436,
      "ky": 3437,
      "ĠThá»¥y": 3438,
      "Ġtráº¡m": 3439,
      "ĠTÃ´n": 3440,
      "mp": 3441,
      "ĠMua": 3442,
      "CN": 3443,
      "ĠCampuchia": 3444,
      "Ãºn": 3445,
      "á»µ": 3446,
      "ek": 3447,
      "ĠThÆ°": 3448,
      "©t": 3449,
      "ĠgiÃ£n": 3450,
      "ĠÄĳeo": 3451,
      "43": 3452,
      "ica": 3453,
      "Ġmi": 3454,
      "ĠCr": 3455,
      "ĠnhÆ°á»£ng": 3456,
      "cel": 3457,
      "Ġtrá»įn": 3458,
      "ĠAir": 3459,
      "ary": 3460,
      "Ġclip": 3461,
      "ley": 3462,
      "ĠIs": 3463,
      "ĠPhÆ°á»£ng": 3464,
      "Ġshow": 3465,
      "ĠHuá»³nh": 3466,
      "ĠNÃ´ng": 3467,
      "mm": 3468,
      "ĠKáº¿t": 3469,
      "ĠLÃ£o": 3470,
      "Ġcá»¡": 3471,
      "ĠKiá»ģu": 3472,
      ":âĢĵ": 3473,
      "OS": 3474,
      "Ġpin": 3475,
      "Ġchua": 3476,
      "ĠSingapore": 3477,
      "roid": 3478,
      "£n": 3479,
      "ha": 3480,
      "la": 3481,
      "ĠTÃłu": 3482,
      "ĠdÆ°á»£c": 3483,
      "ĠÃ¡i": 3484,
      "ĠchÄĥng": 3485,
      "ĠThÃºy": 3486,
      "ashi": 3487,
      "ĠtrÆ°a": 3488,
      "ĠtÃºc": 3489,
      "ĠBH": 3490,
      "eng": 3491,
      "ĠÄĲÆ°á»£c": 3492,
      "ĠKiá»ĥm": 3493,
      "ĠCT": 3494,
      "á»Ľp": 3495,
      "ohn": 3496,
      "ure": 3497,
      "ĠPhilipp": 3498,
      "ÄĲÃ³": 3499,
      "ĠGal": 3500,
      "Ġhá»ıa": 3501,
      "ĠgáºŃt": 3502,
      "Ġcháº½": 3503,
      "ĠLy": 3504,
      "ĠAustr": 3505,
      "ĠbÃ¹ng": 3506,
      "essi": 3507,
      "31": 3508,
      "ama": 3509,
      "Ġtrá»¥c": 3510,
      "Ġwith": 3511,
      "ĠtÃ¡ch": 3512,
      "ĠlÃ£m": 3513,
      "Ġbá»Ļt": 3514,
      "ĠSyria": 3515,
      "ĠmÃ¡": 3516,
      "ChÆ°Æ¡ng": 3517,
      "ĠGames": 3518,
      "ieu": 3519,
      "ĠduyÃªn": 3520,
      "Ġháº§m": 3521,
      "ĠSÄ©": 3522,
      "±ng": 3523,
      "land": 3524,
      "ÃŃa": 3525,
      "ĠnhÃłng": 3526,
      "ĠgiÃły": 3527,
      "Ġvá»£t": 3528,
      "Ġmiáº¿ng": 3529,
      "Ġphá»ıng": 3530,
      "ĠmÃ¢y": 3531,
      "ĠquÃ¡i": 3532,
      "ho": 3533,
      "ĠÄĲinh": 3534,
      "ĠxÃ³m": 3535,
      "ĠNa": 3536,
      "ĠtÃłng": 3537,
      "ĠtrÃ´i": 3538,
      "ĠrÃ£i": 3539,
      "Ġmáº¡o": 3540,
      "Ġná»Ł": 3541,
      "orm": 3542,
      "ĠTT": 3543,
      "ĠMi": 3544,
      "Ġlink": 3545,
      "ĠsÃ¡nh": 3546,
      "Tháº¿": 3547,
      "54": 3548,
      "amin": 3549,
      "Æ°Æ¡n": 3550,
      "ĠSong": 3551,
      "Ġtriá»ģu": 3552,
      "Ġcáº©n": 3553,
      "ĠGu": 3554,
      "67": 3555,
      "á»Ńu": 3556,
      "Ġngáº¯m": 3557,
      "ters": 3558,
      "se": 3559,
      "Ġtá»©": 3560,
      "ĠMáº·c": 3561,
      "Ġrá»§i": 3562,
      "á»ĳp": 3563,
      "ĠDN": 3564,
      "?-": 3565,
      "ĠNai": 3566,
      "ĠCP": 3567,
      "to": 3568,
      "ĠTim": 3569,
      "ĠrÃło": 3570,
      "ĠmÃ¬": 3571,
      "ĠÄĳiá»ĩp": 3572,
      "thÃ¡ng": 3573,
      "Ġlá»ĵ": 3574,
      "Ġonline": 3575,
      "Ġtang": 3576,
      "Viá»ĩt": 3577,
      "Ġ#": 3578,
      "ĠMalaysia": 3579,
      "Ġmy": 3580,
      "á»ĭn": 3581,
      "Ġliá»ģu": 3582,
      "ĠÃ¢n": 3583,
      "Ġráº¯n": 3584,
      "oph": 3585,
      "ChÃŃnh": 3586,
      "Ġkhuáº©n": 3587,
      "ĠNghi": 3588,
      "ĠÄĲáº·ng": 3589,
      "ĠAll": 3590,
      "ĠsÃºt": 3591,
      "ĠsÃ³t": 3592,
      "Ġ45": 3593,
      "ĠÃ¡m": 3594,
      "An": 3595,
      "roup": 3596,
      "ĠSinh": 3597,
      "ĠcÃ¡t": 3598,
      "ĠTruyá»ģn": 3599,
      "ĠTháº¡ch": 3600,
      "Ġngu": 3601,
      "Ġapp": 3602,
      "Ġbá»ĳc": 3603,
      "ĠsÃ´i": 3604,
      "Ġcode": 3605,
      "ĠCÅ©ng": 3606,
      "LÃłm": 3607,
      "ĠNgay": 3608,
      "ech": 3609,
      "ĠII": 3610,
      "Ġviá»ħn": 3611,
      "ĠCM": 3612,
      "ĠtÃ´ng": 3613,
      "ĠXÃ¢y": 3614,
      "ĠOn": 3615,
      "ĠthoÃ¡ng": 3616,
      "ym": 3617,
      "ĠmÃ£n": 3618,
      "Ġsoáº¡n": 3619,
      "59": 3620,
      "ĠnÃ¨": 3621,
      "ish": 3622,
      "Co": 3623,
      "ĠDe": 3624,
      "GB": 3625,
      "ĠLao": 3626,
      "ĠÄĳÄ©a": 3627,
      "Le": 3628,
      "Ľt": 3629,
      "ĠPháº£i": 3630,
      "ĠCÃ¡t": 3631,
      "ĠbÆ¡i": 3632,
      "ĠSu": 3633,
      "Ġnhá»ī": 3634,
      "ĠRá»ĵi": 3635,
      "Ġngá»«a": 3636,
      "ĠthÃ³i": 3637,
      "ck": 3638,
      "ĠThá»į": 3639,
      "erved": 3640,
      "ĠkhÃ¡t": 3641,
      "Ġ32": 3642,
      "ĠvÃ¢y": 3643,
      "ĠnÆ°á»Ľng": 3644,
      "ĠChÃłng": 3645,
      "Dá»±": 3646,
      "ĉĉĉĉ": 3647,
      "ĠngÃłi": 3648,
      "ĠHuá»ĩ": 3649,
      "ĠTrá»ĭnh": 3650,
      "BV": 3651,
      "ĠCá»¥": 3652,
      "uong": 3653,
      "Ġhi": 3654,
      "ĠEr": 3655,
      "LiÃªn": 3656,
      "CH": 3657,
      "Ġlong": 3658,
      "onda": 3659,
      "Ġrá»¡": 3660,
      "ino": 3661,
      "Tiáº¿p": 3662,
      "Ngay": 3663,
      "ĠGiáº¥y": 3664,
      "Ġmá»ĳc": 3665,
      "'s": 3666,
      "Ġkg": 3667,
      "lex": 3668,
      "Ġxoay": 3669,
      "ĠÄĳá»±ng": 3670,
      "Ġphun": 3671,
      "Fone": 3672,
      "ĠVá»ģ": 3673,
      "ĠNá»¯": 3674,
      "ĠTiÃªu": 3675,
      "Ġlá»£n": 3676,
      "Ġkhá»ķng": 3677,
      "VáºŃy": 3678,
      "out": 3679,
      "CS": 3680,
      "ĠCam": 3681,
      "ĠdÃ¢m": 3682,
      "ĠBÃłi": 3683,
      "á»ĳm": 3684,
      "ĠChung": 3685,
      "Ġnhá»ĭp": 3686,
      "ĠChelsea": 3687,
      "Giáº£i": 3688,
      "áº¾": 3689,
      "uro": 3690,
      "ĠngÆ°": 3691,
      "Ġmá»¥": 3692,
      "Sá»ĳ": 3693,
      "Cá»¥": 3694,
      "ĠMadrid": 3695,
      "ĠlÃŃ": 3696,
      "ote": 3697,
      "ÄĲÄĥng": 3698,
      "ĠGiá»Ŀ": 3699,
      "ike": 3700,
      "32": 3701,
      "amsung": 3702,
      "tu": 3703,
      "ĠTÃ¬nh": 3704,
      "Máº·c": 3705,
      "ani": 3706,
      "Ġbá»Ľt": 3707,
      "Vá»¥": 3708,
      "ĠSc": 3709,
      "Ġváº£i": 3710,
      "ĠIt": 3711,
      "ÃĤ": 3712,
      "CT": 3713,
      "nÄĥm": 3714,
      "ĠTrinh": 3715,
      "ĠtráºŃt": 3716,
      "ĠlÃ¹i": 3717,
      "ĠtÃ¡o": 3718,
      "ĠlÃ¹ng": 3719,
      "ĠHá»ĵi": 3720,
      "ner": 3721,
      "Ġhung": 3722,
      "Ġcm": 3723,
      "istan": 3724,
      "ĠbáºŃn": 3725,
      "ĠhÃ²": 3726,
      "ĠbÃ¡": 3727,
      "Ġ%": 3728,
      "ĠdÃ£": 3729,
      "Ġat": 3730,
      "ĠTáº¥n": 3731,
      "Ġbá»¥i": 3732,
      "ĠsÆ°u": 3733,
      "Email": 3734,
      "ĠSer": 3735,
      "ĠMS": 3736,
      "lor": 3737,
      "Ġbáº£y": 3738,
      "Ġbia": 3739,
      "ĠÄĳiÃªn": 3740,
      "Cuá»Ļc": 3741,
      "Ġngá»Ļ": 3742,
      "ĠvÄ©": 3743,
      "Sh": 3744,
      "ĠSan": 3745,
      "ĠKiÃªn": 3746,
      ".âĢĿ": 3747,
      "ĠbÃ¡m": 3748,
      "ĠthÃ©p": 3749,
      "Ġbi": 3750,
      "Ġmuá»ĳi": 3751,
      "TÃłi": 3752,
      "ĠTrÃł": 3753,
      "ĠÄĳam": 3754,
      "ĠmÃ©t": 3755,
      "ĠdÃłn": 3756,
      "ĠhÃ£i": 3757,
      "Ġ2008": 3758,
      "Thá»±c": 3759,
      "EU": 3760,
      "senal": 3761,
      "kk": 3762,
      "Ġleo": 3763,
      "ĠHiáº¿u": 3764,
      "arl": 3765,
      "ĠnhÃ£n": 3766,
      "Ġháº±ng": 3767,
      "nhttps": 3768,
      "axy": 3769,
      "Ġchuyá»ģn": 3770,
      "Ġtá»§": 3771,
      "Ġchá»£t": 3772,
      "ĠNÃ³i": 3773,
      "á»ıi": 3774,
      "ĠHa": 3775,
      "ĠMobiFone": 3776,
      "ĠÃĶ": 3777,
      "Káº¿t": 3778,
      "pool": 3779,
      "ron": 3780,
      "Ġmuá»Ļn": 3781,
      "ĠCom": 3782,
      "CP": 3783,
      "ĠHáº¡nh": 3784,
      "its": 3785,
      "Ġdá»ĭu": 3786,
      "ĠTuyÃªn": 3787,
      "ola": 3788,
      "ĠnÃ©m": 3789,
      "Ġnháº«n": 3790,
      "NhÃ³m": 3791,
      "ĠVI": 3792,
      "ĠbÃ¡t": 3793,
      "ĠChamp": 3794,
      "ĠtuÃ¢n": 3795,
      "Ġdáº¯t": 3796,
      "ĠInternet": 3797,
      "martp": 3798,
      "NÃ³": 3799,
      "hip": 3800,
      "HoÃłng": 3801,
      "Ġbáº¿n": 3802,
      "ĠbÃ¹": 3803,
      "CÃ¹ng": 3804,
      "âĢį": 3805,
      "ester": 3806,
      "ĠJohn": 3807,
      "martphone": 3808,
      "Ġcháº©n": 3809,
      "oyota": 3810,
      "ĠHiá»ģn": 3811,
      "AS": 3812,
      "enc": 3813,
      "Ġas": 3814,
      "Ġset": 3815,
      "Ġlá»įt": 3816,
      "ĠrÃł": 3817,
      "oft": 3818,
      "ĠAndroid": 3819,
      "NÃ³i": 3820,
      "oe": 3821,
      "ĠPháº§n": 3822,
      "ĠTham": 3823,
      "ĠXin": 3824,
      "ĠPhilippines": 3825,
      "ĠÄĲáº¯k": 3826,
      "alo": 3827,
      "iverpool": 3828,
      "ĠchÃ¬m": 3829,
      "ĠhÆ°u": 3830,
      "ĠmÃ³c": 3831,
      "ĠpháºŃt": 3832,
      "ĠCo": 3833,
      "erm": 3834,
      "ane": 3835,
      "TrÆ°á»Ŀng": 3836,
      "ĠAustralia": 3837,
      "ĠHá»£p": 3838,
      "ĠnhÅ©ng": 3839,
      "Ġchuá»Ļt": 3840,
      "ensis": 3841,
      "69": 3842,
      "ĠTá»±": 3843,
      "CÆ¡": 3844,
      "ĠXÃ´": 3845,
      "Ġmau": 3846,
      "NHH": 3847,
      "ake": 3848,
      "Ġxá»ī": 3849,
      "Ġthiá»ĩp": 3850,
      "Ġá»ĳc": 3851,
      "ull": 3852,
      "ĠTo": 3853,
      "ĠTiáº¿ng": 3854,
      "ĠKáº¿": 3855,
      "ĠghÃ©": 3856,
      "Ġ090": 3857,
      "ĠbÃ´ng": 3858,
      "Chi": 3859,
      "2018": 3860,
      "Thu": 3861,
      "xi": 3862,
      "ĠÄĳÃ³i": 3863,
      "ĠCÃ¹ng": 3864,
      "ĠÄĳá»Ľi": 3865,
      "Ġ05": 3866,
      "ĠTNHH": 3867,
      "Ġmá»Ŀ": 3868,
      "Ġvu": 3869,
      "Viet": 3870,
      "Ġváº¹n": 3871,
      "Æł": 3872,
      "da": 3873,
      "ngÆ°á»Ŀi": 3874,
      "ĠtÃ´m": 3875,
      "ĠmÃ¹": 3876,
      "ĠVÃło": 3877,
      "Ġnhan": 3878,
      "á»ĩn": 3879,
      "ĠthÆ°a": 3880,
      "ann": 3881,
      "Ġtriá»ĩt": 3882,
      "ĠMin": 3883,
      "ĠlÃºa": 3884,
      "MÃ¬nh": 3885,
      "ĠchÄĥn": 3886,
      "ĠLá»ĩ": 3887,
      "ĠHO": 3888,
      "ĠTHI": 3889,
      "Ġtrá»«ng": 3890,
      "ĠdÃŃnh": 3891,
      "Hoa": 3892,
      "ðŁĳĩ": 3893,
      "Ġstr": 3894,
      "41": 3895,
      "Ġ39": 3896,
      "ĠLÃłm": 3897,
      "ĠMessi": 3898,
      "ĠRonaldo": 3899,
      "Ġná»¥": 3900,
      "vent": 3901,
      "ti": 3902,
      "ĠÄĲÃ´": 3903,
      "ĠYork": 3904,
      "ĠTháºŃt": 3905,
      "Ġtá»±a": 3906,
      "Ġrights": 3907,
      "AO": 3908,
      "ĠTuyáº¿t": 3909,
      "ĠSEA": 3910,
      "ĠBÃ¢y": 3911,
      "Â©": 3912,
      "ĠGeo": 3913,
      "ĠquÃ¡t": 3914,
      "ĠÄĳá»Ĺ": 3915,
      "Ġrá»±c": 3916,
      "70": 3917,
      "Ġsp": 3918,
      "bum": 3919,
      "Ġthá»£": 3920,
      "Ġmá»¡": 3921,
      "Ġbá»įc": 3922,
      "á»§a": 3923,
      "65": 3924,
      "ĠCN": 3925,
      "SC": 3926,
      "ĠvÆ°á»Ľng": 3927,
      "ĠEx": 3928,
      "Ġ2009": 3929,
      "ĠÄĲáº¥t": 3930,
      "Ġlui": 3931,
      "ĠchÃ¡n": 3932,
      "Ġngá»£i": 3933,
      "Ġreserved": 3934,
      "ĠthÃ¢m": 3935,
      "Xe": 3936,
      "ome": 3937,
      "ĠHá»ĩ": 3938,
      "ĠbÃª": 3939,
      "Sá»©c": 3940,
      "Ġpl": 3941,
      "lymp": 3942,
      "cÃ³": 3943,
      "ke": 3944,
      "ĠSch": 3945,
      "Ġtiá»ħn": 3946,
      "erc": 3947,
      "ĠMÃ¬nh": 3948,
      "âĻ": 3949,
      "ĠIran": 3950,
      "ase": 3951,
      "ĠlÃ¡t": 3952,
      "ĠXÃ£": 3953,
      "Ġhoan": 3954,
      "ale": 3955,
      "Ġwebsite": 3956,
      "Ġmen": 3957,
      "RS": 3958,
      "Ġxáº¡": 3959,
      "cc": 3960,
      "Ġ400": 3961,
      "Tráº§n": 3962,
      "Ġman": 3963,
      "79": 3964,
      "ject": 3965,
      "Giá»Ŀ": 3966,
      "ose": 3967,
      "ict": 3968,
      "SD": 3969,
      "ĠTrá»ĭ": 3970,
      "HÃ£y": 3971,
      "Ľn": 3972,
      "ĠLam": 3973,
      "Ġdá»įn": 3974,
      "Ġthat": 3975,
      "ĠTrá»Ŀi": 3976,
      "ovic": 3977,
      "ĠBáº¥t": 3978,
      "ve": 3979,
      "Ġváº£": 3980,
      "Xin": 3981,
      "ĠÆ°a": 3982,
      "ThÃłnh": 3983,
      "75": 3984,
      "á»ĥn": 3985,
      "ere": 3986,
      "ĠMá»įi": 3987,
      "oáº£ng": 3988,
      "BÆ°á»Ľc": 3989,
      "ĠHÃ¡n": 3990,
      "ĠChampions": 3991,
      "ÄĲV": 3992,
      "Ġhttp": 3993,
      "FF": 3994,
      "ĠÃģnh": 3995,
      "pt": 3996,
      "raz": 3997,
      "Ná»¯": 3998,
      "Ġnháº¯m": 3999,
      "IC": 4000,
      "accine": 4001,
      "42": 4002,
      "ĠCháº³ng": 4003,
      "ĠHÃłnh": 4004,
      "In": 4005,
      "TM": 4006,
      "Ġná»ĵng": 4007,
      "ĠÃļc": 4008,
      "ĠÄĳÃ¹a": 4009,
      "tain": 4010,
      "áºł": 4011,
      "Ġmá»īm": 4012,
      "ĠTráº»": 4013,
      "Ġsmartphone": 4014,
      "Ġsá»£i": 4015,
      "BVCB": 4016,
      "ĠhÃ´i": 4017,
      "ero": 4018,
      "ĠðŁĺĤ": 4019,
      "ĠrÅ©": 4020,
      "ĠdÃ¢ng": 4021,
      "Ġkem": 4022,
      "Ġá»©c": 4023,
      "over": 4024,
      "go": 4025,
      "ave": 4026,
      "Ġnháº¡t": 4027,
      "Ġlá»ĩch": 4028,
      "ONG": 4029,
      "Ġsá»ĳc": 4030,
      "Ġrun": 4031,
      "Vay": 4032,
      "ĠThá»ĥ": 4033,
      "Ġná»ģ": 4034,
      "Ġbá»ķng": 4035,
      "ĠBÃ¡": 4036,
      "ĠSte": 4037,
      "ĠUng": 4038,
      "ya": 4039,
      "Bank": 4040,
      "Ġdc": 4041,
      "ĠÄĲáº¡o": 4042,
      "Cl": 4043,
      "aul": 4044,
      "va": 4045,
      "ĠquÃ©t": 4046,
      "ĠTÃ´": 4047,
      "ĠBá»ĵ": 4048,
      "Ġmáº¡n": 4049,
      "ĠHÆ¡n": 4050,
      "ĠÆ°": 4051,
      "ĠngÃ³n": 4052,
      "âĢĭ": 4053,
      "ube": 4054,
      "ĠCol": 4055,
      "Ġvs": 4056,
      "ĠEU": 4057,
      "ĠháºŃn": 4058,
      "tÃ´": 4059,
      "ĠniÃªm": 4060,
      "ĠGalaxy": 4061,
      "Ar": 4062,
      "use": 4063,
      "ĠViÃªn": 4064,
      "aceae": 4065,
      "ĠtrÄĥng": 4066,
      "ĠOlymp": 4067,
      "ĠPhá»¥": 4068,
      "NguyÃªn": 4069,
      "Ġ>": 4070,
      "Ġdáº¡o": 4071,
      "gg": 4072,
      "Ġmáº¿n": 4073,
      "ĠlÄĥn": 4074,
      "Ġthá»±": 4075,
      "ĠÄĳÃłnh": 4076,
      "ĠAP": 4077,
      "Ġháº¹p": 4078,
      "Ġ150": 4079,
      "AY": 4080,
      "cl": 4081,
      "Ġkhuyáº¿t": 4082,
      "Ġlá»¡": 4083,
      "Ġmá»ĵ": 4084,
      "**": 4085,
      "ngÃły": 4086,
      "icros": 4087,
      "Ġhot": 4088,
      "Video": 4089,
      "Ġven": 4090,
      "ign": 4091,
      "Ġgiang": 4092,
      "Ġcay": 4093,
      "Há»į": 4094,
      "itamin": 4095,
      "Website": 4096,
      "Ġ00": 4097,
      "etr": 4098,
      "ĠDI": 4099,
      "ĠdÃ²": 4100,
      "ĠTrÃŃ": 4101,
      "ĠvÆ°Æ¡n": 4102,
      "Ġ01": 4103,
      "Ġtoi": 4104,
      "ThÃ¡ng": 4105,
      "Ġcháº£": 4106,
      "LÃºc": 4107,
      "ĠSeo": 4108,
      "ĠVá»¥": 4109,
      "ĠMos": 4110,
      "ide": 4111,
      "ĠkhÃ´i": 4112,
      "ĠParis": 4113,
      "ĠMac": 4114,
      "ĠMau": 4115,
      "Báº¯t": 4116,
      "ĠcáºŃy": 4117,
      "áº·m": 4118,
      "ka": 4119,
      "ĠTrÃ¡i": 4120,
      "Ġtiá»ĩm": 4121,
      "ari": 4122,
      "err": 4123,
      "ĠVan": 4124,
      "ĠCáºŃu": 4125,
      "Ġnáº¡p": 4126,
      "PhÆ°Æ¡ng": 4127,
      "ĠÄĲÃºng": 4128,
      "ena": 4129,
      "ĠLá»£i": 4130,
      "ĠHÃ¬nh": 4131,
      "ĠÄĲá»ģ": 4132,
      "53": 4133,
      "ðŁĺĤðŁĺĤ": 4134,
      "HÃ´m": 4135,
      "per": 4136,
      "ĠÄĳáº»": 4137,
      "HÃ¬nh": 4138,
      "Ġtuá»ĩ": 4139,
      "Ġváº¡n": 4140,
      "Ġhang": 4141,
      "ĠKhÃ¡ch": 4142,
      "Ġnháº§m": 4143,
      "iden": 4144,
      "ĠÄĳáº¯c": 4145,
      "ĠMon": 4146,
      "oáº¡n": 4147,
      "ĠkhÃ³i": 4148,
      "Ġngá»¥": 4149,
      "Ġkhá»©": 4150,
      "ĠThÃ¡ng": 4151,
      "ĠMail": 4152,
      "ade": 4153,
      "ors": 4154,
      "ĠgÃ¡nh": 4155,
      "ĠtÃ¡m": 4156,
      "Ġthuáº§n": 4157,
      "Ġmá»Ļng": 4158,
      "ĠLá»¥c": 4159,
      "Ġwww": 4160,
      "int": 4161,
      "ĠMil": 4162,
      "ĠÄĳáº§m": 4163,
      "RE": 4164,
      "ĠlÃ´i": 4165,
      "aa": 4166,
      "Ġtá»Ľ": 4167,
      "ĠHonda": 4168,
      "Ġ07": 4169,
      "ĠLÄĥng": 4170,
      "ĠThÃ¹y": 4171,
      "ĠKiáº¿m": 4172,
      "ĠFr": 4173,
      "Ġ2007": 4174,
      "ÄĲá»Ļi": 4175,
      "........": 4176,
      "Ġcai": 4177,
      "car": 4178,
      "á»ĭt": 4179,
      "utin": 4180,
      "Ġchinh": 4181,
      ";#": 4182,
      "ĠTU": 4183,
      "urg": 4184,
      "ÄĤ": 4185,
      "ãĤ": 4186,
      "ĠPV": 4187,
      "ws": 4188,
      "ational": 4189,
      "Ġphiá»ģn": 4190,
      "ĠmÆ°á»£n": 4191,
      "ĠghÃ©p": 4192,
      "ĠthÃ¡nh": 4193,
      "HÃłng": 4194,
      "ĠAb": 4195,
      "??": 4196,
      "ĠnÃ¡t": 4197,
      "ella": 4198,
      "ĠBang": 4199,
      "Ġdá»ĳc": 4200,
      "ĠÄĲáº¡t": 4201,
      "ĠLiverpool": 4202,
      "Ġ48": 4203,
      "Táº¥t": 4204,
      "Ġdá»ĵn": 4205,
      "ead": 4206,
      "%)": 4207,
      "ĠTÃ²a": 4208,
      "https": 4209,
      "Ġmá»ıng": 4210,
      "Ġphá»ķi": 4211,
      "ĠBÃŃch": 4212,
      "ĠkhÃ©o": 4213,
      "Ġsáº¡c": 4214,
      "Thá»©": 4215,
      "ĠMo": 4216,
      "ĠLáº¡c": 4217,
      "Iá»Ĩ": 4218,
      "ĠArsenal": 4219,
      "een": 4220,
      "Ġthuáº«n": 4221,
      "Ġmá»ı": 4222,
      "Nga": 4223,
      "ĠSamsung": 4224,
      "ĠTuá»ķi": 4225,
      "Ġquyáº¿n": 4226,
      "Ġláº¡m": 4227,
      "icrosoft": 4228,
      "Ġ|": 4229,
      "CÃ¡i": 4230,
      "ÄĲáº·c": 4231,
      "CÃ¢u": 4232,
      "GS": 4233,
      "Æ¡m": 4234,
      "ĠchÆ°á»Łng": 4235,
      "atch": 4236,
      "Ġlá»Ļn": 4237,
      "Ġchai": 4238,
      "Ġmáº§m": 4239,
      "ĠbuÃ´ng": 4240,
      "ĠbÃºt": 4241,
      "ĠTÆ°á»Ŀng": 4242,
      "Ġinch": 4243,
      "ĠVÃ´": 4244,
      "Ġnhá»±a": 4245,
      "Ġcá»¥m": 4246,
      "Ġxáº£": 4247,
      "ĠHáº¯n": 4248,
      "ĠLÃł": 4249,
      "ĠRob": 4250,
      "ĠKhanh": 4251,
      "63": 4252,
      "ĠQua": 4253,
      "Má»Ľi": 4254,
      "52": 4255,
      "Ná»Ļi": 4256,
      "ðŁĮ": 4257,
      "Ġcáº¯p": 4258,
      "Ġhuyá»ģn": 4259,
      "lin": 4260,
      "ĠToyota": 4261,
      "Ġvoi": 4262,
      "ĠÄĳuÃ´i": 4263,
      "ĠIS": 4264,
      "Hi": 4265,
      "IA": 4266,
      "Ġno": 4267,
      "Ġngá»įc": 4268,
      "Fanpage": 4269,
      "Ġcáº¯m": 4270,
      "ĠVÅ©ng": 4271,
      "Ġtest": 4272,
      "Ġmáº£ng": 4273,
      "ĠÄĲan": 4274,
      "ĠNgÆ°Æ¡i": 4275,
      "ony": 4276,
      "Ġnho": 4277,
      "men": 4278,
      "Ġsim": 4279,
      "BÃ¬nh": 4280,
      "Ġcua": 4281,
      "ĠlÃ²": 4282,
      "ory": 4283,
      "Há»Ļi": 4284,
      "razil": 4285,
      "Ġkhoáº£nh": 4286,
      "ĠbÃ¨n": 4287,
      "Ġgáº¥u": 4288,
      "ĠThá»ĳng": 4289,
      "ĠVy": 4290,
      "Máº¹": 4291,
      "á»¥p": 4292,
      "âĢįâĢį": 4293,
      "ĠÄĳá»ĵi": 4294,
      "ĠhoÃłi": 4295,
      "ĠHan": 4296,
      "xy": 4297,
      "ett": 4298,
      "ĠLáº¡t": 4299,
      "eh": 4300,
      "ĠCai": 4301,
      "ĠHÄĲ": 4302,
      "Ġváº¥t": 4303,
      "ĠngÃło": 4304,
      "BÃ¡o": 4305,
      "ÄĲiá»ĥm": 4306,
      "ĠCanada": 4307,
      "ChÄĥm": 4308,
      "Gia": 4309,
      "Má»Ĺi": 4310,
      "98": 4311,
      "ĠthÃ¹ng": 4312,
      "Ai": 4313,
      "ÄĲi": 4314,
      "gent": 4315,
      "ĠdÄ©": 4316,
      "Ġdá»ĳi": 4317,
      "ize": 4318,
      "ĠghÃª": 4319,
      "Bá»ĩnh": 4320,
      "ĠCMND": 4321,
      "ĠOnline": 4322,
      "Ġme": 4323,
      "giá»": 4324,
      "ĠcÆ°á»¡ng": 4325,
      "Ġvaccine": 4326,
      "Ġbá»ıng": 4327,
      "ĠĠĠĠĠ": 4328,
      "ĠhÃł": 4329,
      "ĠTS": 4330,
      "Ġtrá»Ļn": 4331,
      "ðŁ¤£ðŁ¤£": 4332,
      "ĠCung": 4333,
      "ĠNhu": 4334,
      "ĠtÆ°á»Ľc": 4335,
      "ĠSo": 4336,
      "ĠCa": 4337,
      "ĠAng": 4338,
      "Ho": 4339,
      "yn": 4340,
      "aha": 4341,
      "AI": 4342,
      "Ġlá»Ł": 4343,
      "Ġhá»Ł": 4344,
      "top": 4345,
      "Ġinter": 4346,
      "Ġdá»Ļi": 4347,
      "eld": 4348,
      "Ġchip": 4349,
      "Ġláº¥p": 4350,
      "Ġ<": 4351,
      "Ġhu": 4352,
      "Ġcá»ĳc": 4353,
      "ĠPhá»§": 4354,
      "Ġby": 4355,
      "iew": 4356,
      "ild": 4357,
      "NhÃ¢n": 4358,
      "ĠChÃ¡nh": 4359,
      "ĠÃ¡": 4360,
      "Ġtáº¿t": 4361,
      "ÃŃu": 4362,
      "ED": 4363,
      "Xem": 4364,
      "ET": 4365,
      "ĠMay": 4366,
      "FA": 4367,
      "ĠSal": 4368,
      "ĠPutin": 4369,
      "ĠBu": 4370,
      "CáºŃp": 4371,
      "ĠCal": 4372,
      "Ġmá»ķ": 4373,
      "Æ¯á»": 4374,
      "ĠMC": 4375,
      "2017": 4376,
      "enz": 4377,
      "QuÃ¢n": 4378,
      "Ġhiá»ģn": 4379,
      "á»Ĳ": 4380,
      "ba": 4381,
      "uters": 4382,
      "ius": 4383,
      "Ġyáº¿t": 4384,
      "ĠchÃ©m": 4385,
      "Ġcá»ĳng": 4386,
      "Ta": 4387,
      "ãĥ": 4388,
      "ðŁĺĺ": 4389,
      "ĠtrÃ¡ng": 4390,
      "LÃ½": 4391,
      "ĠkhoÃ¡ng": 4392,
      "NhÃ¬n": 4393,
      "ĠCáº©m": 4394,
      "HÆ¡n": 4395,
      "TÃ¬nh": 4396,
      "ĠchÃ©p": 4397,
      "ĠXe": 4398,
      "Cáº£m": 4399,
      "ON": 4400,
      "Minh": 4401,
      "ĠkhoÃ¡c": 4402,
      "ĠDá»ĭch": 4403,
      "ĠThá»«a": 4404,
      "ĠCuá»ĳi": 4405,
      "2016": 4406,
      "Ġmá»įc": 4407,
      "Ġkhiáº¿u": 4408,
      "aria": 4409,
      "Ġgá»ĳi": 4410,
      "ĠhoÃł": 4411,
      "ĠBao": 4412,
      "Ġoi": 4413,
      "HÆ°á»Ľng": 4414,
      "ĠNgÃ£i": 4415,
      "ĠThá»ĭnh": 4416,
      "ĠÄĲÃ£": 4417,
      "ĠÄĲá»«ng": 4418,
      "ĠghÃ©t": 4419,
      "udi": 4420,
      "ĠCÃ¢u": 4421,
      "ĠmÅ©": 4422,
      "Dinh": 4423,
      "Ġheo": 4424,
      "ĠHÃ´m": 4425,
      "ese": 4426,
      "ĠBiden": 4427,
      "ĠBáº¿n": 4428,
      "ĠcÃºi": 4429,
      "aly": 4430,
      "ance": 4431,
      "Ġthá»ķi": 4432,
      "ĠDanh": 4433,
      "ĠDoanh": 4434,
      "áº¬": 4435,
      "Ġ2000": 4436,
      "Ġráº¡ng": 4437,
      "ĠÄĲiá»ĥm": 4438,
      "ashing": 4439,
      "Ban": 4440,
      "ĠâĢĺ": 4441,
      "att": 4442,
      "ĠtrÃ¢n": 4443,
      "Ġalbum": 4444,
      ".&": 4445,
      "76": 4446,
      "įa": 4447,
      "ĠchÃ¢m": 4448,
      "Ġnháº¡y": 4449,
      "ĠOlympic": 4450,
      "ise": 4451,
      "ement": 4452,
      "ĠláºŃt": 4453,
      "âľħ": 4454,
      "olf": 4455,
      "QÄĲND": 4456,
      "Qua": 4457,
      "ĠÄĳá»Ľn": 4458,
      "ĠOp": 4459,
      "ĠVÃłng": 4460,
      "ĠHang": 4461,
      "Ġhá»Ĺn": 4462,
      "ĠMart": 4463,
      "ashington": 4464,
      "ĠMc": 4465,
      "Ġ120": 4466,
      "ĠThÃ¡nh": 4467,
      "ĠmÃ¨o": 4468,
      "aka": 4469,
      "ĠÄĲi": 4470,
      "ott": 4471,
      "ĠDAN": 4472,
      "Ġthoáº£ng": 4473,
      "ĠÄĳao": 4474,
      "Ġ33": 4475,
      "Ġcomp": 4476,
      "ĠDav": 4477,
      "VOV": 4478,
      "ĠNhung": 4479,
      "Dáº¡": 4480,
      "Ġong": 4481,
      "ime": 4482,
      "Ġserv": 4483,
      "ÄĲáº§u": 4484,
      "evel": 4485,
      "Ġ2006": 4486,
      "ĠThÃ´i": 4487,
      "Ġtuyáº¿t": 4488,
      "ĠUyÃªn": 4489,
      "ĠthÃ´": 4490,
      "ĠdáºŃp": 4491,
      "ĠgiÃ¡n": 4492,
      "BC": 4493,
      "ĠTiáº¿p": 4494,
      "ĠÄĳáº±ng": 4495,
      "ĠkhÆ¡i": 4496,
      "ĠtrÆ°á»£t": 4497,
      "Ġlá»ĵng": 4498,
      "ĠYou": 4499,
      "LÃª": 4500,
      "ĠAI": 4501,
      "ĠAt": 4502,
      "yo": 4503,
      "âĿ¤ï¸ıâĿ¤ï¸ı": 4504,
      "Ġcj": 4505,
      "Ġsc": 4506,
      "wit": 4507,
      "Ġcá»§ng": 4508,
      "ĠCS": 4509,
      "ĠláºŃu": 4510,
      "ĠthÃ¡p": 4511,
      "ĠmÃ¢u": 4512,
      "ĠSÃ¡ng": 4513,
      "so": 4514,
      "ChÃºc": 4515,
      "Al": 4516,
      "Ġlam": 4517,
      "ĠTáº§n": 4518,
      "ĠThÄĥng": 4519,
      "ĠBrazil": 4520,
      "ĠTinh": 4521,
      "ĠÄĳá»©t": 4522,
      "iu": 4523,
      "Ġbáº¿": 4524,
      "UYEN": 4525,
      "ĠlÆ°á»¡i": 4526,
      "PhÃ³": 4527,
      "ĠOb": 4528,
      "gentina": 4529,
      "ĠBay": 4530,
      "ĠVÃŃ": 4531,
      "ove": 4532,
      "ĠmÃ²": 4533,
      "ĠxÃ¡ch": 4534,
      "ĠSáº£n": 4535,
      "51": 4536,
      "ĠrÃ¨n": 4537,
      "Ġup": 4538,
      "ĠBHXH": 4539,
      "Ġbáº¥m": 4540,
      "2015": 4541,
      "rael": 4542,
      "ĠAlex": 4543,
      "ĠMá»Ļc": 4544,
      "Æ°á»Łi": 4545,
      "HLV": 4546,
      "Ġvitamin": 4547,
      "rist": 4548,
      "Ġcong": 4549,
      "TráºŃn": 4550,
      "Ġváº·t": 4551,
      "ean": 4552,
      "Ġ84": 4553,
      "Ġkháº½": 4554,
      "my": 4555,
      "aph": 4556,
      "300": 4557,
      "ĠngÆ¡i": 4558,
      "Quáº£ng": 4559,
      "td": 4560,
      "ĠCáº£m": 4561,
      "ĠmÃłng": 4562,
      "mer": 4563,
      "ĠKiáº¿n": 4564,
      "ĠChÃ¢n": 4565,
      "ĠWashington": 4566,
      "ĠMich": 4567,
      "Ġmá»Ļc": 4568,
      "ĠNÆ°á»Ľc": 4569,
      "ĠBÄĥng": 4570,
      "ĠQuÃ¡n": 4571,
      "berg": 4572,
      "ĠMÃ´n": 4573,
      "Cáº£": 4574,
      "ĠCÃł": 4575,
      "Ġáº¥p": 4576,
      "ĠTrÃºc": 4577,
      "Cáº£nh": 4578,
      "pe": 4579,
      "vov": 4580,
      "ĠmÃŃt": 4581,
      "ole": 4582,
      "ÄĲÃ£": 4583,
      "Ġthá»į": 4584,
      "ĠtrÃ¹m": 4585,
      "let": 4586,
      "ĠtÃ²": 4587,
      "ĠHay": 4588,
      "Ġluá»ĵng": 4589,
      "Ġkhá»Ľp": 4590,
      "ĠsÆ°á»Ľng": 4591,
      "ðŁĺįðŁĺį": 4592,
      "ĠTháºŃm": 4593,
      "SGT": 4594,
      "TVT": 4595,
      "âĿ¤âĿ¤": 4596,
      "che": 4597,
      "ĠkhÃ¢u": 4598,
      "League": 4599,
      "ima": 4600,
      "ives": 4601,
      "ĠReuters": 4602,
      "Bá»ĭ": 4603,
      "Kim": 4604,
      "ĠCá»Ńu": 4605,
      "ĠCá»©": 4606,
      "ford": 4607,
      "ĠdÃ¬": 4608,
      "ĠthoÃ¡i": 4609,
      "row": 4610,
      "64": 4611,
      "CáºŃu": 4612,
      "ris": 4613,
      "St": 4614,
      "80": 4615,
      "Ġtá»įa": 4616,
      "Ġhá»¥": 4617,
      "low": 4618,
      "ĠLá»±c": 4619,
      "Ġdata": 4620,
      "má»Ļt": 4621,
      "otte": 4622,
      "ĠXII": 4623,
      "Ġlá»ģ": 4624,
      "ĠlÄĥng": 4625,
      "Ġmáº»": 4626,
      "ĠmÃºa": 4627,
      "BS": 4628,
      "ThÃ¡i": 4629,
      "ĠMas": 4630,
      "Ġtrá»į": 4631,
      "ĠOs": 4632,
      "ĠsÆ°Æ¡ng": 4633,
      "ĠcÃºng": 4634,
      "Cuá»ĳi": 4635,
      "IM": 4636,
      "ĠQuá»¹": 4637,
      "Ġmuá»Ļi": 4638,
      "ĠPal": 4639,
      "me": 4640,
      "ĠlÆ°á»¡ng": 4641,
      "Ba": 4642,
      "ĠAg": 4643,
      "ĠXuyÃªn": 4644,
      "ĠTÄĥng": 4645,
      "NháºŃn": 4646,
      "ĠRom": 4647,
      "ĠNguyá»ĩt": 4648,
      "Ġemail": 4649,
      "iev": 4650,
      "Ãį": 4651,
      "eta": 4652,
      "ĠtÃŃm": 4653,
      "Tá»ĳi": 4654,
      "ĠGrand": 4655,
      "ĠMÃ´i": 4656,
      "inho": 4657,
      "ics": 4658,
      "Há»ĵi": 4659,
      "ham": 4660,
      "ula": 4661,
      "Ġvá»Ł": 4662,
      "ĠHC": 4663,
      "Ġnáº£y": 4664,
      "EO": 4665,
      "Ġcuá»ĵng": 4666,
      "ĠthÃ¨m": 4667,
      "ĠgÃ¡c": 4668,
      "ĠÄĲá»": 4669,
      "ĠStr": 4670,
      "Báº£o": 4671,
      "Ngá»įc": 4672,
      "ĠMicrosoft": 4673,
      "Ġnáº§y": 4674,
      "89": 4675,
      "ĠKá»¹": 4676,
      "Ġtháº¯t": 4677,
      "ael": 4678,
      "Trang": 4679,
      "DC": 4680,
      "Ġchá»Ń": 4681,
      ".\"": 4682,
      "ĠOanh": 4683,
      "ĠngÃµ": 4684,
      "ĠxÃ´ng": 4685,
      "ĠAc": 4686,
      "van": 4687,
      "ĠâĪĴ": 4688,
      "1000": 4689,
      "ĠSun": 4690,
      "ĠCÃºc": 4691,
      "ĠÄĳáº¯p": 4692,
      "?&": 4693,
      "ĠHong": 4694,
      "ĠEn": 4695,
      "ĠgÃ¬n": 4696,
      "Ġfrom": 4697,
      "ova": 4698,
      "__": 4699,
      "ĠCha": 4700,
      "eu": 4701,
      "AG": 4702,
      "yc": 4703,
      "Ġnáº¥m": 4704,
      "ĠkhÃ´n": 4705,
      "itor": 4706,
      "NháºŃt": 4707,
      "celona": 4708,
      "ater": 4709,
      "Há»ĵ": 4710,
      "ings": 4711,
      "ATO": 4712,
      "Ġkhoáº»": 4713,
      "ĠxÆ°á»Łng": 4714,
      "Ġlá»ıng": 4715,
      "ward": 4716,
      "ĠBe": 4717,
      "ChÃłng": 4718,
      "ela": 4719,
      "ĠQU": 4720,
      "ĠNgÃłi": 4721,
      "Ġ34": 4722,
      "ĠvÃº": 4723,
      "Má»įi": 4724,
      "Ġtrá»Ļi": 4725,
      "Ġcá»±": 4726,
      "bia": 4727,
      "ĠTá»ĳng": 4728,
      "ko": 4729,
      "Ġ55": 4730,
      "/.": 4731,
      "fr": 4732,
      "ANH": 4733,
      "Cáº§n": 4734,
      "Ġit": 4735,
      "ĠNhÆ¡n": 4736,
      "ĠMus": 4737,
      "Ind": 4738,
      "ĠArgentina": 4739,
      "ĠLáº§n": 4740,
      "ĠnghiÃªng": 4741,
      "ĠgÃ£y": 4742,
      "Ã²m": 4743,
      "Ġtháº¥u": 4744,
      "Ġre": 4745,
      "ĠTV": 4746,
      "ĠGre": 4747,
      "Ġdáº·n": 4748,
      "Ġsuá»ĳi": 4749,
      "Ġphanh": 4750,
      "lÆ°á»£ng": 4751,
      "Ġbá»Ļi": 4752,
      "ĠShop": 4753,
      "ĠchÃª": 4754,
      "¯a": 4755,
      "Ġngá»Ļt": 4756,
      "ĠlÆ°á»Ľt": 4757,
      "ĠÃło": 4758,
      "Ġmod": 4759,
      "ney": 4760,
      "ĠBÃ¡ch": 4761,
      "ĠÃ´tÃ´": 4762,
      "ĠhoÃ£n": 4763,
      "EC": 4764,
      "MÃ£": 4765,
      "Ġcáº¯n": 4766,
      "ĠÄĳá»¥": 4767,
      "ĠThÃ¡p": 4768,
      "ult": 4769,
      "Ġ75": 4770,
      "EX": 4771,
      "ĠFanpage": 4772,
      "ĠBarca": 4773,
      "ĠkhÃ¡i": 4774,
      "ĠÄĲá»Ļng": 4775,
      "ĠÄĳiá»ģn": 4776,
      "ĠTÃŃnh": 4777,
      "ĠKiá»ĩt": 4778,
      "95": 4779,
      "ĠSm": 4780,
      "ĠDiá»ħn": 4781,
      "áº»o": 4782,
      "Ġláº¥n": 4783,
      "Chuyá»ĩn": 4784,
      "Ġrung": 4785,
      "ĠHarry": 4786,
      "ited": 4787,
      "Ġkhe": 4788,
      "ĠLáº¯k": 4789,
      "ala": 4790,
      "ĠÄĲáº¿": 4791,
      "illa": 4792,
      "Ġam": 4793,
      "62": 4794,
      "ĠÄĲiá»ĥn": 4795,
      "Ġláº·p": 4796,
      "oper": 4797,
      "ÄĲá»«ng": 4798,
      "sinh": 4799,
      "yd": 4800,
      "ĠPhÃ¹ng": 4801,
      "blo": 4802,
      "Pháº¡m": 4803,
      "AND": 4804,
      "ks": 4805,
      "IS": 4806,
      "ĠMor": 4807,
      "87": 4808,
      "ĠhÃ©t": 4809,
      "Ġtháº¡ch": 4810,
      "Ġhiáº¿p": 4811,
      "Ġ600": 4812,
      "ĠMV": 4813,
      "Ġá»ĵn": 4814,
      "Ġtam": 4815,
      "Ġquá»·": 4816,
      "jok": 4817,
      "ĠThiá»ĩn": 4818,
      "ĠLang": 4819,
      "ĠvÃ³c": 4820,
      "ations": 4821,
      "ĠhÃ²n": 4822,
      "Há»įc": 4823,
      "ifone": 4824,
      "ÃĿ": 4825,
      "Ġbáº¯p": 4826,
      "Ġbo": 4827,
      "ĠBá»ĳ": 4828,
      "áº¦": 4829,
      "ĠKhang": 4830,
      "ux": 4831,
      "ĠHe": 4832,
      "ĠVÃ¹ng": 4833,
      "ĠTRI": 4834,
      "ĠdÃ£y": 4835,
      "Ġbáº¥y": 4836,
      "ĠGTVT": 4837,
      "ĠÄĳÃ²n": 4838,
      "Ġkhiáº¿p": 4839,
      "ĠCÆ°Æ¡ng": 4840,
      "cho": 4841,
      "anth": 4842,
      "ĠCháº¯c": 4843,
      "VÄĥn": 4844,
      "istr": 4845,
      "Sá»Ł": 4846,
      "ĠngÃ¢m": 4847,
      "opter": 4848,
      "unt": 4849,
      "Ġkáº¹t": 4850,
      "TháºŃt": 4851,
      "Ġcáº¡n": 4852,
      "cm": 4853,
      "ĠOr": 4854,
      "Thá»ĭ": 4855,
      "ĠlÆ°á»Ŀng": 4856,
      "Ġxao": 4857,
      "ĠvÃłnh": 4858,
      "ĠÄĲiá»ģn": 4859,
      "\")": 4860,
      "ĠJu": 4861,
      "Ġbn": 4862,
      "akh": 4863,
      "ĠRa": 4864,
      "jokovic": 4865,
      "Ġdáº¡i": 4866,
      "ĠKar": 4867,
      "Ġtháº¯c": 4868,
      "Ġkiá»ĩt": 4869,
      "ano": 4870,
      "Ġ2005": 4871,
      "Ġtour": 4872,
      "ĠCSGT": 4873,
      ".)": 4874,
      "Báº£n": 4875,
      "ĠNhá»Ŀ": 4876,
      "ĠPet": 4877,
      "Ġgáº¯t": 4878,
      "chá»ĭ": 4879,
      "ĠLee": 4880,
      "á»ıa": 4881,
      "oss": 4882,
      "ont": 4883,
      "ĠHáº§u": 4884,
      "ĠHol": 4885,
      "ĠVal": 4886,
      "Danh": 4887,
      "uct": 4888,
      "uz": 4889,
      "ĠIsrael": 4890,
      "ĠdÅ©ng": 4891,
      "ĠTÃªn": 4892,
      "str": 4893,
      "Ġ(\"": 4894,
      "CoV": 4895,
      "ĠĠĠĠĠĠĠ": 4896,
      "Ġchá»Ľp": 4897,
      "Hot": 4898,
      "ĠFed": 4899,
      "ĠÄĳÃ¡y": 4900,
      "ĠLiÃªu": 4901,
      "áº¿ch": 4902,
      "Triá»ĩu": 4903,
      "Ġ093": 4904,
      "á»£t": 4905,
      "osa": 4906,
      "Ġ65": 4907,
      "Ġhá»¥t": 4908,
      "ĠDr": 4909,
      "--------": 4910,
      "ĠCáºŃp": 4911,
      "ĠMÃł": 4912,
      "ĠTÃ´ng": 4913,
      "ĠRes": 4914,
      "ss": 4915,
      "ĠNhÃ¬n": 4916,
      "ital": 4917,
      "Ġnhá»ĭ": 4918,
      "Net": 4919,
      "Ġmáº·n": 4920,
      "Ġdá»Ł": 4921,
      "?âĢĿ": 4922,
      "Ġngá»±": 4923,
      "Ġkhá»ĳng": 4924,
      "Pháº£i": 4925,
      "Ġare": 4926,
      "Trao": 4927,
      "ĠSam": 4928,
      "by": 4929,
      "ĠkÄ©": 4930,
      "Ġlau": 4931,
      "Ġngoan": 4932,
      "ml": 4933,
      "Ġquyá»ĥn": 4934,
      "ĠBAO": 4935,
      "ĠChÆ°a": 4936,
      "ĠvÃ¢n": 4937,
      "Tiá»ĥu": 4938,
      "Pháº§n": 4939,
      "ĠPhá»¥ng": 4940,
      "de": 4941,
      "Ġmá»¥n": 4942,
      "ery": 4943,
      "itt": 4944,
      "ĠLáº¡p": 4945,
      "ĠphÃŃm": 4946,
      "ĠLáºŃp": 4947,
      "Ġmm": 4948,
      "ĠQuyá»ģn": 4949,
      "HO": 4950,
      "Ãĵ": 4951,
      "edia": 4952,
      "MÃ¡y": 4953,
      "Ġrá»Ļn": 4954,
      "ja": 4955,
      "Ġná»ĵi": 4956,
      "ĠMailisa": 4957,
      "Ġruá»Ļng": 4958,
      "ĠÄĳá»¥ng": 4959,
      "ĠkiÃªm": 4960,
      "ĠkhÃ©p": 4961,
      "BÃ¡c": 4962,
      "Chiáº¿c": 4963,
      "Ġcar": 4964,
      "undai": 4965,
      "ĠHiá»ĩu": 4966,
      "hoc": 4967,
      "ĠLÃ£nh": 4968,
      "ren": 4969,
      "chi": 4970,
      "Ġoff": 4971,
      "ĠÆ°ng": 4972,
      "ĠKr": 4973,
      "ĠmÃŃ": 4974,
      "ĠLiÃªm": 4975,
      "Háº£i": 4976,
      "ĠtÃ¹ng": 4977,
      "Ġ2004": 4978,
      "ura": 4979,
      "Ġhiáº¿u": 4980,
      "Ġchuá»Ļng": 4981,
      "rl": 4982,
      "ĠTin": 4983,
      "Ġbáº©n": 4984,
      "ĠToÃ¡n": 4985,
      "ĠÃ³c": 4986,
      "sp": 4987,
      "ĠTháº¥t": 4988,
      "SND": 4989,
      "ĠOpen": 4990,
      "ĠÄĲá»ĵ": 4991,
      "que": 4992,
      "Ġtáº¡": 4993,
      "ĠPC": 4994,
      "ĠVáº¡n": 4995,
      "ĠRo": 4996,
      "ĠSl": 4997,
      "Ġvan": 4998,
      "able": 4999,
      "TR": 5000,
      "ĠvuÃ´ng": 5001,
      "iga": 5002,
      "ĠÃ´n": 5003,
      "ĠTrÄĥng": 5004,
      "JC": 5005,
      "tra": 5006,
      "ida": 5007,
      "Ġkhuy": 5008,
      "Ġsoi": 5009,
      "¨ng": 5010,
      "ĠDiá»ĩp": 5011,
      "ĠcÆ°ng": 5012,
      "ÄĲÆ°á»Ŀng": 5013,
      "ĠLá»¯": 5014,
      "ree": 5015,
      "ĠCor": 5016,
      "Mai": 5017,
      "Ġnáº¿p": 5018,
      "ĠViá»ħn": 5019,
      "Ġtáº§n": 5020,
      "ĠQuyÃªn": 5021,
      "Khu": 5022,
      "ĠDuyÃªn": 5023,
      "ĠgÅ©i": 5024,
      "Ġnghiá»ĩn": 5025,
      "witter": 5026,
      "Ġlá»©a": 5027,
      "Ã¼": 5028,
      "ĠBáº¡c": 5029,
      "ĠPrem": 5030,
      "ĠTráº¯ng": 5031,
      "arket": 5032,
      "ĠWill": 5033,
      "ÄĲÃºng": 5034,
      "ĠxÃ´": 5035,
      "TB": 5036,
      "ĠGroup": 5037,
      "ĠBen": 5038,
      "ĠNhÃ³m": 5039,
      "ĠSU": 5040,
      "MBVCB": 5041,
      "ler": 5042,
      "ĠÃºy": 5043,
      "Ġgen": 5044,
      "ĠquÃ£ng": 5045,
      "400": 5046,
      "86": 5047,
      "Ġson": 5048,
      "ĠxÆ°ng": 5049,
      "ĠsáºŃp": 5050,
      "ĠtrÃ¢u": 5051,
      "Ġá»Ľt": 5052,
      "ĠkÃ¬a": 5053,
      "Ġnhá»Ł": 5054,
      "Ġor": 5055,
      "Ġdáº·m": 5056,
      "ire": 5057,
      "Ġbá»ĥ": 5058,
      "ĠcÃ´n": 5059,
      "Ġgáº¡ch": 5060,
      "ANG": 5061,
      "ĠTháº©m": 5062,
      "ĠdÃ¡n": 5063,
      "Ä±": 5064,
      "Ġ250": 5065,
      "Ġtui": 5066,
      "press": 5067,
      "ĠtÃª": 5068,
      "ĠPSG": 5069,
      "ĠchÃ©n": 5070,
      "ĠSH": 5071,
      "ĠTháº§y": 5072,
      "Ã©c": 5073,
      "fe": 5074,
      "Ġsáº¡t": 5075,
      "á»«u": 5076,
      "Ġdá»«a": 5077,
      "ĠVu": 5078,
      "ĠHÄĲND": 5079,
      "ðŁĶ": 5080,
      "Kinh": 5081,
      "Ġtia": 5082,
      "ĠHi": 5083,
      "Ġrá»ĥ": 5084,
      "Ġvá»įt": 5085,
      "Ġvá»Ĺ": 5086,
      "NN": 5087,
      "Ġkhoan": 5088,
      "QS": 5089,
      "Ung": 5090,
      "ĠnhÃ¬": 5091,
      "ĠNhÃ£": 5092,
      "ĠJack": 5093,
      "ondon": 5094,
      "Ġcá»Łi": 5095,
      "oto": 5096,
      "erson": 5097,
      "ĠDáº¡": 5098,
      "ĠPer": 5099,
      "ĠxÃł": 5100,
      "Ġwill": 5101,
      "97": 5102,
      "Ġthá»ĳt": 5103,
      "Chia": 5104,
      "Ġsan": 5105,
      "wood": 5106,
      "ĠBinh": 5107,
      "ĠHD": 5108,
      "ĠUtd": 5109,
      "lad": 5110,
      "Gáº§n": 5111,
      "ĠBer": 5112,
      "ĠbuÃ½t": 5113,
      "ĠChuyá»ĩn": 5114,
      "Ġ=))": 5115,
      "ĊĠĠĠĠĠĠĠĠĠĠĠĠĠĠĠĠ": 5116,
      "ĠDIEN": 5117,
      "Ġnáº¡i": 5118,
      "news": 5119,
      "cow": 5120,
      "ĠIII": 5121,
      "ĠMá»¥c": 5122,
      "ĠTok": 5123,
      "Ġ03": 5124,
      "ĠSport": 5125,
      "uss": 5126,
      "ĠxÃ¡m": 5127,
      "Ġbá»ĵ": 5128,
      "Ġá»ĳm": 5129,
      "Ġtrá»ħ": 5130,
      "elo": 5131,
      "Ġnhá»ĩn": 5132,
      "Lá»Ŀi": 5133,
      "ĠLuÃ¢n": 5134,
      "ChÆ°a": 5135,
      "ĠRáº¥t": 5136,
      "ĠkhÃ¡nh": 5137,
      "ĠTháº¡nh": 5138,
      "ĠÄĲÆ¡n": 5139,
      "ĠhÃ¡i": 5140,
      "ĠNghe": 5141,
      "ĠThay": 5142,
      "ĠThÃ¢n": 5143,
      "ĠGen": 5144,
      "ĠRiÃªng": 5145,
      "huyá»ĩn": 5146,
      "Ġcháº·ng": 5147,
      "ĠBÄĲ": 5148,
      "tainer": 5149,
      "ĠDáº§u": 5150,
      "ĠxÄĥm": 5151,
      "Ġhoáº¡i": 5152,
      "ĠTay": 5153,
      "Ġtre": 5154,
      "á»¥a": 5155,
      "ĠQuáº£": 5156,
      "ĠÃĤm": 5157,
      "85": 5158,
      "ĠSiÃªu": 5159,
      "za": 5160,
      "ĠBarcelona": 5161,
      "Ġdiá»ĩu": 5162,
      "ĠFran": 5163,
      "rip": 5164,
      "TÃŃnh": 5165,
      "IV": 5166,
      "Thuá»ĳc": 5167,
      "ins": 5168,
      "ĠxÃ¡": 5169,
      "Ġoan": 5170,
      "Ġ42": 5171,
      "res": 5172,
      "ĠChiáº¿c": 5173,
      "ðŁı": 5174,
      "Ġhas": 5175,
      "Ġ67": 5176,
      "own": 5177,
      "AR": 5178,
      "dong": 5179,
      "tá»«": 5180,
      "ĠFC": 5181,
      "nham": 5182,
      "ali": 5183,
      "Ġmanh": 5184,
      "Ġ^": 5185,
      "ĠDon": 5186,
      "XÃ£": 5187,
      "ĠSá»Ń": 5188,
      "ðŁĳĩðŁĳĩ": 5189,
      "ĠchÃ´n": 5190,
      "Ġdá»Ŀi": 5191,
      "ĠSARS": 5192,
      "vay": 5193,
      "ĠPham": 5194,
      "ĠchÃªnh": 5195,
      "Chu": 5196,
      "arm": 5197,
      "ĠDonald": 5198,
      "ĠTÃŃn": 5199,
      "Ġgiá»įt": 5200,
      "Ġyou": 5201,
      "ĠcÃ¡m": 5202,
      "ðŁ¥": 5203,
      "Ġtháº¥m": 5204,
      "ĠTwitter": 5205,
      "Ġgáº§m": 5206,
      "ĠmÃ³ng": 5207,
      "ĠTá»©": 5208,
      "ĠÄĳuá»ĳi": 5209,
      "Há»Ĺ": 5210,
      "YÃªu": 5211,
      "Hu": 5212,
      "ĠÄĲá»Ļc": 5213,
      "QT": 5214,
      "Ġtáº©y": 5215,
      "nC": 5216,
      "ĠÄĳá»ĳng": 5217,
      "ient": 5218,
      "Ġtá»¥i": 5219,
      "ĠbÃ¬": 5220,
      "ĠTI": 5221,
      "ĠVua": 5222,
      "ĠÃģo": 5223,
      "ĠKhoáº£n": 5224,
      "entr": 5225,
      "NgÃ¢n": 5226,
      "ele": 5227,
      "anmar": 5228,
      "ĠGI": 5229,
      "Hy": 5230,
      "Ġsen": 5231,
      "Ġtá»±u": 5232,
      "AC": 5233,
      "Ġgá»¥c": 5234,
      "Ġtá»ĳng": 5235,
      "ĠNATO": 5236,
      "ny": 5237,
      "ĠcÃ¡p": 5238,
      "edes": 5239,
      "īa": 5240,
      "ĠYo": 5241,
      "xÃ£": 5242,
      "Ġrá»ī": 5243,
      "ĠLondon": 5244,
      "Phi": 5245,
      "ĠLáº¡i": 5246,
      "Ġdáº¹p": 5247,
      "61": 5248,
      "eet": 5249,
      "TÃªn": 5250,
      "les": 5251,
      "Lu": 5252,
      "Ġ1999": 5253,
      "Ġráº¯c": 5254,
      "Quan": 5255,
      "ical": 5256,
      "ðŁĻı": 5257,
      "ĠngÆ°ng": 5258,
      "Ġchá»Ńi": 5259,
      "./.": 5260,
      "ĠlÃµi": 5261,
      "ĠnhÃŃ": 5262,
      "ĠnÃ¢u": 5263,
      "anc": 5264,
      "adal": 5265,
      "ĠMoscow": 5266,
      "Ġkhinh": 5267,
      "DÆ°á»Ľi": 5268,
      "Ġmáº¯m": 5269,
      "Ġthá»īnh": 5270,
      "ĠÂ": 5271,
      "ĠnÃ©n": 5272,
      "ĠxÆ¡": 5273,
      "ĠÃĤn": 5274,
      "Ġráº½": 5275,
      "Ġná»į": 5276,
      "ition": 5277,
      "form": 5278,
      "ĠlÆ¡": 5279,
      "ĠÄĳÃºc": 5280,
      "ĠMax": 5281,
      "gan": 5282,
      "ĠInst": 5283,
      "Ġ*": 5284,
      "ĠthÃ¡m": 5285,
      "ĠcÃłnh": 5286,
      "Ġac": 5287,
      "trong": 5288,
      "outh": 5289,
      "ĠÄĳÃŃnh": 5290,
      "ĠHÃłm": 5291,
      "mi": 5292,
      "ĠdÆ°a": 5293,
      "ĠWal": 5294,
      "Ġ800": 5295,
      "Ġtaxi": 5296,
      "DA": 5297,
      "Báº¥t": 5298,
      "Ġus": 5299,
      "ĠGar": 5300,
      "Ġchay": 5301,
      "ÄĲá»ģ": 5302,
      "Ġrá»§": 5303,
      "IND": 5304,
      "Chiáº¿n": 5305,
      "ĠLá»ĭch": 5306,
      "áº¿m": 5307,
      "atus": 5308,
      "ĠÆ°á»Ľt": 5309,
      "ĠnhÆ°á»Ŀng": 5310,
      "ĠcÃ³c": 5311,
      "ĠViblo": 5312,
      "ottenham": 5313,
      "Ġáº¢": 5314,
      "ĠDiá»ĩu": 5315,
      "ĠSen": 5316,
      "ĠFor": 5317,
      "ĠUA": 5318,
      "2014": 5319,
      "XÃ©t": 5320,
      "Ġhá»įng": 5321,
      "Ġghen": 5322,
      "Ġsize": 5323,
      "Ġruá»ĵi": 5324,
      "Ġtrinh": 5325,
      "Ġah": 5326,
      "ĠCÄĥn": 5327,
      "84": 5328,
      "Ġnhá»¥c": 5329,
      "ĠSon": 5330,
      "Ġmá»ĭn": 5331,
      "ĠxÃŃch": 5332,
      "ĠvÃ£": 5333,
      "ĠrÃ©t": 5334,
      "ĠBank": 5335,
      "ĠSÃ³c": 5336,
      "Nghe": 5337,
      "âĺ": 5338,
      "Ġ2003": 5339,
      "ief": 5340,
      "ĠÄĳÃª": 5341,
      "ita": 5342,
      "Ġar": 5343,
      "ĠÃªm": 5344,
      "ĠTom": 5345,
      "LÃ£o": 5346,
      "Ġeo": 5347,
      "ĠDavid": 5348,
      "viet": 5349,
      "ĠHÃ¢n": 5350,
      "mt": 5351,
      "giá»Ŀ": 5352,
      "Ġoxy": 5353,
      "Ġphe": 5354,
      "oney": 5355,
      "atar": 5356,
      "apos": 5357,
      "ander": 5358,
      "Ġnghá»ĭch": 5359,
      "ĠNghiÃªn": 5360,
      "iá»ģng": 5361,
      "ates": 5362,
      "Ġ43": 5363,
      "Æ°Æ¡m": 5364,
      "theo": 5365,
      "Ġmá»ĵi": 5366,
      "ðŁĳį": 5367,
      "ĠKiev": 5368,
      "ĠtÃº": 5369,
      "ĠtrÃ¡n": 5370,
      "Ġnháº·t": 5371,
      "ora": 5372,
      "Sáº£n": 5373,
      "Ġlive": 5374,
      "Æ¯u": 5375,
      "eop": 5376,
      "ĠMobifone": 5377,
      "ĠHoan": 5378,
      "ille": 5379,
      "ĠTháº¥y": 5380,
      "agon": 5381,
      "ext": 5382,
      "Ġao": 5383,
      "ĠhÆ°á»Ľc": 5384,
      "ĠKong": 5385,
      "Ġsá»¥p": 5386,
      "Ġká»ģ": 5387,
      "ĠTik": 5388,
      "Thay": 5389,
      "ush": 5390,
      "Ġthá»ĭnh": 5391,
      "ĠbÃłng": 5392,
      "INDEX": 5393,
      "NamNet": 5394,
      "ower": 5395,
      "och": 5396,
      "ĠMod": 5397,
      "VÅ©": 5398,
      "ĠÃ¢u": 5399,
      "ĠVá»«a": 5400,
      "ĠBV": 5401,
      "ute": 5402,
      "Ġgay": 5403,
      "Nghá»ĩ": 5404,
      "ĠÄĲÃ´i": 5405,
      "ĠDÆ°á»Ľi": 5406,
      "ÄĲÃ¡nh": 5407,
      "ardi": 5408,
      "ĠSol": 5409,
      "ĠKháº¯c": 5410,
      "Ġak": 5411,
      "inc": 5412,
      "ÄĲoÃłn": 5413,
      "ĠVá»ĭ": 5414,
      "Tham": 5415,
      "Hay": 5416,
      "ĠchÃ¨": 5417,
      "ĠWh": 5418,
      "ĠchiÃªn": 5419,
      "Tá»·": 5420,
      "Ġtá»ĵi": 5421,
      "ĠDjokovic": 5422,
      "Ġráº¡p": 5423,
      "Ngoáº¡i": 5424,
      "600": 5425,
      "ĠMá»Ľi": 5426,
      "HN": 5427,
      "ThiÃªn": 5428,
      "LÆ°u": 5429,
      "ĠbÃºn": 5430,
      "ĠlÃŃt": 5431,
      "ĠJong": 5432,
      "ĠxÃ³t": 5433,
      "ki": 5434,
      "Ġláº·n": 5435,
      "iat": 5436,
      "xit": 5437,
      "ĠtrÃłng": 5438,
      "ĠDiá»ħm": 5439,
      "72": 5440,
      "Man": 5441,
      "!!!": 5442,
      "ĠnÃ´n": 5443,
      "ĠYouT": 5444,
      "ĠsÃ©t": 5445,
      "INH": 5446,
      "cal": 5447,
      "ĠMiss": 5448,
      "ĠtÃºng": 5449,
      "ĠAF": 5450,
      "agram": 5451,
      "Ġ41": 5452,
      "889": 5453,
      "Ġká»ī": 5454,
      "ĠrÃ¢u": 5455,
      "ĠCá»Ńa": 5456,
      "ĠBo": 5457,
      "TáºŃp": 5458,
      "ĠSe": 5459,
      "Láº§n": 5460,
      "ĠKhai": 5461,
      "BÃŃ": 5462,
      "ĠsÆ°á»Ŀn": 5463,
      "Dá»ĭch": 5464,
      "bl": 5465,
      "ĠSang": 5466,
      "Ġbá»±c": 5467,
      "Ġchá»įc": 5468,
      "Ġkhuáº¥t": 5469,
      "ĠChÃºc": 5470,
      "Ca": 5471,
      "Ġcontainer": 5472,
      "ĠMÃ´ng": 5473,
      "gr": 5474,
      "ĠÃĲá»©c": 5475,
      "ence": 5476,
      "ĠTran": 5477,
      "ĠUnited": 5478,
      "ĠBel": 5479,
      "ĠxÃ´i": 5480,
      ")\\": 5481,
      "ĠluÃ¢n": 5482,
      "Vá»£": 5483,
      "ĠTM": 5484,
      "ĠgÃµ": 5485,
      "ys": 5486,
      "Vá»«a": 5487,
      "ĠNÃªn": 5488,
      "ĠcÃºp": 5489,
      "ĠKon": 5490,
      "ĠMyanmar": 5491,
      "ThÃªm": 5492,
      "xin": 5493,
      "iano": 5494,
      "ĠBlack": 5495,
      "ĠHam": 5496,
      "ĠÄĲÃłm": 5497,
      "Ġdai": 5498,
      "Ġ2001": 5499,
      "ĠÄĳáº¯ng": 5500,
      "ji": 5501,
      "73": 5502,
      "ĠFT": 5503,
      "hh": 5504,
      "ĠvÃ¡ch": 5505,
      "ĠGiá»Ľi": 5506,
      "Ġlog": 5507,
      "Ġbuá»ĵng": 5508,
      "ĠDel": 5509,
      "ava": 5510,
      "ĠchuÃ´ng": 5511,
      "71": 5512,
      "ĠÄĳáº¯m": 5513,
      "ES": 5514,
      "ides": 5515,
      "ĠKháº£i": 5516,
      "way": 5517,
      "ĠObama": 5518,
      "uba": 5519,
      "Pad": 5520,
      "Ġper": 5521,
      "Ġbá»«ng": 5522,
      "do": 5523,
      "ĊĠĠĠĠĠĠĠĠĠĠĠĠĠĠĠĠĠĠĠ": 5524,
      "PV": 5525,
      "ĠNGUYEN": 5526,
      "ĠKi": 5527,
      "ction": 5528,
      "92": 5529,
      "ĠvÄ©nh": 5530,
      "Ġop": 5531,
      "ĠCháº¥p": 5532,
      "ĠChÃº": 5533,
      "ĠðŁĴ": 5534,
      "700": 5535,
      "96": 5536,
      "ĠVÄĲV": 5537,
      "Ġkhá»ĳn": 5538,
      "quáºŃn": 5539,
      "YT": 5540,
      "lock": 5541,
      "ĠMilan": 5542,
      "ĠĠĠĠĠĠ": 5543,
      "Ġdá»¡": 5544,
      "ĠVND": 5545,
      "gon": 5546,
      "Ġvá»ĭt": 5547,
      "Ġchuá»ĳi": 5548,
      "raq": 5549,
      "Bao": 5550,
      "uu": 5551,
      "ĠlÃ¢n": 5552,
      "á»¦": 5553,
      "Ġlay": 5554,
      "ĠÄĳÃ¡n": 5555,
      "ĠFord": 5556,
      "All": 5557,
      "ĠNgÅ©": 5558,
      "Thiáº¿u": 5559,
      "BÃ¢y": 5560,
      "Ġhave": 5561,
      "ĠRá»ĭa": 5562,
      "bon": 5563,
      "vÃł": 5564,
      "ĠTriá»ĥn": 5565,
      "ÃĤN": 5566,
      "Ġsá»¥t": 5567,
      "Ġpháº¿": 5568,
      "Ad": 5569,
      "ĠHyundai": 5570,
      "ĠTHCS": 5571,
      "ops": 5572,
      "exico": 5573,
      "ĠÄĳáº¯n": 5574,
      "ĠHiáº¿n": 5575,
      "Ġranh": 5576,
      "ĠVTV": 5577,
      "lic": 5578,
      "ĠGeor": 5579,
      "Ġloa": 5580,
      "Ġdáº£i": 5581,
      "Ġsáº§u": 5582,
      "Báº¥m": 5583,
      "',": 5584,
      "Ká»³": 5585,
      "Ġchanh": 5586,
      "ĠSÃ´ng": 5587,
      "ĠnÃ£y": 5588,
      "Ġlives": 5589,
      "ĠiOS": 5590,
      "ĠlÃ¡nh": 5591,
      "Tiá»ģn": 5592,
      "Ġham": 5593,
      "ĠchÃ¬a": 5594,
      "cong": 5595,
      "ercedes": 5596,
      "ĠTá»ĳi": 5597,
      "Ġ64": 5598,
      "Ġrá»ĵng": 5599,
      "ĠrÃ¡p": 5600,
      "Ġgáº¡t": 5601,
      "Ġkiá»ģu": 5602,
      "OC": 5603,
      "Ġcau": 5604,
      "Ġháº¡m": 5605,
      "AD": 5606,
      "ĠSw": 5607,
      "biz": 5608,
      "Ġ045": 5609,
      "Ġ2002": 5610,
      "Ġ1990": 5611,
      "Sc": 5612,
      "Rá»ĵi": 5613,
      "Ġmo": 5614,
      "TÄĥng": 5615,
      "ĠbÃ¡ch": 5616,
      "Ġchá»ĳn": 5617,
      "ĠÃ¹n": 5618,
      "ĠChá»£": 5619,
      "ĠPhÆ°á»Ŀng": 5620,
      "USD": 5621,
      "dr": 5622,
      "osh": 5623,
      "ĠVP": 5624,
      "Ġkhoai": 5625,
      "Ġgai": 5626,
      "ĠThÃ¬": 5627,
      "Ġse": 5628,
      "ĠPol": 5629,
      "Tháº¥y": 5630,
      "QuÃ¡": 5631,
      "Ġeuro": 5632,
      "ĠhoÃłnh": 5633,
      "Ġtráº¯c": 5634,
      "Ġsex": 5635,
      "Ġlá»Ļi": 5636,
      "ĠAf": 5637,
      "ĠtrÆ°á»£ng": 5638,
      "Ġroi": 5639,
      "Ġngáº¥t": 5640,
      "ĠVay": 5641,
      "ĠHung": 5642,
      "aptop": 5643,
      "ĠMÃ¡y": 5644,
      "800": 5645,
      "Ġtáº·c": 5646,
      "ania": 5647,
      "ield": 5648,
      "ĠTÆ°Æ¡ng": 5649,
      "Ġhá»ĳ": 5650,
      ".,": 5651,
      "Ġtháº£n": 5652,
      "Ġxen": 5653,
      "ĠkÃ©p": 5654,
      "ĠmuÃ´n": 5655,
      "iger": 5656,
      "LÃ£nh": 5657,
      "Quá»ĳc": 5658,
      "ĠBi": 5659,
      "ĠTrÃ¬": 5660,
      "mit": 5661,
      "ĠsÃ¡p": 5662,
      "ĠFl": 5663,
      "ĠHÆ°á»Ľng": 5664,
      "combank": 5665,
      "ĠEmail": 5666,
      "ĠmÃ²n": 5667,
      "ventus": 5668,
      "81": 5669,
      "Má»¥c": 5670,
      "PhÃ²ng": 5671,
      "Ġ1900": 5672,
      "ĠNi": 5673,
      "Ġau": 5674,
      "ĠGiÃ¡p": 5675,
      "ÃĲ": 5676,
      "Há»ĩ": 5677,
      "Ġlung": 5678,
      "ĠCáº£ng": 5679,
      "ĠlÃª": 5680,
      "%/": 5681,
      "ĠDan": 5682,
      "ript": 5683,
      "Ġtoas": 5684,
      "Ġq": 5685,
      "MW": 5686,
      "chief": 5687,
      "Ġkiáº¿p": 5688,
      "Ġ>>": 5689,
      "Ġgiáº·c": 5690,
      "Ġtoasoan": 5691,
      "Ġrao": 5692,
      "EL": 5693,
      "Ġbá»Ļc": 5694,
      "ĠBá»įn": 5695,
      "ĠgiÆ¡": 5696,
      "ĠSai": 5697,
      "MS": 5698,
      "Ġthá»§ng": 5699,
      "ĠJoe": 5700,
      "Ġ47": 5701,
      "ĠQuÃ¡": 5702,
      "Ġgiáº·t": 5703,
      "Ġbáº¡": 5704,
      "ĠTáº¡": 5705,
      "vovnews": 5706,
      "ĠlÅ©y": 5707,
      "LoÃłi": 5708,
      "ishi": 5709,
      "ĠTy": 5710,
      "ĠVen": 5711,
      "Giá»Ľi": 5712,
      "Index": 5713,
      "Ġ51": 5714,
      "ĠCop": 5715,
      "ĠnÃ´": 5716,
      "erry": 5717,
      "Ġvá»īa": 5718,
      "Ġcá»ĵn": 5719,
      "Ġser": 5720,
      "ĠBá»ī": 5721,
      "evelop": 5722,
      "CÄĥn": 5723,
      "Ġ99": 5724,
      "Ex": 5725,
      "ĠnhÄĥn": 5726,
      "HÃłnh": 5727,
      "ĠFPT": 5728,
      "ĠÄĳiÃªu": 5729,
      "ĠVá»¹": 5730,
      "ĠSup": 5731,
      "Ġ46": 5732,
      "ĠChÃ¡u": 5733,
      "ĠDa": 5734,
      "Ġxoáº¯n": 5735,
      "ĠMag": 5736,
      "Ag": 5737,
      "Diá»ħn": 5738,
      "Fast": 5739,
      "Tháº£o": 5740,
      "ĠQL": 5741,
      "NÃłng": 5742,
      "Ġfl": 5743,
      "Doanh": 5744,
      "ĠNews": 5745,
      "2013": 5746,
      "Ġtá»¥ng": 5747,
      "ĠPan": 5748,
      "ĠdÃ´ng": 5749,
      "Ġbáº©m": 5750,
      "Ġmáº¯ng": 5751,
      "national": 5752,
      "ats": 5753,
      "NT": 5754,
      "tin": 5755,
      "ĠÄĳáº¿m": 5756,
      "Ġphá»Ł": 5757,
      "Ġyear": 5758,
      "Ġ700": 5759,
      "ĠTottenham": 5760,
      "Ġngá»¡": 5761,
      "ĠBÃ¡i": 5762,
      "ĠQuÃ¡ch": 5763,
      "ĠHoÃł": 5764,
      "ĠngÃ³": 5765,
      "Ġrec": 5766,
      "ĠÄĳinh": 5767,
      "ĠTrÃ¢n": 5768,
      "ĠNo": 5769,
      "ĠngÃ¢y": 5770,
      "NAM": 5771,
      "iforn": 5772,
      "ĠkhoÃ¡i": 5773,
      "ĠYouTube": 5774,
      "áº¨": 5775,
      "SiÃªu": 5776,
      "ĠHCV": 5777,
      "yst": 5778,
      "ĠPremier": 5779,
      "Ġ2030": 5780,
      "Ġbar": 5781,
      "Ġok": 5782,
      "ĠMÃ¹a": 5783,
      "Ġ49": 5784,
      "air": 5785,
      "Ġkhao": 5786,
      "Ġlá»¥a": 5787,
      "ĠATM": 5788,
      "Ġláº©u": 5789,
      "ĠGS": 5790,
      "Ã£m": 5791,
      "Ġhuyá»ĩt": 5792,
      "ĠmÃ´ng": 5793,
      "ĠgiÃ²n": 5794,
      "ĠhÃłn": 5795,
      "thu": 5796,
      "Ġgu": 5797,
      "Ġkhoang": 5798,
      "RO": 5799,
      "ĠÄĳÃ¨": 5800,
      "Tu": 5801,
      "Ġcá»Ľ": 5802,
      "Ġve": 5803,
      "ĠBO": 5804,
      "iana": 5805,
      "Ġ02": 5806,
      "ĠNÆ¡i": 5807,
      "onia": 5808,
      "Du": 5809,
      "Ġ44": 5810,
      "lob": 5811,
      "ĠCharl": 5812,
      "ĠCHQS": 5813,
      "Khoáº£ng": 5814,
      "any": 5815,
      "js": 5816,
      "ĠkhoÄĥn": 5817,
      "ĠHÄĲQT": 5818,
      "ĠSÃ¡u": 5819,
      "ric": 5820,
      "ĠVina": 5821,
      "Ráº¥t": 5822,
      "ĠBayern": 5823,
      "ĠIraq": 5824,
      "ĠlÃ©o": 5825,
      "UNG": 5826,
      "ĠXIII": 5827,
      "Ġláº§u": 5828,
      "ody": 5829,
      "lines": 5830,
      "avel": 5831,
      "ÄĲá»©c": 5832,
      "ĠThÃªm": 5833,
      "khoáº£ng": 5834,
      "ĠTá»ĳ": 5835,
      "2010": 5836,
      "ĠGiÃ¡ng": 5837,
      "ĠcÃºm": 5838,
      "ĠCer": 5839,
      "ĠtÃ³m": 5840,
      "ifornia": 5841,
      "ivers": 5842,
      "Tok": 5843,
      "ĠxÃ¬": 5844,
      "Hotline": 5845,
      "VÃŃ": 5846,
      "ĠXanh": 5847,
      "Ġngáº¯t": 5848,
      "á»£p": 5849,
      "iam": 5850,
      "udio": 5851,
      "Ã¶": 5852,
      "ĠTráº¥n": 5853,
      "Cá»©": 5854,
      "Ġ54": 5855,
      "ĠMexico": 5856,
      "iiii": 5857,
      "ĠHuyá»ĩn": 5858,
      "ĠNhiá»ĩt": 5859,
      "Ġdep": 5860,
      "Ġvuá»ĳt": 5861,
      "ĠTre": 5862,
      "ĠÄĲÃ¡ng": 5863,
      "Ġvung": 5864,
      "ĠNadal": 5865,
      "DÆ°Æ¡ng": 5866,
      "ĠtÃ¡t": 5867,
      "ĠChá»©ng": 5868,
      "tt": 5869,
      "83": 5870,
      "ourinho": 5871,
      "Ġun": 5872,
      "ĠMu": 5873,
      "yy": 5874,
      "Ġváº¡ch": 5875,
      "Ġnháº¥p": 5876,
      "Ġgom": 5877,
      "Ġti": 5878,
      "BÃ©": 5879,
      "ĠcháºŃt": 5880,
      "Ġel": 5881,
      "ĠKo": 5882,
      "ĠVietNamNet": 5883,
      "ĠNháº¡c": 5884,
      "ĠhÃ¡n": 5885,
      "LÄĲ": 5886,
      "((": 5887,
      "Ġms": 5888,
      "ĠGiÃª": 5889,
      "ĠChrist": 5890,
      "ĠItalia": 5891,
      "Ġ2025": 5892,
      "ĠkhoÃ¡": 5893,
      "etw": 5894,
      "!&": 5895,
      "Ġhá»ķng": 5896,
      "ĠWest": 5897,
      "Ġcuá»Ļn": 5898,
      "ceae": 5899,
      "Ġquáº¡t": 5900,
      "Ġlen": 5901,
      "Ġlike": 5902,
      "Tá»ķ": 5903,
      "Há»ĵng": 5904,
      "à¸": 5905,
      "Ġká»ĩ": 5906,
      "ning": 5907,
      "ĠbÄĥn": 5908,
      "Ġnhe": 5909,
      "ĠnhÃ£": 5910,
      "ĠsuÃ½t": 5911,
      "ĠthiÃªng": 5912,
      "Ġ63": 5913,
      "Ġthis": 5914,
      "ĠPhiÃªn": 5915,
      "ĠMáº¡ch": 5916,
      "ĠmÄĥng": 5917,
      "ĠTAND": 5918,
      "Ġlá»¥t": 5919,
      "ĠHot": 5920,
      "ĠmáºŃp": 5921,
      "Linh": 5922,
      "ĠTN": 5923,
      "ĠEuro": 5924,
      "uki": 5925,
      "ĠGB": 5926,
      "Ġ)": 5927,
      "ĠÄĲáºŃu": 5928,
      "Ġcá»įc": 5929,
      "ated": 5930,
      "uck": 5931,
      "aya": 5932,
      "ĠMáº«u": 5933,
      "AP": 5934,
      "ĠHá»Ĺ": 5935,
      "ĠrÃ²ng": 5936,
      "Ġserver": 5937,
      "ĠQuáº¿": 5938,
      "iness": 5939,
      "ĠDÆ°á»£c": 5940,
      "congdong": 5941,
      "ĠHiá»ĥn": 5942,
      "ghan": 5943,
      "ĠLÄ©nh": 5944,
      "Ġtáº£n": 5945,
      "Máº·t": 5946,
      "hoccongdong": 5947,
      "ĠJo": 5948,
      "ĠThÆ°a": 5949,
      "Ġtriáº¿t": 5950,
      "Ġná»ĳt": 5951,
      "ĠláºŃn": 5952,
      "ange": 5953,
      "ĠIP": 5954,
      "enter": 5955,
      "ĠXem": 5956,
      "hu": 5957,
      "ĠLiá»ħu": 5958,
      "Ġá»§i": 5959,
      "ThÆ°Æ¡ng": 5960,
      "Ġ95": 5961,
      "ĠWebsite": 5962,
      "Ġchui": 5963,
      "ĠBÃ³ng": 5964,
      "ĠVá»": 5965,
      "ĠCalifornia": 5966,
      "ĠTimes": 5967,
      "ĠNor": 5968,
      "ĠTokyo": 5969,
      "ĠLáº¡ng": 5970,
      "yll": 5971,
      "Sinh": 5972,
      "ski": 5973,
      "Clip": 5974,
      "ĠbÃ¡u": 5975,
      "ĠArab": 5976,
      "ĠCEO": 5977,
      "ĠBáº£y": 5978,
      "ĠxÃło": 5979,
      "ĠAirlines": 5980,
      "Ġkhuya": 5981,
      "ĠVol": 5982,
      ".âĢĵ": 5983,
      "Bá»ĳ": 5984,
      "ĠSil": 5985,
      "ein": 5986,
      "Ġráº£i": 5987,
      "Ġ1997": 5988,
      "ĠhÃ©": 5989,
      "ĠÃª": 5990,
      "ÄĲÃł": 5991,
      "untr": 5992,
      "Ġnot": 5993,
      "TA": 5994,
      "Ġnáº¡": 5995,
      "Ġthá»ģ": 5996,
      "TE": 5997,
      "ĠInstagram": 5998,
      "Ġrep": 5999,
      "Ġpháº³ng": 6000,
      "ĠlÃ³t": 6001,
      "ĠphÆ¡i": 6002,
      "ĠRed": 6003,
      "ĠÄĲá»ĳng": 6004,
      "li": 6005,
      "DI": 6006,
      "á»Ľc": 6007,
      "ðŁĺĺðŁĺĺ": 6008,
      "74": 6009,
      "Ġ52": 6010,
      "áº¬T": 6011,
      "ĠGáº§n": 6012,
      "ĠJames": 6013,
      "Thiáº¿t": 6014,
      "ira": 6015,
      "Ġni": 6016,
      "âľĶ": 6017,
      "Å©a": 6018,
      "alis": 6019,
      "ĠYÃªu": 6020,
      "ĠOne": 6021,
      "Ġle": 6022,
      "NÆ°á»Ľc": 6023,
      "Cáº§u": 6024,
      "áº¦N": 6025,
      "ĠGP": 6026,
      "ĠGh": 6027,
      "Ġwas": 6028,
      ">>": 6029,
      "Ġdá»ĵi": 6030,
      "ĠTuáº§n": 6031,
      "ĠPhá»ķ": 6032,
      "agen": 6033,
      "Ġbáº«y": 6034,
      "ðŁİ": 6035,
      "ĠnháºŃu": 6036,
      "KhÃ¡nh": 6037,
      "Ġvá»ĭnh": 6038,
      "Ġbá»ĵn": 6039,
      "ĠÄĳáº¥m": 6040,
      "ĠCuba": 6041,
      "UYá»": 6042,
      "App": 6043,
      "ĠMáº¥y": 6044,
      "Ġcá»Ĺ": 6045,
      "ealand": 6046,
      "ĠmÃ¢m": 6047,
      "ĠNgá»¯": 6048,
      "Ġngáº§n": 6049,
      "KH": 6050,
      "ĠVáºŃn": 6051,
      "TÃ¬m": 6052,
      "Ġkáº½": 6053,
      "á»Ľn": 6054,
      "ĠchÃ¡o": 6055,
      "ĠtoÃł": 6056,
      "Ġdá»Ĺ": 6057,
      "ĠPaul": 6058,
      "ĉĉĉ": 6059,
      "Ġnuá»ĳt": 6060,
      "Pr": 6061,
      "TÃłu": 6062,
      "optera": 6063,
      "ĠSUV": 6064,
      "ĠKhÃª": 6065,
      "cao": 6066,
      "ific": 6067,
      "ĠvÃ¡n": 6068,
      "quan": 6069,
      "ities": 6070,
      "ĠKá»·": 6071,
      "ĠngÆ¡": 6072,
      "ĠLH": 6073,
      "QG": 6074,
      "bao": 6075,
      "nes": 6076,
      "DÃ¢n": 6077,
      "ĠLÃ¢n": 6078,
      "ĉĉĉĉĉĉĉ": 6079,
      "ĠTrÆ°ng": 6080,
      "ghanistan": 6081,
      "arg": 6082,
      "ars": 6083,
      "eed": 6084,
      "ĠVÃ¢ng": 6085,
      "Ġgolf": 6086,
      "HÃłn": 6087,
      "log": 6088,
      "Sáº½": 6089,
      "Ġhoi": 6090,
      "ĠbÆ¡m": 6091,
      "ĠMun": 6092,
      "ngh": 6093,
      "ĠMed": 6094,
      "ĠPhÃ¹": 6095,
      "Truy": 6096,
      "ĠViáº¿t": 6097,
      "ĠMá»©c": 6098,
      "ĠSant": 6099,
      "!âĢĿ": 6100,
      "UBND": 6101,
      "Ġthá»ģm": 6102,
      "han": 6103,
      "Ġhao": 6104,
      "Ġwhi": 6105,
      "Ġsá»Ŀ": 6106,
      "ĠmÃ£nh": 6107,
      ";,": 6108,
      "ĠÄĳá»ĩm": 6109,
      "ĠNov": 6110,
      "ami": 6111,
      "ĠVIá»Ĩ": 6112,
      "ĠÄĲá»ĵn": 6113,
      "Ġthiáº¿p": 6114,
      "ĠZealand": 6115,
      "ÄĲÃ¡ng": 6116,
      "ĠbÃ³n": 6117,
      "Ġbá»ī": 6118,
      "Ġsáº¿p": 6119,
      "otein": 6120,
      "Ká»ĥ": 6121,
      "ĠbÆ¡": 6122,
      "TrÆ°Æ¡ng": 6123,
      "Ġngáº¡ch": 6124,
      "asc": 6125,
      "Ġviá»ĩt": 6126,
      "ely": 6127,
      "ĠMÃ´": 6128,
      "erer": 6129,
      "ily": 6130,
      "Ġhá»ĳt": 6131,
      "phÃºt": 6132,
      "á»Į": 6133,
      "ĠLin": 6134,
      "320": 6135,
      "Lá»±c": 6136,
      "ever": 6137,
      "ema": 6138,
      "azda": 6139,
      "Ġ1998": 6140,
      "Ġgáº§y": 6141,
      "Khá»Łi": 6142,
      "âĢįâĢįâĢįâĢį": 6143,
      "ĠkhiÃªu": 6144,
      "ency": 6145,
      "Ġ091": 6146,
      "Ġsanh": 6147,
      "Ġ85": 6148,
      "ĠÄĲáº£o": 6149,
      "ĠTrÃ¢m": 6150,
      "ĠÄĳáº¡m": 6151,
      "po": 6152,
      "Ġlá»į": 6153,
      "Ġngá»¥c": 6154,
      "ĠÄĲen": 6155,
      "Ġinternet": 6156,
      "ĠMáº¡c": 6157,
      "Ed": 6158,
      "Quy": 6159,
      "ĠÄĲÃªm": 6160,
      "ross": 6161,
      "ĠNguá»ĵn": 6162,
      "Ġ110": 6163,
      "IFA": 6164,
      "aily": 6165,
      "ĠHuÃ¢n": 6166,
      "ðŁ¥°": 6167,
      "oria": 6168,
      "ĠCap": 6169,
      "ĠGo": 6170,
      "94": 6171,
      "Ġxoa": 6172,
      "ling": 6173,
      "obot": 6174,
      "ĠTao": 6175,
      "Ġ56": 6176,
      "Ġbá»ĩ": 6177,
      "Lá»ħ": 6178,
      "ĠMercedes": 6179,
      "Ġ130": 6180,
      "Ġxi": 6181,
      "ĠHiá»ĥu": 6182,
      "tá»īnh": 6183,
      "Ġliá»ħu": 6184,
      "Ġ:)))": 6185,
      "So": 6186,
      "Láº¥y": 6187,
      "ĠMÆ°á»Ŀi": 6188,
      "Tráº£": 6189,
      "ĠEver": 6190,
      "ĠPlay": 6191,
      "ĠbÃ³p": 6192,
      "ĠPa": 6193,
      "ĠSim": 6194,
      "illion": 6195,
      "Ġnghiá»ĩt": 6196,
      "LC": 6197,
      "Háº¯n": 6198,
      "ĠhÃ´ng": 6199,
      "MÃ¹a": 6200,
      "Ġlá»Ļt": 6201,
      "TÆ°Æ¡ng": 6202,
      "Ġnao": 6203,
      "MT": 6204,
      "ĠDao": 6205,
      "ĠMB": 6206,
      "ĠJuventus": 6207,
      "Ġlanh": 6208,
      "Ġ66": 6209,
      "ĠVietnamese": 6210,
      "Ġnáº¥y": 6211,
      "oga": 6212,
      "Ġpart": 6213,
      "Ġquá»³": 6214,
      "Ġháº¡ch": 6215,
      "metr": 6216,
      "cher": 6217,
      "Ġsaid": 6218,
      "Top": 6219,
      "Ġkhá»ĳc": 6220,
      "ĠCÃ¡": 6221,
      "ĠVá»ĩ": 6222,
      "ĠChuyÃªn": 6223,
      "br": 6224,
      "ÃŃp": 6225,
      "ye": 6226,
      "ĠPGS": 6227,
      "ĠHolly": 6228,
      "ennis": 6229,
      "QÄĲ": 6230,
      "usiness": 6231,
      "Ġform": 6232,
      "ĠAngel": 6233,
      "ĠSá»¹": 6234,
      "ife": 6235,
      "Ġ53": 6236,
      "Ġuá»ĳn": 6237,
      "urr": 6238,
      "ĠxÃ©": 6239,
      "Ra": 6240,
      "ĠBá»ĭ": 6241,
      "Ġdang": 6242,
      "KhÃ¡ch": 6243,
      "ps": 6244,
      "Br": 6245,
      "Ġag": 6246,
      "Ãļ": 6247,
      "ĠDang": 6248,
      "Ġnáº¯p": 6249,
      "Sá»Ń": 6250,
      "ĠtÃł": 6251,
      "ĠKá»ĥ": 6252,
      "Ġlá»Ļc": 6253,
      "MB": 6254,
      "ĠTum": 6255,
      "ĠðŁĺį": 6256,
      "ĠPhu": 6257,
      "Vietnam": 6258,
      "ĠngÃ´": 6259,
      "ĠTho": 6260,
      "Tiáº¿ng": 6261,
      "ĠÄĳá»įng": 6262,
      "Ġwh": 6263,
      ":\\": 6264,
      "ĠphÃ¬": 6265,
      "786": 6266,
      "ĠthiÃªu": 6267,
      "Ġview": 6268,
      "Ġgirl": 6269,
      "ĠGeometr": 6270,
      "ĠHal": 6271,
      "ToÃłn": 6272,
      "Ġnan": 6273,
      "ĠSaudi": 6274,
      "zz": 6275,
      "aff": 6276,
      "KS": 6277,
      "ĠGeometridae": 6278,
      "ĠHÃ£ng": 6279,
      "GD": 6280,
      "Shop": 6281,
      "ĠUN": 6282,
      "ĠCáº¥p": 6283,
      "ĠBÃłn": 6284,
      "Ġday": 6285,
      "PC": 6286,
      "Ġthuá»·": 6287,
      "lÃłm": 6288,
      "ĠtÃ¡ng": 6289,
      "ĠTal": 6290,
      "Ġclass": 6291,
      "ene": 6292,
      "ĠPhÃŃa": 6293,
      "ĠxuÃ´i": 6294,
      "urn": 6295,
      "ĠBill": 6296,
      "ĠiPad": 6297,
      "ĠVideo": 6298,
      "ĠAfghanistan": 6299,
      "olog": 6300,
      "ĠÄĳÃ¹i": 6301,
      "ĠchÃ¡nh": 6302,
      "KT": 6303,
      "ĠSn": 6304,
      "ĠRobert": 6305,
      "ĠBÆ°á»Ľc": 6306,
      "ĠTai": 6307,
      "burg": 6308,
      "load": 6309,
      "ĠBÃ¡nh": 6310,
      "ðŁį": 6311,
      "ĠKhoáº£ng": 6312,
      "ĠvÃ²": 6313,
      "ĠOl": 6314,
      "ĠMat": 6315,
      "Ġáº£": 6316,
      "ĠsÃºc": 6317,
      "Kho": 6318,
      "á»ª": 6319,
      "ĠxÃ´n": 6320,
      "ĠÄĲB": 6321,
      "ĠCas": 6322,
      "ĠlÃ©n": 6323,
      "Ġlá»ĳp": 6324,
      "á»£n": 6325,
      "Ok": 6326,
      "erg": 6327,
      "ĠbÃ¹n": 6328,
      "ĠnhÃ¡t": 6329,
      "ĠcháºŃu": 6330,
      "Ġsub": 6331,
      "Ġlaptop": 6332,
      "Ġ72": 6333,
      "ĠTel": 6334,
      "ĠNhuáºŃn": 6335,
      "Pl": 6336,
      "ĠBiáº¿t": 6337,
      "ĠAFF": 6338,
      "GiÃ¡o": 6339,
      "ĠLand": 6340,
      "ĠBS": 6341,
      "ĠBÃ©": 6342,
      "ĠMá»Ł": 6343,
      "AGL": 6344,
      "ĠdÆ°ng": 6345,
      "TiÃªu": 6346,
      "Ġláº«y": 6347,
      "ĠHÃĢ": 6348,
      "Ġquá»µ": 6349,
      "ĠVinFast": 6350,
      "Ġship": 6351,
      "nCmt": 6352,
      "elle": 6353,
      "173": 6354,
      "Ġvá»Ŀ": 6355,
      "Ġviáº¿ng": 6356,
      "82": 6357,
      "áº¾T": 6358,
      "ator": 6359,
      "Ġdes": 6360,
      "Ġkhá»Ń": 6361,
      "Ġrá»¥ng": 6362,
      "ÄĲÃªm": 6363,
      "ender": 6364,
      "ĠnÃłn": 6365,
      "Ġmá»ĳt": 6366,
      "ĠphÃ´": 6367,
      "Ġlá»Ļng": 6368,
      "Ġcá»«u": 6369,
      "aint": 6370,
      "lÃŃt": 6371,
      "ĠTikTok": 6372,
      "áĢ¹": 6373,
      "ĠTech": 6374,
      "ury": 6375,
      "ChÃº": 6376,
      "Ġmarket": 6377,
      "Ġnhá»įn": 6378,
      "Ġcr": 6379,
      "Cá»±u": 6380,
      "min": 6381,
      "ĠKhÆ°Æ¡ng": 6382,
      "Má»Ł": 6383,
      "wei": 6384,
      "ĠkiÃªng": 6385,
      "Ġtw": 6386,
      "Ġ04": 6387,
      "ĠXV": 6388,
      "ĠrÃ¡ch": 6389,
      "CÄĲ": 6390,
      "Ġkáº¹o": 6391,
      "ĠMichael": 6392,
      "NÄĲ": 6393,
      "ĠnÃ£": 6394,
      "ĠPlus": 6395,
      "ĠVá»ĭnh": 6396,
      "Ãºm": 6397,
      "ĠRich": 6398,
      "ĠVá»£": 6399,
      "DO": 6400,
      "Ġngáº«u": 6401,
      "TÃ¢y": 6402,
      "nn": 6403,
      "ĠGuardi": 6404,
      "Ronaldo": 6405,
      "QL": 6406,
      "Ġpol": 6407,
      "MC": 6408,
      "Ġkhá»ī": 6409,
      "Ġtoan": 6410,
      "pa": 6411,
      "Ġná»©t": 6412,
      "ĠChiá»ģu": 6413,
      "ĠJul": 6414,
      "ĠSouth": 6415,
      "Ġhoáº¡n": 6416,
      "900": 6417,
      "ĠsÆ°ng": 6418,
      "ĠThom": 6419,
      "ense": 6420,
      "Cá»¥c": 6421,
      "chá»ī": 6422,
      "Ġchá»ĳc": 6423,
      "ĠMb": 6424,
      "ons": 6425,
      "ĠKhá»Łi": 6426,
      "trang": 6427,
      "ĠCÃ´n": 6428,
      "Ġná»©c": 6429,
      "ĠKha": 6430,
      "Ġcountr": 6431,
      "ĠNháºŃn": 6432,
      "Ġhe": 6433,
      "Ġen": 6434,
      "Ġnhá»įc": 6435,
      "Ġob": 6436,
      "ernand": 6437,
      "oni": 6438,
      "ĠKy": 6439,
      "ĠTÃ¡c": 6440,
      "báº¡n": 6441,
      "fl": 6442,
      "ĠGÃ£": 6443,
      "Ġuá»·": 6444,
      "DT": 6445,
      "iaceae": 6446,
      "Ġá»§": 6447,
      "khá»§ng": 6448,
      "azon": 6449,
      "ÄĤn": 6450,
      "ĠKháº£": 6451,
      "ĠBÃ¡t": 6452,
      "ĠLau": 6453,
      "Ġ1000": 6454,
      "Ġnhá»ĭn": 6455,
      "Ġtá»ıi": 6456,
      "ĠIV": 6457,
      "ĠVIET": 6458,
      "ĠPat": 6459,
      "vest": 6460,
      "Ġprotein": 6461,
      "Ġind": 6462,
      "oz": 6463,
      "ĠbÆ°u": 6464,
      "Ġ58": 6465,
      "ĠSÃ¢n": 6466,
      "ĠsÃ¢m": 6467,
      "Ġaxit": 6468,
      "yan": 6469,
      "Facebook": 6470,
      "Ġsup": 6471,
      "Cháº¯c": 6472,
      "ĠLou": 6473,
      "MU": 6474,
      "ĠAz": 6475,
      "erb": 6476,
      "Ãģo": 6477,
      "bit": 6478,
      "ĠGiáº£": 6479,
      "áº»m": 6480,
      "Ġquáº§y": 6481,
      "ĠMáº¯t": 6482,
      "Ġtháº¯n": 6483,
      "Ġ1995": 6484,
      "ĠÄĳáº¡c": 6485,
      "ĠLÄĲ": 6486,
      "ĠTÃ¡m": 6487,
      "ĠLiga": 6488,
      "arao": 6489,
      "Ġrá»Ļ": 6490,
      "ĠLib": 6491,
      "Ġngáº·t": 6492,
      "Ġná»Ļ": 6493,
      "ðŁĵ": 6494,
      "ivi": 6495,
      "Ġ2024": 6496,
      "XX": 6497,
      "ĠChinh": 6498,
      "Tiáº¿n": 6499,
      "ĠCu": 6500,
      "ĠMÃły": 6501,
      "Ġdá»ĩt": 6502,
      "ĠtrÆ¡n": 6503,
      "ĠDis": 6504,
      "ĠCong": 6505,
      "Ġshowbiz": 6506,
      "ĠÄĤ": 6507,
      "ware": 6508,
      "ĠHen": 6509,
      "náº¿u": 6510,
      "ĠAss": 6511,
      "ĠLÆ°á»£ng": 6512,
      "á»¢": 6513,
      "Ġcmt": 6514,
      "ĠÄĳáº·n": 6515,
      "Ġdevelop": 6516,
      "ĠÄĳu": 6517,
      "ĠNhá»ĭ": 6518,
      "Ġlá»Ŀ": 6519,
      "ven": 6520,
      "US": 6521,
      "Æ¯á»ľ": 6522,
      "ĠnÃ¡o": 6523,
      "ĠcÃµi": 6524,
      "Ġ..": 6525,
      "Ġká»µ": 6526,
      "uan": 6527,
      "ĠCháº¥t": 6528,
      "fer": 6529,
      "Æ¯Æł": 6530,
      "gia": 6531,
      "ht": 6532,
      "ĠMot": 6533,
      "ĠgáºŃy": 6534,
      "ĠKÃ½": 6535,
      "ĠtÆ¡": 6536,
      "ĠMel": 6537,
      "Bar": 6538,
      "Ġtab": 6539,
      "ĠNoc": 6540,
      "ĠBal": 6541,
      "uawei": 6542,
      "ĠId": 6543,
      "ĠThá»¥c": 6544,
      "Ġnhá»§": 6545,
      "Ãµm": 6546,
      "ĠnÃ©": 6547,
      "ĠHollywood": 6548,
      "be": 6549,
      "Cha": 6550,
      "ĠDinh": 6551,
      "ĠEur": 6552,
      "Ġ59": 6553,
      "Quang": 6554,
      "ĠtÄĥm": 6555,
      "áĢĻ": 6556,
      "ĠJun": 6557,
      "esh": 6558,
      "ĠServ": 6559,
      "Ġcá»į": 6560,
      "Ġreg": 6561,
      "Ġlá»ĳc": 6562,
      "ĠShi": 6563,
      "ger": 6564,
      "ĠÄĳan": 6565,
      "ĠIr": 6566,
      "ĠVAY": 6567,
      "ĠYen": 6568,
      "ĠAndre": 6569,
      "ĠThÃŃch": 6570,
      "ĠDO": 6571,
      "á»°": 6572,
      "Ġli": 6573,
      "ĠPhá»¥c": 6574,
      "Ġrá»Ľt": 6575,
      "Ġá»¨ng": 6576,
      "tream": 6577,
      "ĠÄĲÃłn": 6578,
      "TW": 6579,
      "Ġbá»ķn": 6580,
      "ĠVict": 6581,
      "ĠĠĠĠĠĠĠĠĠĠĠ": 6582,
      "iao": 6583,
      "ĠBHYT": 6584,
      "ĠMáº«n": 6585,
      "onent": 6586,
      "ĠJe": 6587,
      "sc": 6588,
      "Ġcor": 6589,
      "Ġtem": 6590,
      "ĠLá»Ļ": 6591,
      "Triá»ĥn": 6592,
      "Ġ62": 6593,
      "ÄĲÆ¡n": 6594,
      "ĠLá»ĩnh": 6595,
      "ĠNS": 6596,
      "earch": 6597,
      "áĢ±": 6598,
      "ĠMÆ°á»Ŀng": 6599,
      "reak": 6600,
      "ĠQatar": 6601,
      "á»ĺ": 6602,
      "ĠTráº¡ch": 6603,
      "ĠNoctu": 6604,
      "Xuáº¥t": 6605,
      "ĠTor": 6606,
      "Ġtien": 6607,
      "ĠNoctuidae": 6608,
      "aser": 6609,
      "xx": 6610,
      "aki": 6611,
      "ĠÄĳÅ©a": 6612,
      "Ġ57": 6613,
      "ĠItaly": 6614,
      "Ġchen": 6615,
      "ĠTá»·": 6616,
      "irst": 6617,
      "ÃĮ": 6618,
      "ĠKÃ´ng": 6619,
      "ER": 6620,
      "ĠvÃ¢ng": 6621,
      "ĠPhá»ĳ": 6622,
      "CÃ¡m": 6623,
      "Ġ:)": 6624,
      "Ġá»ĳp": 6625,
      "Phong": 6626,
      "thÃ¹ng": 6627,
      "tÆ°Æ¡ng": 6628,
      "ĠnhÆ°á»£c": 6629,
      "Láº¡i": 6630,
      "appe": 6631,
      "outube": 6632,
      "REM": 6633,
      "ĠTháº±ng": 6634,
      "ift": 6635,
      "Ġnhá»©c": 6636,
      "akistan": 6637,
      "edit": 6638,
      "chester": 6639,
      "cÃ¡c": 6640,
      "Bá»Łi": 6641,
      "ĠLo": 6642,
      "ĠxÃŃ": 6643,
      "JI": 6644,
      "Ġkhan": 6645,
      "ĠCR": 6646,
      "Ġdr": 6647,
      "ĠGDP": 6648,
      "anda": 6649,
      "Ġque": 6650,
      "ular": 6651,
      "ĠCÃ¢y": 6652,
      "ĠCá»ĳc": 6653,
      "Æ¯ÆłNG": 6654,
      "Ġprod": 6655,
      "kin": 6656,
      "ĠTráºŃn": 6657,
      "ĠSÆ°Æ¡ng": 6658,
      "78606": 6659,
      "Ġngáº©n": 6660,
      "Ġgiup": 6661,
      "Ġalso": 6662,
      "ĠComp": 6663,
      "ĠGiá»įng": 6664,
      "Ġout": 6665,
      "17378606": 6666,
      "Ġchiáº¿t": 6667,
      "mann": 6668,
      "ĠrÃªu": 6669,
      "Ġtáº¥p": 6670,
      "ĠhÃŃt": 6671,
      "Ġ78": 6672,
      "eople": 6673,
      "ĠDaily": 6674,
      "Ġsal": 6675,
      "Ġquáº¥y": 6676,
      "ĠVNPT": 6677,
      "Ġhá»Ŀ": 6678,
      "ĠHáº£o": 6679,
      "ĠlÃ¡ng": 6680,
      "ĠCá»ĳ": 6681,
      "Ġ76": 6682,
      "ĠchiÃªm": 6683,
      "Ġ$": 6684,
      "ĠMark": 6685,
      "Ġ1992": 6686,
      "Wh": 6687,
      "CÃ¡": 6688,
      "uty": 6689,
      "ĠCHI": 6690,
      "Ã³p": 6691,
      "ĠTK": 6692,
      "ChuyÃªn": 6693,
      "Cháº³ng": 6694,
      "ĠFIFA": 6695,
      "ĠvÄĥng": 6696,
      "NA": 6697,
      "Ġtáº¡ng": 6698,
      "Ġproject": 6699,
      "Mar": 6700,
      "ĠHá»ķ": 6701,
      "ĠlÅ©ng": 6702,
      "Vá»ĭ": 6703,
      "ĠkhÃŃa": 6704,
      "ĠrÃ£": 6705,
      "ude": 6706,
      "Ġdáº»o": 6707,
      "cs": 6708,
      "MP": 6709,
      "Ġvá»©t": 6710,
      "Ġrequ": 6711,
      "ĠFlor": 6712,
      "Ġáº§m": 6713,
      "Ġmá»ĵm": 6714,
      "ĠkiÃªu": 6715,
      "aland": 6716,
      "ga": 6717,
      "ĠQuá»·": 6718,
      "Ġthá»ı": 6719,
      "Æ¯á»Ľc": 6720,
      "ĠÄĳÃ¨o": 6721,
      "ĠMourinho": 6722,
      "Ġhack": 6723,
      "rys": 6724,
      "Ġrobot": 6725,
      "inal": 6726,
      "()": 6727,
      "ĠAp": 6728,
      "Khai": 6729,
      "ĠSÃ¡ch": 6730,
      "ten": 6731,
      "MA": 6732,
      "ĠMazda": 6733,
      "Tháº§y": 6734,
      "QH": 6735,
      "ĠBÄĲS": 6736,
      "ason": 6737,
      "ĠMong": 6738,
      "ĠUl": 6739,
      "Ġmodel": 6740,
      "Ġkiá»ģm": 6741,
      "Iá»Ģ": 6742,
      "ĠLi": 6743,
      "ival": 6744,
      "á»Ĭ": 6745,
      "ĠLED": 6746,
      "ĠÃģi": 6747,
      "ĠNAM": 6748,
      "chÃło": 6749,
      "Máº«u": 6750,
      "Ġngá»Ńa": 6751,
      "ĠchÃ©o": 6752,
      "wn": 6753,
      "ĠSpa": 6754,
      "ĦN": 6755,
      "Ġ?-": 6756,
      "?âĢĿ.": 6757,
      "ĠChiÃªu": 6758,
      "ĠbÃ£": 6759,
      "ĠÄĳoan": 6760,
      "ĠHN": 6761,
      "Ġsiáº¿t": 6762,
      "105": 6763,
      "Ġ(-": 6764,
      "Ġ1996": 6765,
      "Phim": 6766,
      "Dep": 6767,
      "ĠCÃºp": 6768,
      "Ġngá»ĳc": 6769,
      "ĠchoÃ¡ng": 6770,
      ":âĪĴ": 6771,
      "oma": 6772,
      "Máº¹o": 6773,
      "BP": 6774,
      "IBVCB": 6775,
      "Vi": 6776,
      "Ġmenu": 6777,
      "itan": 6778,
      "ĠÆ°á»Ľp": 6779,
      "Ġthon": 6780,
      "Ġngháº¹n": 6781,
      "Com": 6782,
      "ĠMuá»ĳn": 6783,
      "ĠLá»Ŀi": 6784,
      "ĠPhim": 6785,
      "cÃ´ng": 6786,
      "ĠHuyáº¿t": 6787,
      "ĠNÄĥng": 6788,
      "Ġphiáº¿n": 6789,
      "ĠNV": 6790,
      "Ġrá»ĳt": 6791,
      "Ġhoáº¡": 6792,
      "Tay": 6793,
      "476": 6794,
      "Cao": 6795,
      "Ġ1980": 6796,
      "Ãµng": 6797,
      "lobal": 6798,
      "ĠWeb": 6799,
      "ĠTÆ°á»Ľng": 6800,
      "ĠVáº¥n": 6801,
      "Ġrá»ĩt": 6802,
      "unction": 6803,
      "OP": 6804,
      "áº¤n": 6805,
      "ĠDep": 6806,
      "Ġteam": 6807,
      "ĠMao": 6808,
      "ila": 6809,
      "Ġ1993": 6810,
      "FC": 6811,
      "150": 6812,
      "Ġnew": 6813,
      "ĠdÃª": 6814,
      "ĠoÃ¡n": 6815,
      "Ġsá»į": 6816,
      "ĠTan": 6817,
      "LÃ¢m": 6818,
      "ĠbÃ³c": 6819,
      "ĠTrÃ¬nh": 6820,
      "GiÃ¡m": 6821,
      "Ġ()": 6822,
      "ĠhÃ£m": 6823,
      "ÄĲoáº¡n": 6824,
      "Ġnhiáº¿p": 6825,
      "eymar": 6826,
      "ĠFrank": 6827,
      "Ġráº£nh": 6828,
      "ĠBáº¯t": 6829,
      "ĠtrÄĥn": 6830,
      "Ġthá»ĳi": 6831,
      "Ġxáº»": 6832,
      "nat": 6833,
      "Ġcontr": 6834,
      "ĠmÃ¬n": 6835,
      "ÄĲang": 6836,
      "%;": 6837,
      "ĠDes": 6838,
      "Ġiu": 6839,
      "dáº¡": 6840,
      "bin": 6841,
      "ãĢ": 6842,
      "ĠChÃło": 6843,
      "230": 6844,
      "ĠnhÃ¡": 6845,
      "ĠVÃĢ": 6846,
      "ĠlÃ¡ch": 6847,
      "dt": 6848,
      "ystem": 6849,
      "ixel": 6850,
      "NgÃ´i": 6851,
      "Ġcá»ĳi": 6852,
      "120": 6853,
      "Ġvá»Ľt": 6854,
      "eri": 6855,
      "ĠNÄĲ": 6856,
      "ĠNgÃ´i": 6857,
      "Ġniá»ĩu": 6858,
      "EUR": 6859,
      "ĠVlad": 6860,
      "Ġ350": 6861,
      "ĠRod": 6862,
      "ĠdÃ©p": 6863,
      "VÆ°Æ¡ng": 6864,
      "My": 6865,
      "cast": 6866,
      "áº½n": 6867,
      "DN": 6868,
      "ĠSá»©c": 6869,
      "Ġ180": 6870,
      "ĠchÃ¹m": 6871,
      "Ġmini": 6872,
      "ĠBMW": 6873,
      "ĠHoáº·c": 6874,
      "ĠÄĳáº£": 6875,
      "XÃ¢y": 6876,
      "ĠgiÃ²": 6877,
      "Mua": 6878,
      "ĠrÃ²": 6879,
      "ĠRam": 6880,
      "ather": 6881,
      "2011": 6882,
      "ĠVáºŃt": 6883,
      "hay": 6884,
      "ato": 6885,
      "ĠðŁĻ": 6886,
      "ĠtrÃªu": 6887,
      "TÆ°": 6888,
      "ĠTá»Ľi": 6889,
      "ĠvÃ¡c": 6890,
      "2012": 6891,
      ":))": 6892,
      "ĠRAM": 6893,
      "ĠchÃ¨o": 6894,
      "uth": 6895,
      "ĠUá»·": 6896,
      "Game": 6897,
      "ĠNay": 6898,
      "Ġsáº¥u": 6899,
      "áº¢N": 6900,
      "oli": 6901,
      "uto": 6902,
      "Ġngáº£": 6903,
      "ĠTÃło": 6904,
      "Tá»±": 6905,
      "ĠmÃłi": 6906,
      "LuáºŃt": 6907,
      "eland": 6908,
      "Ġclick": 6909,
      "etro": 6910,
      "ðŁĺģ": 6911,
      "ICE": 6912,
      "PhÃºt": 6913,
      "ĠUSB": 6914,
      "Nghi": 6915,
      "GT": 6916,
      "Nhá»Ŀ": 6917,
      "ĠRang": 6918,
      "Ġlá»¯": 6919,
      "SS": 6920,
      "Ġwork": 6921,
      "ĠHAGL": 6922,
      "ĠthÃª": 6923,
      "ĠXÆ°Æ¡ng": 6924,
      "nay": 6925,
      "148": 6926,
      "ĠbÃ´i": 6927,
      "ĠRub": 6928,
      "ĠBol": 6929,
      "Ġ1991": 6930,
      "Ġluá»Ļc": 6931,
      "Ġnhá»Ļn": 6932,
      "ThÃŃ": 6933,
      "ĠĠĠĠĠĠĠĠĠ": 6934,
      "ĠâĿ¤ï¸ı": 6935,
      "HÆ°Æ¡ng": 6936,
      "ĠkhiÃªm": 6937,
      "Ġtáº¡t": 6938,
      "ĠUr": 6939,
      "ĠThuáº¿": 6940,
      "ĠTri": 6941,
      "Ġhá»ĩt": 6942,
      "á»ķn": 6943,
      "................": 6944,
      "TÃ¢n": 6945,
      "Ġmeth": 6946,
      "ðŁĻıðŁĻı": 6947,
      "ĠSec": 6948,
      "ĠKÃŃnh": 6949,
      "Ġadd": 6950,
      "ets": 6951,
      "ÄĲÃ´i": 6952,
      "Ġsá»«ng": 6953,
      "ĠHá»ıa": 6954,
      "ambyc": 6955,
      "Ġsáº¹o": 6956,
      "á»Ķ": 6957,
      "ĠLat": 6958,
      "andal": 6959,
      "ĠCerambyc": 6960,
      "ĠCerambycidae": 6961,
      "Song": 6962,
      "uel": 6963,
      "ĠHag": 6964,
      "ais": 6965,
      "ĠÃºt": 6966,
      "ĠÄĳá»¥c": 6967,
      "ĠGÃ²": 6968,
      "oun": 6969,
      "Ġgr": 6970,
      "yp": 6971,
      "ider": 6972,
      "shop": 6973,
      "fo": 6974,
      "Ġxáº¯n": 6975,
      "Ġna": 6976,
      "ĠcÃ²i": 6977,
      "Ġreo": 6978,
      "Giáº£m": 6979,
      "sky": 6980,
      "Ko": 6981,
      "ĠsÃłnh": 6982,
      "Ġ1994": 6983,
      "Ġtuá»³": 6984,
      "ĠLÃ¢u": 6985,
      "ĠÄĤn": 6986,
      "ĠTour": 6987,
      "ĠWi": 6988,
      "Giao": 6989,
      "org": 6990,
      "Ġtro": 6991,
      "ĠSky": 6992,
      "ĠHoang": 6993,
      "áº¤T": 6994,
      "ĠMÃª": 6995,
      "ĠTá»ĭnh": 6996,
      "itco": 6997,
      "Ġ900": 6998,
      "ĠFederer": 6999,
      "Ġ61": 7000,
      "imir": 7001,
      "ĠArabia": 7002,
      "ĠGl": 7003,
      "Ġhigh": 7004,
      "PhÃ¡p": 7005,
      "aco": 7006,
      "TÃ¡c": 7007,
      "ĠHÃło": 7008,
      "ĠGT": 7009,
      "El": 7010,
      "Ġmac": 7011,
      "ĠMobile": 7012,
      "PhiÃªn": 7013,
      "Ġliáº¿c": 7014,
      "CÃ¢y": 7015,
      "Lo": 7016,
      "tact": 7017,
      "ĠHáº¯c": 7018,
      "ĠLuc": 7019,
      "Chuyá»ĥn": 7020,
      "ĠlÄĥm": 7021,
      "nhÆ°": 7022,
      "ĠGold": 7023,
      "ĠngÃłng": 7024,
      "ĠOscar": 7025,
      "ĠCáºŃn": 7026,
      "okia": 7027,
      "Long": 7028,
      "ĠMusk": 7029,
      "ĠrÃ¡o": 7030,
      "ĠLÃ´i": 7031,
      "BA": 7032,
      "alk": 7033,
      "Ġtháº¯p": 7034,
      "ĠKhÃ´i": 7035,
      "ĠUB": 7036,
      "Ġkkk": 7037,
      "Ġnhieu": 7038,
      "ori": 7039,
      "Phá»¥": 7040,
      "ĠAmazon": 7041,
      "ule": 7042,
      "ĠTÃł": 7043,
      "araoke": 7044,
      "ĠDÄ©": 7045,
      "Chá»©ng": 7046,
      "&#": 7047,
      "ĠLim": 7048,
      "arus": 7049,
      "ĠMaria": 7050,
      "Ġsáº£nh": 7051,
      "uld": 7052,
      "UONG": 7053,
      "Ġlivestream": 7054,
      "KhÃ¡m": 7055,
      "ĠKl": 7056,
      "NQ": 7057,
      "Ġact": 7058,
      "Mong": 7059,
      "mart": 7060,
      "Ġfacebook": 7061,
      "ĠNGO": 7062,
      "ĠMbappe": 7063,
      "ĠSar": 7064,
      "IDV": 7065,
      "ual": 7066,
      "ĠBrun": 7067,
      "ustin": 7068,
      "ĠÄĲá»ı": 7069,
      "ston": 7070,
      "ĠMunich": 7071,
      "ĠÄĳÃłng": 7072,
      "ÄĳÃ£": 7073,
      "ega": 7074,
      "ĠPi": 7075,
      "Ġváº«y": 7076,
      "And": 7077,
      "Ġgiá»¥c": 7078,
      "Ġtag": 7079,
      "áºłI": 7080,
      "ĠkÃŃp": 7081,
      "ĠhÃ¡": 7082,
      "ĠbÃ©n": 7083,
      "Ġnuá»ĳi": 7084,
      "ĠZel": 7085,
      "ĠSáº½": 7086,
      "rome": 7087,
      "ĠhÄĥng": 7088,
      "ĠkÃ¬nh": 7089,
      "HÃ£ng": 7090,
      "Fi": 7091,
      "Ġ69": 7092,
      "ĠxÃŃu": 7093,
      "ĠAnton": 7094,
      "Ġlocal": 7095,
      "ĠMá»Ļng": 7096,
      "loud": 7097,
      "Ġ0451000": 7098,
      "Ġmáº¡": 7099,
      "Ġthoáº£": 7100,
      "Æ¯T": 7101,
      "ĠGreen": 7102,
      "ĠSeoul": 7103,
      "ĠTHE": 7104,
      "Ġngoáº¡n": 7105,
      "ĠQÄĲND": 7106,
      "pha": 7107,
      "ĠgÃ³t": 7108,
      "ĠMartin": 7109,
      "VÃ¢ng": 7110,
      "Ġkaraoke": 7111,
      "ĠAv": 7112,
      "!-": 7113,
      "ĠnÃ¡m": 7114,
      "other": 7115,
      "how": 7116,
      "vietnam": 7117,
      "ĠCá»±c": 7118,
      "ĠPhÃ¢n": 7119,
      "ĠSuper": 7120,
      "Kiá»ĥm": 7121,
      "ĠrÆ°á»Ľc": 7122,
      "...,": 7123,
      "Ġrong": 7124,
      "ĠXuáº¥t": 7125,
      "ĠTáº¿": 7126,
      "ince": 7127,
      "Ġnhuá»Ļm": 7128,
      "Báº±ng": 7129,
      "ÄĲáº¹p": 7130,
      "Phan": 7131,
      "ĠKia": 7132,
      "ĠBuÃ´n": 7133,
      "ĠStore": 7134,
      "Ac": 7135,
      "ĠTur": 7136,
      "ĠCA": 7137,
      "Chá»įn": 7138,
      "Ġid": 7139,
      "Ġthiá»ģn": 7140,
      "Ġ1975": 7141,
      "Ġ98": 7142,
      "Báº¯c": 7143,
      "VÃ²ng": 7144,
      "ĠNÆ°Æ¡ng": 7145,
      "Ġvá»¥t": 7146,
      "ĠNe": 7147,
      "ĠKhuÃª": 7148,
      "ĠTiáº¿t": 7149,
      "Ġ73": 7150,
      "ĠYam": 7151,
      "ĠSi": 7152,
      "ĠMÃ£o": 7153,
      "Ġpháº«n": 7154,
      "ĠxÃłi": 7155,
      "PP": 7156,
      "ĠMiá»ģn": 7157,
      "Nguyen": 7158,
      "ister": 7159,
      "ĠHIV": 7160,
      "ĠVo": 7161,
      "âĻ¥": 7162,
      "ĠTÆ°á»Łng": 7163,
      "ĠSel": 7164,
      "ĠVO": 7165,
      "tech": 7166,
      "ĠPost": 7167,
      "ĠCNTT": 7168,
      "ĠArt": 7169,
      "Muá»ĳn": 7170,
      "Máº¥y": 7171,
      "ÄĲá»Ļc": 7172,
      "á»¤": 7173,
      "ĠÄĲang": 7174,
      "ĠCÄĲV": 7175,
      "Bn": 7176,
      "ĠThiá»ĩu": 7177,
      "ĠTuyá»ģn": 7178,
      "Ġtáº¥u": 7179,
      "Ġ88": 7180,
      "ĠAS": 7181,
      "aba": 7182,
      "ĠOm": 7183,
      "ĠAPI": 7184,
      "Ġgiáº¿ng": 7185,
      "2025": 7186,
      "eek": 7187,
      "ĠData": 7188,
      "Ãĥ": 7189,
      "ĠquáºŃt": 7190,
      "ÄĳÆ°á»£c": 7191,
      "ĠWin": 7192,
      "As": 7193,
      ";&": 7194,
      "Lá»ĭch": 7195,
      "ĠLiá»ĩt": 7196,
      "Ġnang": 7197,
      "Ġxua": 7198,
      "Ġtheir": 7199,
      "ĠYH": 7200,
      "ĠlÆ°á»£n": 7201,
      "ĠPeter": 7202,
      "ThÃ´i": 7203,
      "ifol": 7204,
      "ĠIm": 7205,
      "we": 7206,
      "ĠHuawei": 7207,
      "Ġtá»¥t": 7208,
      "Ġbá»©t": 7209,
      "Ġ77": 7210,
      "ĠvÃ£n": 7211,
      "ĠHome": 7212,
      "Ġmin": 7213,
      "Chung": 7214,
      "ĠAFP": 7215,
      "ved": 7216,
      "ĠKing": 7217,
      "ĠTÃ¬m": 7218,
      "ĠVÄ©": 7219,
      "ĠthÃ©t": 7220,
      "vi": 7221,
      "ĠCáº§m": 7222,
      "ĠJose": 7223,
      "ĠVinaPhone": 7224,
      "ago": 7225,
      "ĠFranc": 7226,
      "Ġcomm": 7227,
      "ĠsÃ³i": 7228,
      "Ġná»Ľi": 7229,
      "ĠJenn": 7230,
      "Ġnáº£n": 7231,
      "ĠVIETNAM": 7232,
      "ĠcÃ´i": 7233,
      "nLink": 7234,
      "ĠÄĳáº«m": 7235,
      "CK": 7236,
      "ĠxoÃ¡y": 7237,
      "PA": 7238,
      "itz": 7239,
      "tiáº¿ng": 7240,
      "ĠÄĲá»ĩ": 7241,
      "ĠPakistan": 7242,
      "Ġdis": 7243,
      "ĠJava": 7244,
      "ĠmÆ°á»£t": 7245,
      "ĠnghÃªnh": 7246,
      "uts": 7247,
      "cÃ´": 7248,
      "Ġdel": 7249,
      "ĠVFF": 7250,
      "ĠXI": 7251,
      "sá»ĳ": 7252,
      "ĠMe": 7253,
      "GÃ³i": 7254,
      "ĠDani": 7255,
      "476889": 7256,
      "ðŁĺĬ": 7257,
      "ĠNoi": 7258,
      "TTQ": 7259,
      "edan": 7260,
      "Ġ71": 7261,
      "ÄĲá»Ĺ": 7262,
      "ubishi": 7263,
      "ept": 7264,
      "auty": 7265,
      "ensky": 7266,
      "Ġ82": 7267,
      "ĠgiÃ£": 7268,
      "ealth": 7269,
      "Ġnhung": 7270,
      "ĠgÃ²": 7271,
      "ifer": 7272,
      "for": 7273,
      "ĠðŁ¤£ðŁ¤£": 7274,
      "Ġháº»m": 7275,
      "ĠCarl": 7276,
      "emb": 7277,
      "ĠStar": 7278,
      "ĠLiá»ĩu": 7279,
      "Am": 7280,
      "ĠmÃ¹ng": 7281,
      "ado": 7282,
      "SJC": 7283,
      "Ġpar": 7284,
      "ni": 7285,
      "ĠTrieu": 7286,
      "Thi": 7287,
      "Tai": 7288,
      "aster": 7289,
      "ĠInternational": 7290,
      "Ġmob": 7291,
      "ĠchÆ°ng": 7292,
      "tá»±": 7293,
      "ci": 7294,
      "itsubishi": 7295,
      "uri": 7296,
      "atia": 7297,
      "áĢ¸": 7298,
      "ĠWar": 7299,
      "Ġná»ĥ": 7300,
      "ĠDÆ°": 7301,
      "Ġviá»ģn": 7302,
      "Ġmic": 7303,
      "ism": 7304,
      "ector": 7305,
      "fa": 7306,
      "Sp": 7307,
      ")...": 7308,
      "Cá»ķ": 7309,
      "ĠQuáº§n": 7310,
      "Ġval": 7311,
      "ĠVladimir": 7312,
      "ĠchÃ¬": 7313,
      "ĠThÆ°á»Łng": 7314,
      "Ġmoi": 7315,
      "ĠAM": 7316,
      "Ġsi": 7317,
      "awa": 7318,
      "ĠgiÃ¡ng": 7319,
      "ĠAC": 7320,
      "XuÃ¢n": 7321,
      "ĠTHU": 7322,
      "Hiá»ĩp": 7323,
      "ĠgiÃłn": 7324,
      "nhá»¯ng": 7325,
      "Huyá»ģn": 7326,
      "Ġsexy": 7327,
      "ĠÄĲáº±ng": 7328,
      "Háº§u": 7329,
      "ĠID": 7330,
      "ĠtrÃ³i": 7331,
      "Ġ86": 7332,
      "Ġchuá»ĵng": 7333,
      "Ġsá»ıi": 7334,
      "ĠYhoccongdong": 7335,
      "ĠBTC": 7336,
      "Ġtáº©u": 7337,
      "ĠLoáº¡i": 7338,
      "Car": 7339,
      "ĠCro": 7340,
      "Ġlun": 7341,
      "ĠðŁ¤": 7342,
      "ļI": 7343,
      "Ġdáº¡n": 7344,
      "HNX": 7345,
      "ĠthÃŃnh": 7346,
      "Ġgam": 7347,
      "cept": 7348,
      "onom": 7349,
      "Ġpháº¥t": 7350,
      "ĠTÃ¹y": 7351,
      "ĠdÃ¨": 7352,
      "ĠnÃ³n": 7353,
      "ĠEng": 7354,
      "Ġngá»ı": 7355,
      "ette": 7356,
      "May": 7357,
      "Cam": 7358,
      "ĠNgÆ°": 7359,
      "PhÃŃa": 7360,
      "ĠkhoÃ¡t": 7361,
      "Ġsá»¯ng": 7362,
      "ĠTQ": 7363,
      "Ġ\"\"": 7364,
      "Ġ0451000476889": 7365,
      "ThÆ°á»£ng": 7366,
      "Ġneo": 7367,
      "Ġquáº¥n": 7368,
      "ĠRáºŃp": 7369,
      "393": 7370,
      "Ġ91": 7371,
      "TN": 7372,
      "ĠOF": 7373,
      "jj": 7374,
      "Ġláº¡y": 7375,
      "Nhi": 7376,
      "ĠPep": 7377,
      "ĠCháº¥n": 7378,
      "ĠÄĲiá»ĩp": 7379,
      "olo": 7380,
      "Ġbáº»": 7381,
      "Ġ92": 7382,
      "ĠvÆ°á»£ng": 7383,
      "Ġmon": 7384,
      "GÃ£": 7385,
      "ĠÄĳá»±c": 7386,
      "ĠEditor": 7387,
      "ĠÃĢ": 7388,
      "oot": 7389,
      "ĠTO": 7390,
      "ChÃ¡u": 7391,
      "ANK": 7392,
      "...âĢĿ": 7393,
      "ðŁĺŃ": 7394,
      "Ġbong": 7395,
      "PhÃº": 7396,
      "ĠEurop": 7397,
      "Ġtwo": 7398,
      "lu": 7399,
      "ĠCÃ¡m": 7400,
      "ĠâĢĭ": 7401,
      "ĠNghiÃªm": 7402,
      "Ġxáº£o": 7403,
      "NÃªn": 7404,
      "tá»©c": 7405,
      "ĠsÃ¡o": 7406,
      "Ġ024": 7407,
      "ĠnÃ²ng": 7408,
      "Ġstart": 7409,
      "Ġlá»«ng": 7410,
      "ĠTp": 7411,
      "ĠdÃło": 7412,
      "enger": 7413,
      "hoáº·c": 7414,
      "Ġgo": 7415,
      "mund": 7416,
      "ĠvÃ¹i": 7417,
      "uela": 7418,
      "ĠZelensky": 7419,
      "ĠTráº¡m": 7420,
      "ision": 7421,
      "Äĳi": 7422,
      "ĠbÆ°á»Łi": 7423,
      "ices": 7424,
      "ĠTá»ĳt": 7425,
      "Ġcáº¥y": 7426,
      "IT": 7427,
      "ban": 7428,
      "ĠcÄĥm": 7429,
      "ĠGa": 7430,
      "omes": 7431,
      "ĠthÃ¬a": 7432,
      "ĠnÃ³c": 7433,
      "ĠÄĳáº·ng": 7434,
      "ĠphiÃªu": 7435,
      "ĠGeorge": 7436,
      "odes": 7437,
      "ĠTfr": 7438,
      "Ġbá»įt": 7439,
      "ound": 7440,
      "Ġdec": 7441,
      "ĠTáº¡o": 7442,
      "Ġkey": 7443,
      "Ġxay": 7444,
      "áĢº": 7445,
      "ĠHS": 7446,
      "Ġnhiá»ħu": 7447,
      "ĠchÆ°": 7448,
      "ĠSÃ©c": 7449,
      "ĠMA": 7450,
      "ican": 7451,
      "tÃªn": 7452,
      "Ġ81": 7453,
      "ĠGiÃ³": 7454,
      "Ġall": 7455,
      "NgÃ´": 7456,
      "ĠPHONG": 7457,
      "ĠÃĶi": 7458,
      "ĠAsia": 7459,
      "ĠManchester": 7460,
      "Táº·ng": 7461,
      "date": 7462,
      "âĢ¢": 7463,
      "ails": 7464,
      "Ġtivi": 7465,
      "ĠKáº»": 7466,
      "ĠWe": 7467,
      "ĠSG": 7468,
      "Váº«n": 7469,
      "áĢ¬": 7470,
      "lÃł": 7471,
      "Real": 7472,
      "ĠFernand": 7473,
      "Ġgá»Łi": 7474,
      "ĠÄĲÃ¡nh": 7475,
      "ĠHill": 7476,
      "ĠFax": 7477,
      "DOJI": 7478,
      "ĠVn": 7479,
      "ChÃ¢u": 7480,
      "Ġthuá»Ł": 7481,
      "Ġtrans": 7482,
      "ĠlÃ¬": 7483,
      "Ġ256": 7484,
      "ÄĲá»Ļng": 7485,
      "ures": 7486,
      "irm": 7487,
      "ĠBá»ĳn": 7488,
      "ĠBur": 7489,
      "ĠAmer": 7490,
      "ĠngáºŃm": 7491,
      "aku": 7492,
      "ĠBig": 7493,
      "bi": 7494,
      "ru": 7495,
      "ĠCSÄĲT": 7496,
      "letico": 7497,
      "stan": 7498,
      "La": 7499,
      "Ġuser": 7500,
      "kov": 7501,
      "ĠCÆ°": 7502,
      "Ġcáº©m": 7503,
      "ĠHanoi": 7504,
      "Ġbáº¡t": 7505,
      "Ġqui": 7506,
      "ĠDoÃ£n": 7507,
      "Ġ1970": 7508,
      "ĠTuyet": 7509,
      "Ġbik": 7510,
      "ĠPu": 7511,
      "Ġá»ª": 7512,
      "ophyll": 7513,
      "Ġcons": 7514,
      "ĠnhÃło": 7515,
      "Ġ125": 7516,
      "Ġseries": 7517,
      "ĠDiá»ĩn": 7518,
      "Ġgá»«ng": 7519,
      "Ġphat": 7520,
      "UP": 7521,
      "Par": 7522,
      "pháº£i": 7523,
      "ĠBrent": 7524,
      "Ġlá»ģu": 7525,
      "CD": 7526,
      ".....": 7527,
      "ĠDáº§n": 7528,
      "ĠKhÃŃ": 7529,
      "ĠYoung": 7530,
      "ĠgÆ°á»£ng": 7531,
      "yright": 7532,
      "ĠTs": 7533,
      "Ġwhich": 7534,
      "Ġmore": 7535,
      "âĻª": 7536,
      "Ġacc": 7537,
      "Ġváº¯t": 7538,
      "ĠÄĳá»ĳn": 7539,
      "ÄĲÃ´ng": 7540,
      "Ġ1800": 7541,
      "ĠOld": 7542,
      "ze": 7543,
      "edd": 7544,
      "ĠJan": 7545,
      "Ġbáº§y": 7546,
      "vel": 7547,
      "Ġtháº¡o": 7548,
      "ÄĲÃ¡p": 7549,
      "ĠÄĲÃ´n": 7550,
      "oster": 7551,
      "ĠAN": 7552,
      "ĠchÃ³i": 7553,
      "Triá»ģu": 7554,
      "aro": 7555,
      "ĠSJC": 7556,
      "ĠmÃ©p": 7557,
      "ĠphÃ¡c": 7558,
      "tic": 7559,
      "ĠRh": 7560,
      "ĠTuyáº¿n": 7561,
      "ĠShin": 7562,
      "ĠLouis": 7563,
      "ChÃ¢n": 7564,
      "cess": 7565,
      "thi": 7566,
      "ĠHoÃ¡": 7567,
      "ĠtÃ©": 7568,
      "ðŁĳĭ": 7569,
      "ĠBOT": 7570,
      "ÃĶi": 7571,
      "LÃªn": 7572,
      "ĠThy": 7573,
      "asil": 7574,
      "Ġgiá»ģng": 7575,
      "Ġrá»ķ": 7576,
      "Ġ@": 7577,
      "idd": 7578,
      "king": 7579,
      "ĠBÆ°u": 7580,
      "itcoin": 7581,
      "BÃłn": 7582,
      "ĠNeymar": 7583,
      "IP": 7584,
      "Quá»·": 7585,
      "ezuela": 7586,
      "Ġbá»ĵng": 7587,
      "Ġcháº£o": 7588,
      "nect": 7589,
      "aga": 7590,
      "Cáº·p": 7591,
      "ĠVáº«n": 7592,
      "ĠKiem": 7593,
      "á»Ĵ": 7594,
      "edu": 7595,
      "ĠZalo": 7596,
      "Quáº£n": 7597,
      "Ġnguyá»ĩt": 7598,
      "Má»Ŀi": 7599,
      "Ġâ": 7600,
      "ĠgáºŃp": 7601,
      "ĠquyÃªn": 7602,
      "RiÃªng": 7603,
      "ĠNat": 7604,
      "wards": 7605,
      "ĠWil": 7606,
      "áº©ng": 7607,
      "ĠÄĳÃ²": 7608,
      "ĠlÃºng": 7609,
      "Ġbá»ĭt": 7610,
      "BÃ¡nh": 7611,
      "Apple": 7612,
      "áº¥ng": 7613,
      "ĠBlu": 7614,
      "cÃ²n": 7615,
      "ĠHoáº¡t": 7616,
      "ĠGiá»¯a": 7617,
      "sa": 7618,
      "kham": 7619,
      "ĠngÃ¡n": 7620,
      "ĠvÃ²i": 7621,
      "Huy": 7622,
      "ĠhÃ¡o": 7623,
      "ĠquÃŃ": 7624,
      "Di": 7625,
      "ĠTuyá»ĩt": 7626,
      "ĠNap": 7627,
      "Ġxá»ķ": 7628,
      "Ġyáº¿n": 7629,
      "trÃ¡i": 7630,
      "OR": 7631,
      "Ġchá»ķ": 7632,
      "Ġrá»ħ": 7633,
      "ĠchÃ³t": 7634,
      "ĠMÅ©i": 7635,
      "Ġpho": 7636,
      "lan": 7637,
      "ĠPe": 7638,
      "ĠNote": 7639,
      "ĠgÃ¢n": 7640,
      "Ġ1989": 7641,
      "ĠLux": 7642,
      "ĠUAV": 7643,
      "ĠTá»ģ": 7644,
      "ĠRos": 7645,
      "PH": 7646,
      "ĠMir": 7647,
      "TÃ¢m": 7648,
      "ĠTHANH": 7649,
      "ĠNhÆ°á»¡ng": 7650,
      "ĠClin": 7651,
      "Bá»įn": 7652,
      "ðŁĺĨ": 7653,
      "ĠCrim": 7654,
      "Ġfunction": 7655,
      "ef": 7656,
      "Má»©c": 7657,
      "ĠCÄĲ": 7658,
      "Ġ74": 7659,
      "rich": 7660,
      "Ġthá»Ńa": 7661,
      "siÃªu": 7662,
      "ĠhÆ°ng": 7663,
      "ĠKhuyáº¿n": 7664,
      "ĠsÆ°á»Łi": 7665,
      "ĠCos": 7666,
      "VÃµ": 7667,
      "ster": 7668,
      "Ġ1982": 7669,
      "NgÃłnh": 7670,
      "ĠHungary": 7671,
      "oshi": 7672,
      "ĠHá»ĵn": 7673,
      "Ġ160": 7674,
      "ĠRi": 7675,
      "ĠMINH": 7676,
      "á»¨": 7677,
      "____": 7678,
      "Ġváº¥p": 7679,
      "ÄĲáº¡o": 7680,
      "ĠSuz": 7681,
      "file": 7682,
      "Ġten": 7683,
      "ural": 7684,
      "ĠAT": 7685,
      "ret": 7686,
      "ĠCNN": 7687,
      "ĠcÃły": 7688,
      "Ġá»ĵ": 7689,
      "ĠDong": 7690,
      "âĢĭâĢĭ": 7691,
      "ĠHun": 7692,
      "Ma": 7693,
      "ĠUnivers": 7694,
      "sil": 7695,
      "Â»": 7696,
      "ðŁĴ¥": 7697,
      "brid": 7698,
      "enko": 7699,
      "ĠLos": 7700,
      "eral": 7701,
      "ĠUAE": 7702,
      "GÃ³c": 7703,
      "Cáº¥p": 7704,
      "Ġháº¥t": 7705,
      "ĠrÃŃt": 7706,
      "Ġtáº¡c": 7707,
      "ĠNÃºi": 7708,
      "ĠThomas": 7709,
      "tor": 7710,
      "view": 7711,
      "ĠGÃ³i": 7712,
      "ĠNob": 7713,
      "Ġwa": 7714,
      "Giá»ĳng": 7715,
      "eter": 7716,
      "ĠCat": 7717,
      "ĠrÃ³t": 7718,
      "ASA": 7719,
      "TX": 7720,
      "Ġ1988": 7721,
      "ĠHuynh": 7722,
      "acom": 7723,
      "back": 7724,
      "Váº¥n": 7725,
      "ĠTuÃ¢n": 7726,
      "ĠBor": 7727,
      "To": 7728,
      "Ġits": 7729,
      "ĠZh": 7730,
      "ĠÄĳun": 7731,
      "Ġthung": 7732,
      "ÃĮNH": 7733,
      "ĠCá»±u": 7734,
      "ĠWHO": 7735,
      "!âĢĿ.": 7736,
      "ĠCháº¿": 7737,
      "Ġover": 7738,
      "050": 7739,
      "kok": 7740,
      "oint": 7741,
      "ĠVer": 7742,
      "mo": 7743,
      "ents": 7744,
      "ĠIntel": 7745,
      "Ġvo": 7746,
      "SCO": 7747,
      "ĠDub": 7748,
      "VÃ´": 7749,
      "neum": 7750,
      "Helo": 7751,
      "thÃłnh": 7752,
      "ĠBáº£ng": 7753,
      "ĠtoÃ¡t": 7754,
      "ĠKhá»ĳi": 7755,
      "ĠHáº¡ng": 7756,
      "Ġ79": 7757,
      "jan": 7758,
      "Quáº£": 7759,
      "eto": 7760,
      "ĠChuyá»ĥn": 7761,
      "ĠNm": 7762,
      "ĠTrá»±c": 7763,
      "ĠMarc": 7764,
      "ĠMÃ£i": 7765,
      "ĠBelarus": 7766,
      "Ġoffice": 7767,
      "ĠliÃªng": 7768,
      "ĠNhiÃªn": 7769,
      "ĠSony": 7770,
      "250": 7771,
      "ĠcÃºc": 7772,
      "Ġbr": 7773,
      "ĠSir": 7774,
      "NÃły": 7775,
      "Ġes": 7776,
      "Ġcomponent": 7777,
      "ĠBec": 7778,
      "Ġ028": 7779,
      "Ġbuild": 7780,
      "Ġhá»§": 7781,
      "Ġtru": 7782,
      "ĠTÆ¯": 7783,
      "igue": 7784,
      "ĠrÃ¹ng": 7785,
      "Ġnáº¿m": 7786,
      "ĠtrÃ¨o": 7787,
      "Báº¡ch": 7788,
      "ĠðŁ¤£": 7789,
      "ĠÄĳá»Ŀ": 7790,
      "Ġnguá»Ļi": 7791,
      "HáºŃu": 7792,
      "asp": 7793,
      "ĠChá»įn": 7794,
      "esla": 7795,
      "ĠANH": 7796,
      "ĠAcc": 7797,
      "ream": 7798,
      "ĠLÃ£i": 7799,
      "ati": 7800,
      "Ġáº¥u": 7801,
      "Ġuáº¥t": 7802,
      "950": 7803,
      "jd": 7804,
      "ĠHáº¡o": 7805,
      "ĠMá»Ŀi": 7806,
      "Deputy": 7807,
      "ĠTrÃłng": 7808,
      "ĠCrimea": 7809,
      "Ġgieo": 7810,
      "Ġmethod": 7811,
      "Ġráº§m": 7812,
      "pro": 7813,
      "ĠRu": 7814,
      "ardo": 7815,
      "Head": 7816,
      "ĠrÃ¡n": 7817,
      "ĠThuá»·": 7818,
      "Tá»Ŀ": 7819,
      "On": 7820,
      "ĠtrÃºt": 7821,
      "ĠWall": 7822,
      "ĠBin": 7823,
      "ito": 7824,
      "ĠthÃ¢u": 7825,
      "umber": 7826,
      "ites": 7827,
      "ĠÆ¯u": 7828,
      "ĠxÆ°á»Ľng": 7829,
      "ĠMáº¡ng": 7830,
      "ffee": 7831,
      "each": 7832,
      "Ġláº©m": 7833,
      "nik": 7834,
      "ĠÃĬ": 7835,
      "ĠBos": 7836,
      "zh": 7837,
      "ðŁı»": 7838,
      "Ġngháº½n": 7839,
      "Ġáº¿ch": 7840,
      "Ġngáº¡o": 7841,
      "field": 7842,
      "It": 7843,
      "ken": 7844,
      "ĠBuá»ķi": 7845,
      "ifi": 7846,
      "ages": 7847,
      "ĠSO": 7848,
      "hot": 7849,
      "ĠBá»Ļi": 7850,
      "Ġgá»ĳm": 7851,
      "Ġngáº©ng": 7852,
      "á»¨ng": 7853,
      "Ã§": 7854,
      "Ġtime": 7855,
      "rah": 7856,
      "thuquan": 7857,
      "ĠÄĳÃºp": 7858,
      "ĠComm": 7859,
      "Ġgá»Ľm": 7860,
      "ĠHer": 7861,
      "Express": 7862,
      "ĠvÃ¡": 7863,
      "ĠGiai": 7864,
      "fig": 7865,
      "Ġ83": 7866,
      "ĠEnter": 7867,
      "Huá»³nh": 7868,
      "ĠVietcombank": 7869,
      "ĠthÃł": 7870,
      "ĠbÃ¬a": 7871,
      "sau": 7872,
      "%).": 7873,
      "ĠThuá»Ļt": 7874,
      "ĠðŁĺĤðŁĺĤðŁĺĤ": 7875,
      "ĠTÃ¡o": 7876,
      "Ġ1986": 7877,
      "CáºŃn": 7878,
      "ĠAds": 7879,
      "BB": 7880,
      "aby": 7881,
      "Ġphá»¥ng": 7882,
      "icus": 7883,
      "ves": 7884,
      "ĠĠĠĠĠĠĠĠĠĠĠĠĠĠĠĠĠĠĠĠĠĠĠĠĠĠĠĠĠĠĠĠ": 7885,
      "ĠTrá»¥": 7886,
      "ĠBern": 7887,
      "issan": 7888,
      "Love": 7889,
      "ĠDiÃªn": 7890,
      "Ġthá»¥c": 7891,
      "Trá»Ŀi": 7892,
      "\"...": 7893,
      "assage": 7894,
      "ĠDiá»ĩm": 7895,
      "Ġtháº¯m": 7896,
      "Quyáº¿t": 7897,
      "ublic": 7898,
      "ĠâĢĭâĢĭ": 7899,
      "ĠTÃŃch": 7900,
      "ias": 7901,
      "Ġ1960": 7902,
      "ĠCharles": 7903,
      "Ġcá»¥t": 7904,
      "bled": 7905,
      "ĠMáºŃu": 7906,
      "Ġmake": 7907,
      "ĠLá»Ľn": 7908,
      "uring": 7909,
      "Ġplay": 7910,
      "Ġrequest": 7911,
      "LÆ°Æ¡ng": 7912,
      "ĠCá»ķng": 7913,
      "ĠBÃłng": 7914,
      "lec": 7915,
      "Tam": 7916,
      "ison": 7917,
      "DÃ¹ng": 7918,
      "ĠUyá»ĥn": 7919,
      "ĠÃļt": 7920,
      "ĠÄĲoáº¡n": 7921,
      "ĠCopyright": 7922,
      "ĠÄĳÃ£ng": 7923,
      "NÃ¢ng": 7924,
      "ĠÆ¡": 7925,
      "ĠgÃłng": 7926,
      "Ġphai": 7927,
      "ĠÃ´i": 7928,
      "ĠgÃło": 7929,
      "Ġrang": 7930,
      "Ġbáº§n": 7931,
      "ÄĤNG": 7932,
      "ĠbÃº": 7933,
      "giáº£i": 7934,
      "wa": 7935,
      "Ġcap": 7936,
      "BÄĲ": 7937,
      "BI": 7938,
      "ĠNhÆ°á»£c": 7939,
      "opp": 7940,
      "Háº¡": 7941,
      "ĠkÃ¨": 7942,
      "ther": 7943,
      ",âĢĿ": 7944,
      "aza": 7945,
      "))))": 7946,
      "ĠáºŃp": 7947,
      "Bl": 7948,
      "ĠMÃ³n": 7949,
      "phÆ°á»Ŀng": 7950,
      "ĠThao": 7951,
      "Táº¡o": 7952,
      "ĠChan": 7953,
      "Ġec": 7954,
      "ĠTháºŃp": 7955,
      "Bá»©c": 7956,
      "ĠâĿ¤": 7957,
      "ĠNSND": 7958,
      "ĠTCN": 7959,
      "ĠcÃ²": 7960,
      "ĠÄĳiáº¿u": 7961,
      "Giá»¯a": 7962,
      "ĠcÆ°á»¡i": 7963,
      "ĠTen": 7964,
      "ĠMTV": 7965,
      "ĠKen": 7966,
      "ĠkÃ¬m": 7967,
      "Äĳáº¡i": 7968,
      "Ġsá»ī": 7969,
      "ĠÄĳáº½": 7970,
      "ĠcÃło": 7971,
      "ortmund": 7972,
      "ĠSmart": 7973,
      "ĠUp": 7974,
      "ĠYoutube": 7975,
      "Dr": 7976,
      "ĠBIDV": 7977,
      "ÄĲá»ĵ": 7978,
      "dar": 7979,
      "ĠBlo": 7980,
      "Ġdau": 7981,
      "Vua": 7982,
      "ĠÄĲá»Ĭ": 7983,
      "SÆ¡n": 7984,
      "gu": 7985,
      "Ġsel": 7986,
      "ĠWilliam": 7987,
      "xt": 7988,
      "ĠHA": 7989,
      "ÄĲÆ°a": 7990,
      "ĠNgá»¥y": 7991,
      "ĠÄĲoan": 7992,
      "iban": 7993,
      "Ġrá»Ĺng": 7994,
      "Ġthen": 7995,
      "ĠÄĳiá»ģm": 7996,
      "ĠFerr": 7997,
      "Ġchá»įi": 7998,
      "ĠthÃªu": 7999,
      "ĠNav": 8000,
      "Ġhá»©c": 8001,
      "Ġ--": 8002,
      "ĠThÃŃ": 8003,
      "ĠNgÆ°á»£c": 8004,
      "ophi": 8005,
      "ĠLar": 8006,
      "ĠKu": 8007,
      "ĠTMCP": 8008,
      "ĠKe": 8009,
      "Contact": 8010,
      "Ġshopee": 8011,
      "ĠVÆ°á»Ŀn": 8012,
      "Ġrel": 8013,
      "ĠFin": 8014,
      "ĠvÃ²m": 8015,
      "ĠPower": 8016,
      "ious": 8017,
      "ĠLG": 8018,
      "Ġ108": 8019,
      "Chuáº©n": 8020,
      "ĠSÃ¡t": 8021,
      "ĠgÃ¡y": 8022,
      "ĠCO": 8023,
      "no": 8024,
      "inia": 8025,
      "ĠrÆ°á»¡i": 8026,
      "Ġwe": 8027,
      "Ġtháº¹n": 8028,
      "etty": 8029,
      "Ġck": 8030,
      "nhÃł": 8031,
      "Ġ96": 8032,
      "ĠTHIEU": 8033,
      "Ġgáº·t": 8034,
      "Editor": 8035,
      "Tuá»ķi": 8036,
      "bert": 8037,
      "Ġcáº©u": 8038,
      "Nháº¡c": 8039,
      "áº³m": 8040,
      "ĠlÆ°á»Ŀi": 8041,
      "Ġgas": 8042,
      "CCC": 8043,
      "Æ°á»Ŀm": 8044,
      "Chelsea": 8045,
      "orth": 8046,
      "Ġinvest": 8047,
      "Ġnu": 8048,
      "ria": 8049,
      "Ġmiá»ĩt": 8050,
      "gen": 8051,
      "Ġtá»³": 8052,
      "3412": 8053,
      "ĠOff": 8054,
      "ĠÄĳk": 8055,
      "Ġ090320": 8056,
      "ÅŁ": 8057,
      "Ġquangcao": 8058,
      "Ġbikini": 8059,
      "une": 8060,
      "ĠchÃ¨n": 8061,
      "ĠHá»Ļ": 8062,
      "Ġquáº¥t": 8063,
      "oooo": 8064,
      "Agency": 8065,
      "vedev": 8066,
      "ĠVOICE": 8067,
      "ĠSum": 8068,
      "Ġláº¹": 8069,
      "ĠVÃ²ng": 8070,
      "neumon": 8071,
      "ĠvÃłn": 8072,
      "Ġthoi": 8073,
      "ĠRep": 8074,
      "cá»ķ": 8075,
      "BN": 8076,
      "Ġ1945": 8077,
      "Tao": 8078,
      "Ġá»ķng": 8079,
      "âķ": 8080,
      "22105": 8081,
      "Ġ1017378606": 8082,
      "ĠIch": 8083,
      "Ġspa": 8084,
      "%),": 8085,
      "ĠLHQ": 8086,
      "Káº»": 8087,
      "read": 8088,
      "ĠAh": 8089,
      "Tuáº§n": 8090,
      "Ġcuá»ĳng": 8091,
      "39344": 8092,
      "ÄĲH": 8093,
      "ĠTex": 8094,
      "Ġ140": 8095,
      "ĠEreb": 8096,
      "Ġtoasoanvov": 8097,
      "ĠStudio": 8098,
      "Ġ0903203412": 8099,
      "22105148": 8100,
      "39344230": 8101,
      "oriz": 8102,
      "Ġnháº¹n": 8103,
      "Ġngáº¡t": 8104,
      "reen": 8105,
      "ĠSaigon": 8106,
      "ribank": 8107,
      "ĠnhÃ³c": 8108,
      "Ġsec": 8109,
      "ĠmiÃªn": 8110,
      "sá»Ńa": 8111,
      "ior": 8112,
      "Æ°á»£m": 8113,
      "ĠHÄĲXX": 8114,
      "ĠChÃ¹a": 8115,
      "850": 8116,
      "Ġkhá»ıa": 8117,
      "vin": 8118,
      "ĠEVN": 8119,
      "ĠMer": 8120,
      "Ġ123": 8121,
      "ĠHaw": 8122,
      "ĠColom": 8123,
      "cÆ¡": 8124,
      "ology": 8125,
      "----------------": 8126,
      "Hz": 8127,
      "ĠErebidae": 8128,
      "Lan": 8129,
      "ĠbÃºa": 8130,
      "090": 8131,
      "Ġkáº¹p": 8132,
      "ĠKháº¥u": 8133,
      "Ġbut": 8134,
      "elli": 8135,
      "Ġnhang": 8136,
      "ating": 8137,
      "eon": 8138,
      "ĠMitsubishi": 8139,
      "ĠVenezuela": 8140,
      "ĠKá»µ": 8141,
      "Ġnhá»ķ": 8142,
      "ope": 8143,
      "Báº£ng": 8144,
      "Ġinc": 8145,
      "ĠWatch": 8146,
      "ĠChuáº©n": 8147,
      "abeth": 8148,
      "Ġund": 8149,
      "ness": 8150,
      "ThÆ°": 8151,
      "ĠQH": 8152,
      "Åį": 8153,
      "ĠSnap": 8154,
      "Táº¿t": 8155,
      "SH": 8156,
      "TPHCM": 8157,
      "Ġnhai": 8158,
      "Hoáº·c": 8159,
      "Ah": 8160,
      "Ġ360": 8161,
      "Ġlogo": 8162,
      "Ġki": 8163,
      "osp": 8164,
      "ĠOk": 8165,
      "ĠhÃ¨n": 8166,
      "Ġhit": 8167,
      "ĠGer": 8168,
      "III": 8169,
      "Ġkn": 8170,
      "ember": 8171,
      "ĠnhÃ¡y": 8172,
      "ĠMá»Ļ": 8173,
      "Nhá»Ľ": 8174,
      "istry": 8175,
      "Ngáº¯m": 8176,
      "ĠChrome": 8177,
      "ĠFrancis": 8178,
      "ĠTuá»ĩ": 8179,
      "Truyá»ģn": 8180,
      "estival": 8181,
      "eco": 8182,
      "VI": 8183,
      "ĠXiao": 8184,
      "ĠCÃ¡n": 8185,
      "ĠHouse": 8186,
      "ĠMang": 8187,
      "icon": 8188,
      "ĠNik": 8189,
      "ÃĻ": 8190,
      "AL": 8191,
      "tÃ´i": 8192,
      "áº¢I": 8193,
      "Ġváº·n": 8194,
      "cha": 8195,
      "zo": 8196,
      "ĠThai": 8197,
      "Gáº·p": 8198,
      "Ġxá»ĭt": 8199,
      "ĠTesla": 8200,
      "ĠbÃºp": 8201,
      "Ġtrá»£n": 8202,
      "Ġ....": 8203,
      "ĠModel": 8204,
      "Ġblock": 8205,
      "Ġrá»Ĺi": 8206,
      "Ġexp": 8207,
      "Ġchat": 8208,
      "hai": 8209,
      "ateg": 8210,
      "bout": 8211,
      "html": 8212,
      "Chá»ĵng": 8213,
      "Ġinst": 8214,
      "MÃły": 8215,
      "ĠnhÃºn": 8216,
      "ĠEURO": 8217,
      "ĠTro": 8218,
      "ĠIdol": 8219,
      "yth": 8220,
      "Ġláº§y": 8221,
      "TI": 8222,
      "Ġbusiness": 8223,
      "Tá»Ľ": 8224,
      "Ġchuá»Ļc": 8225,
      "Ġsedan": 8226,
      "Ġdat": 8227,
      "ĠAtletico": 8228,
      "ĠrÃ¹a": 8229,
      "ĠxÃ¡t": 8230,
      "ĠCHÃį": 8231,
      "Ġkeo": 8232,
      "Ġ87": 8233,
      "Ġstream": 8234,
      "itch": 8235,
      "itr": 8236,
      "Ġchuá»ĵn": 8237,
      "ĠJi": 8238,
      "Un": 8239,
      "ĠNgoc": 8240,
      "ĠBá»Ńu": 8241,
      "ĠCÃ¡nh": 8242,
      "ordan": 8243,
      "ĠEc": 8244,
      "Ġdevelopment": 8245,
      "ÃĢY": 8246,
      "HÃ²a": 8247,
      "ĠFDI": 8248,
      "Ġtá»ĩp": 8249,
      "cá»§a": 8250,
      "ĠNN": 8251,
      "Ġnáº¡t": 8252,
      "Tráº»": 8253,
      "Ġhuá»·": 8254,
      "Ġyáº¿m": 8255,
      "omb": 8256,
      "rg": 8257,
      "ĠTrÃ¡c": 8258,
      "Ġtháº¡c": 8259,
      "Ġvá»¥n": 8260,
      "Ghi": 8261,
      "Ġná»ī": 8262,
      "otal": 8263,
      "ĠNÃły": 8264,
      "Ġback": 8265,
      "afford": 8266,
      "ĠchÆ°á»Ľng": 8267,
      "dor": 8268,
      "ĠThÃºc": 8269,
      "Quá»³nh": 8270,
      "Ġkhoanh": 8271,
      "Ġgiá»Ł": 8272,
      "ĠnhÃłn": 8273,
      "VÃłng": 8274,
      "áº¾N": 8275,
      "reg": 8276,
      "Ġváº§y": 8277,
      "Ġincl": 8278,
      "Cá»ĳ": 8279,
      "Ġgá»Ļi": 8280,
      "ĠNÃło": 8281,
      "ĠbÃªnh": 8282,
      "Ġnáº¿n": 8283,
      "ĠNic": 8284,
      "ker": 8285,
      "TrÃ¡i": 8286,
      "esc": 8287,
      "ĠGuardiola": 8288,
      "ĠNiger": 8289,
      "ĠSlam": 8290,
      "Iá»ĢN": 8291,
      "ĠIreland": 8292,
      "ĠGiá»ĳng": 8293,
      "Ġngáº«m": 8294,
      "MÃłn": 8295,
      "ĠSV": 8296,
      "ĠchoÃłng": 8297,
      "Gh": 8298,
      "ait": 8299,
      "ushi": 8300,
      "ĠNhan": 8301,
      "Ġnhá»ĵi": 8302,
      "ĠhiÃªn": 8303,
      "su": 8304,
      "Ġ1987": 8305,
      "LÃ£i": 8306,
      "ĠRen": 8307,
      "ĠRoy": 8308,
      "Ġtoáº£": 8309,
      "Ġshare": 8310,
      "Ġngá»©a": 8311,
      "NÆ¡i": 8312,
      "Ġnhá»ĳt": 8313,
      "rey": 8314,
      "Ġphen": 8315,
      "ĠFA": 8316,
      "ĠLink": 8317,
      "ĠThá»¥": 8318,
      "apan": 8319,
      "ĠðŁĺĤðŁĺĤ": 8320,
      "Can": 8321,
      "ĠlÃ³c": 8322,
      "Ġobject": 8323,
      "ĠmÃ¡c": 8324,
      "Ġchj": 8325,
      "cÃ¡i": 8326,
      "stein": 8327,
      "Nghá»ĭ": 8328,
      "ĠHá»©a": 8329,
      "ĠBÃ£i": 8330,
      "Ġkhiáº¿t": 8331,
      "ĠKur": 8332,
      "vo": 8333,
      "ĠPort": 8334,
      "Ġmuá»Ĺi": 8335,
      "ĠVilla": 8336,
      "Ġtoa": 8337,
      "ĠHP": 8338,
      "ĠJac": 8339,
      "Ġmáº¹o": 8340,
      "gram": 8341,
      "ĠtÆ°á»Ľi": 8342,
      "castle": 8343,
      "Vin": 8344,
      "ĠSev": 8345,
      "Ukraine": 8346,
      "Ġlá»Ńng": 8347,
      "Ġcmnd": 8348,
      "ĠMen": 8349,
      "Ġnoi": 8350,
      "Ġlá»¥y": 8351,
      "Ġgym": 8352,
      "ĠbÃ¡i": 8353,
      "iPhone": 8354,
      "ĠBangkok": 8355,
      "entral": 8356,
      "Ġráº¡ch": 8357,
      "...)": 8358,
      "ĠráºŃm": 8359,
      "Biáº¿t": 8360,
      "ĠKane": 8361,
      "Ġone": 8362,
      "Ġpat": 8363,
      "Ġhaha": 8364,
      "Ġchau": 8365,
      "ĠtuÃ½": 8366,
      "Ġsáº¥y": 8367,
      "Ġbody": 8368,
      "Ġtá»¥y": 8369,
      "ĠVÆ°á»£ng": 8370,
      "igo": 8371,
      "Lá»Ļ": 8372,
      "Lá»£i": 8373,
      "ĠThoáº¡i": 8374,
      "amil": 8375,
      "ĠTexas": 8376,
      "quy": 8377,
      "eda": 8378,
      "win": 8379,
      "etwork": 8380,
      "ĠNhá»Ľ": 8381,
      "lish": 8382,
      "ĠThá»©c": 8383,
      "Gr": 8384,
      "ĠAk": 8385,
      "ĠNhÃ¢m": 8386,
      "Ġláº©n": 8387,
      "ĠVictoria": 8388,
      "Ġ1985": 8389,
      "ĠFort": 8390,
      "ĠxoÃłi": 8391,
      "ĠBN": 8392,
      "ÄĲÃło": 8393,
      "Äĳá»ĥ": 8394,
      "ĠVNÄĲ": 8395,
      "Ġá»Ĵ": 8396,
      "ĠErik": 8397,
      "ĠNhÃłn": 8398,
      "Ġcháº±m": 8399,
      "Ġvl": 8400,
      "Ġ128": 8401,
      "Ġimport": 8402,
      "ĠNet": 8403,
      "ĠRichard": 8404,
      "Ġháº¯t": 8405,
      "ĠLÃ£ng": 8406,
      "SÃ¢n": 8407,
      "ĠThiÃªm": 8408,
      "ĠShar": 8409,
      "ĠLáº¥y": 8410,
      "Ġcafe": 8411,
      "Or": 8412,
      "ĠNho": 8413,
      "ailer": 8414,
      "ĠXa": 8415,
      "omel": 8416,
      "Cháº¥t": 8417,
      "ĠXung": 8418,
      "Is": 8419,
      "order": 8420,
      "GP": 8421,
      "aphone": 8422,
      "ĠSab": 8423,
      "ĠLÃłng": 8424,
      "ĠShow": 8425,
      "uction": 8426,
      "Tuyá»ĩt": 8427,
      "pper": 8428,
      "ĠDÃ²ng": 8429,
      "Ġ89": 8430,
      "ESCO": 8431,
      "NghiÃªn": 8432,
      "ĠTrans": 8433,
      "âŀ": 8434,
      "etsk": 8435,
      "ĠVáº¥p": 8436,
      "Ġá»Ĳ": 8437,
      "vá»Ľi": 8438,
      "ĠPau": 8439,
      "PTNT": 8440,
      "Chá»ĳt": 8441,
      "Ġrem": 8442,
      "Ġcol": 8443,
      "ĠVnExpress": 8444,
      "ĠhÃ¢n": 8445,
      "ser": 8446,
      "ĠNokia": 8447,
      "Ġngoáº·t": 8448,
      "Ġfirst": 8449,
      "Ġháº¯c": 8450,
      "VÃ¢n": 8451,
      "Ġcháº§n": 8452,
      "Ġ450": 8453,
      "Iá»Ĥ": 8454,
      "Ġdáº±n": 8455,
      "Ġdong": 8456,
      "Ġ97": 8457,
      "Ġtháº³m": 8458,
      "ĠEliz": 8459,
      "jet": 8460,
      "ĠlÃ³": 8461,
      "ĠGame": 8462,
      "Ġ?.": 8463,
      "ĠTrafford": 8464,
      "Ká»·": 8465,
      "Giá»įng": 8466,
      "Tá»īnh": 8467,
      "Ġdown": 8468,
      "ugh": 8469,
      "oom": 8470,
      "ĠNSÆ¯T": 8471,
      "Ġbeen": 8472,
      "ÃĢI": 8473,
      "ĠvÃ£i": 8474,
      "ĠHÃ²n": 8475,
      "ĠScot": 8476,
      "Ġtrá»ķ": 8477,
      "Ġáº¿": 8478,
      "Ġpeople": 8479,
      "Ġrá»ĵ": 8480,
      "ĠRec": 8481,
      "ĠðŁĺĺ": 8482,
      "Samsung": 8483,
      "den": 8484,
      "nÃ³ng": 8485,
      "Tuyá»ĥn": 8486,
      "ĠLinux": 8487,
      "ĠLÃĢ": 8488,
      "New": 8489,
      "ĠBob": 8490,
      "aut": 8491,
      "ĠÄĳÃ´n": 8492,
      "PhÃ¢n": 8493,
      "Ġbl": 8494,
      "TTg": 8495,
      "Ä©u": 8496,
      "ĠÄĳáºŃy": 8497,
      "Ġ220": 8498,
      "áĢĲ": 8499,
      "QuÃ¡n": 8500,
      "Ġxáº¥p": 8501,
      "ĠKHÃĶNG": 8502,
      "ĠmÃªnh": 8503,
      "yÃªu": 8504,
      "Sá»ĳng": 8505,
      "board": 8506,
      "Ġngá»Ŀi": 8507,
      "Ġsty": 8508,
      "Ġtennis": 8509,
      "á»Ńng": 8510,
      "2009": 8511,
      "BÃ¹i": 8512,
      "avi": 8513,
      "Ġvon": 8514,
      "inae": 8515,
      "Benz": 8516,
      "Ġ016": 8517,
      "ĠLÆ°": 8518,
      "Thá»§y": 8519,
      "EFA": 8520,
      "seud": 8521,
      "ĠgiÃ¹m": 8522,
      "ÃĢN": 8523,
      "tron": 8524,
      "jo": 8525,
      "Ġcanxi": 8526,
      "Ġ^^": 8527,
      "ustom": 8528,
      "ĠchÃŃch": 8529,
      "Book": 8530,
      "operation": 8531,
      "OL": 8532,
      "estine": 8533,
      "Ġcall": 8534,
      "ĠráºŃp": 8535,
      "Ġghe": 8536,
      "á»ĲC": 8537,
      "ĠSuzuki": 8538,
      "istics": 8539,
      "ĠRem": 8540,
      "Ġmassage": 8541,
      "OM": 8542,
      "off": 8543,
      "ĠCV": 8544,
      "ids": 8545,
      "ĠPhÃ¡i": 8546,
      "uay": 8547,
      "ĠnháºŃm": 8548,
      "bb": 8549,
      "ĠÃºng": 8550,
      "ĠvÆ¡": 8551,
      "Gá»įi": 8552,
      "ĠReg": 8553,
      "acombank": 8554,
      "ĠngÃ³ng": 8555,
      "ĠAlexander": 8556,
      "Tháº§n": 8557,
      "ĠMotor": 8558,
      "aker": 8559,
      "ĠHenry": 8560,
      "ĠDortmund": 8561,
      "ĠAngeles": 8562,
      "ady": 8563,
      "ĠLew": 8564,
      "Xá»Ń": 8565,
      "ident": 8566,
      "ĠMedvedev": 8567,
      "Buá»ķi": 8568,
      "qua": 8569,
      ".âĢľ": 8570,
      "ĠbÆ°ng": 8571,
      "ĠSub": 8572,
      "ðŁĶ¥": 8573,
      "LS": 8574,
      "âĢĿ...": 8575,
      "ĠvÃ¡ng": 8576,
      "ĠMÃ¹i": 8577,
      "Ġ115": 8578,
      "ounce": 8579,
      "etween": 8580,
      "ĠNghÄ©": 8581,
      "Ġchao": 8582,
      "áº®": 8583,
      "ĠRoma": 8584,
      "atum": 8585,
      "Ġtáº©m": 8586,
      "Ġsáº§m": 8587,
      "ĠMP": 8588,
      "ĠDie": 8589,
      "ĠJim": 8590,
      "vnthuquan": 8591,
      "ych": 8592,
      "netPhÃ¡t": 8593,
      "ĠCenter": 8594,
      "Ġáº¡t": 8595,
      "Ġkhiáº¿m": 8596,
      "opy": 8597,
      "ĠRÃµ": 8598,
      "play": 8599,
      "Ġmiáº¿u": 8600,
      "UYá»ĦN": 8601,
      "Ġxá»īu": 8602,
      "Ġráº¡n": 8603,
      "Ġcháº¯p": 8604,
      "ĠCrist": 8605,
      "Rh": 8606,
      "Ġpre": 8607,
      "ĠtrÃ¡": 8608,
      "ĠLá»Ĺ": 8609,
      "ĠchÃł": 8610,
      "DL": 8611,
      "Ġmá»Ĺ": 8612,
      "ĠCroatia": 8613,
      "ĠPot": 8614,
      "rown": 8615,
      "ĠBerlin": 8616,
      "ĠColombia": 8617,
      "ĠBon": 8618,
      "Ġcre": 8619,
      "ĠFire": 8620,
      "der": 8621,
      "ĠTHáº¬T": 8622,
      "ĠMoh": 8623,
      "ĠHymen": 8624,
      "count": 8625,
      "TK": 8626,
      "ĠSoc": 8627,
      "ðŁĴĸ": 8628,
      "ĠBloom": 8629,
      "ĠCÃłng": 8630,
      "ĠHel": 8631,
      "ĠcháºŃp": 8632,
      "Bá»ĳn": 8633,
      "iki": 8634,
      "Tuáº¥n": 8635,
      "UN": 8636,
      "ĠgiÃ´ng": 8637,
      "ĠrÄĥn": 8638,
      "á»¦y": 8639,
      "Ġhá»ĳc": 8640,
      "Giang": 8641,
      "ĠBá»Ĺng": 8642,
      "ĠDom": 8643,
      "col": 8644,
      "Ġdáº¡t": 8645,
      "eria": 8646,
      "ĠVill": 8647,
      "Ġrá»£n": 8648,
      "Ġtháº£y": 8649,
      "ĠSand": 8650,
      "urity": 8651,
      "emon": 8652,
      "eme": 8653,
      "ĠSuá»ĳt": 8654,
      "Ġquyá»ĩn": 8655,
      "ĠngÆ°á»Ľc": 8656,
      "umb": 8657,
      "ĠQR": 8658,
      "2024": 8659,
      "ĠLisa": 8660,
      "xe": 8661,
      "ĠJohnson": 8662,
      "php": 8663,
      "ĠvÃºt": 8664,
      "ĠHÆ°á»Ŀng": 8665,
      "tern": 8666,
      "Ġnguyá»ģn": 8667,
      "Ġngáº¥m": 8668,
      "ager": 8669,
      "ous": 8670,
      "hello": 8671,
      "ĠbáºŃy": 8672,
      "Ġphá»ĵng": 8673,
      "Ġnhiu": 8674,
      "Nov": 8675,
      "Náº±m": 8676,
      "ĠTráº§m": 8677,
      "nhÆ°ng": 8678,
      "ĠPCCC": 8679,
      "ording": 8680,
      "arden": 8681,
      "Arsenal": 8682,
      "ĠMáºŃt": 8683,
      "ĠChá»¯": 8684,
      "?\".": 8685,
      "ĠFab": 8686,
      "ĠÆł": 8687,
      "ĠSmith": 8688,
      "Ġcháº£i": 8689,
      "rop": 8690,
      "ĠÄĳÃ¡i": 8691,
      "ĠIb": 8692,
      "ative": 8693,
      "ique": 8694,
      "Ġ93": 8695,
      "ould": 8696,
      "ĠBlue": 8697,
      "HoÃłn": 8698,
      "2008": 8699,
      "Ġtrá»ı": 8700,
      "Ġprov": 8701,
      "ĠRog": 8702,
      "Ġnga": 8703,
      "get": 8704,
      "nM": 8705,
      "Ġráº§u": 8706,
      "ĠMH": 8707,
      "ĠÄĳÄĥm": 8708,
      "Tá»Ľi": 8709,
      "ĠvÃ´i": 8710,
      "QuáºŃn": 8711,
      "ĠVAN": 8712,
      "ĠMAI": 8713,
      "ĠtrÆ¡": 8714,
      "Ġ1984": 8715,
      "Ġcomment": 8716,
      "ĠÄĲá»ĬNH": 8717,
      "ution": 8718,
      "ection": 8719,
      "ĠLen": 8720,
      "ĠKhiÃªm": 8721,
      "una": 8722,
      "put": 8723,
      "âĸ": 8724,
      "ĠNháº¡n": 8725,
      "Æ¯á»ľI": 8726,
      "ĠThan": 8727,
      "cean": 8728,
      "AV": 8729,
      "Ġrev": 8730,
      "icester": 8731,
      "neumonidae": 8732,
      "ĠHaaland": 8733,
      "ĠIchneumonidae": 8734,
      "Messi": 8735,
      "MÆ°a": 8736,
      "Sch": 8737,
      "Ġae": 8738,
      "ĠTÃ³c": 8739,
      "ĠthÃ¬nh": 8740,
      "ĠÄĲáº¯c": 8741,
      "ĠGáº¥u": 8742,
      "Ġngháº¹t": 8743,
      "ĠChina": 8744,
      "Ġradar": 8745,
      "ilis": 8746,
      "Ġtá»ħ": 8747,
      "...-": 8748,
      "ĠSerie": 8749,
      "ĠPhone": 8750,
      "Ġbetween": 8751,
      "ĠDÃ¹ng": 8752,
      "ĠVá»įng": 8753,
      "MÃ³n": 8754,
      "ĠRock": 8755,
      "Ġhat": 8756,
      "0000": 8757,
      "orea": 8758,
      "athon": 8759,
      "Ġyoga": 8760,
      "uma": 8761,
      "Bu": 8762,
      "ĠSaint": 8763,
      "arez": 8764,
      "ĠTáº¡ng": 8765,
      "ĠÄĳá»ĳ": 8766,
      "du": 8767,
      "Æ¯á»ļ": 8768,
      "ĠCTC": 8769,
      "ĠnhÃ´m": 8770,
      "ovo": 8771,
      "Ġmá»Ľ": 8772,
      "DÃ²ng": 8773,
      "!\\": 8774,
      "ĠMah": 8775,
      "Ġthoa": 8776,
      "Tráº£i": 8777,
      "ÃģC": 8778,
      "gy": 8779,
      "ĠnhÃ©t": 8780,
      "rm": 8781,
      "fi": 8782,
      "âĢįâĢįâĢįâĢįâĢįâĢįâĢįâĢį": 8783,
      "Ly": 8784,
      "ĠFLC": 8785,
      "rant": 8786,
      "tÄĥng": 8787,
      "ĠJordan": 8788,
      "ĠTáº¡p": 8789,
      "Ġmk": 8790,
      "ĠMeg": 8791,
      "ĠhÃŃ": 8792,
      "ĠgÃ¡n": 8793,
      "Ġsch": 8794,
      "ĠsÆ°a": 8795,
      "Ġkháº¯t": 8796,
      "ĠWon": 8797,
      "ework": 8798,
      "emi": 8799,
      "ĠKa": 8800,
      "UB": 8801,
      "chÆ°a": 8802,
      "ĠTae": 8803,
      "ĠNational": 8804,
      "ĠHuáº¥n": 8805,
      "ĠPhÃºt": 8806,
      "ces": 8807,
      "ELTS": 8808,
      "ĠAsian": 8809,
      "Ġevent": 8810,
      "Ã²e": 8811,
      "==": 8812,
      "Ġik": 8813,
      "ĠtÃŃt": 8814,
      "Ġbá»Ľi": 8815,
      "ThÃ¬": 8816,
      "ĠmÃ©o": 8817,
      "Trá»įng": 8818,
      "ĠKaz": 8819,
      "nataka": 8820,
      "Ġlá»±u": 8821,
      "bes": 8822,
      "ĠMur": 8823,
      "Äĳá»ĳi": 8824,
      "Ġfol": 8825,
      "Bá»ı": 8826,
      "Mal": 8827,
      "ĠThuÃ½": 8828,
      "iff": 8829,
      "Ġpop": 8830,
      "ĠTáº¥m": 8831,
      "ThÆ°a": 8832,
      "ðŁĮ¹": 8833,
      "ĠVIá»ĨT": 8834,
      "eeee": 8835,
      "LÃło": 8836,
      "ĠVF": 8837,
      "Ġcá»§i": 8838,
      "ĠKarnataka": 8839,
      "ĠNghiá»ĩp": 8840,
      "Ġkhanh": 8841,
      "Tel": 8842,
      "Ġom": 8843,
      "225": 8844,
      "ĠUltra": 8845,
      "ĠRon": 8846,
      "ĠValent": 8847,
      "zy": 8848,
      "Ġcarbon": 8849,
      "ĠVH": 8850,
      "ced": 8851,
      "ĠBeauty": 8852,
      "ĠSerbia": 8853,
      "Ġur": 8854,
      "ĠmÃŃa": 8855,
      "ĠRá»ĵng": 8856,
      "âĢĿ;": 8857,
      "ĠKhmer": 8858,
      "don": 8859,
      "ĠAuto": 8860,
      "ĠPart": 8861,
      "ĠTang": 8862,
      "Ġcalo": 8863,
      "Ġhel": 8864,
      "Ġbai": 8865,
      "ĠCanh": 8866,
      "Hel": 8867,
      "ms": 8868,
      "ĠChia": 8869,
      "XÃ¡c": 8870,
      "ĠFlorida": 8871,
      "ĠLE": 8872,
      "ista": 8873,
      "ĠTaliban": 8874,
      "Ġoai": 8875,
      "Ġsl": 8876,
      "chá»§": 8877,
      "ĠChá»ĵng": 8878,
      "aris": 8879,
      "ways": 8880,
      "ju": 8881,
      "Ġsupport": 8882,
      "]]": 8883,
      "TháºŃm": 8884,
      "****": 8885,
      "Ġgl": 8886,
      "Ġscandal": 8887,
      "ĠhÃ£nh": 8888,
      "Ġ1972": 8889,
      "ÄĳÆ°á»Ŀng": 8890,
      "ĠKhá»ķng": 8891,
      "Ġgiá»ı": 8892,
      "Ġsá»Ńng": 8893,
      "med": 8894,
      "BÃ³ng": 8895,
      "ĠSGK": 8896,
      "esl": 8897,
      "chain": 8898,
      "Ġquáº·c": 8899,
      "ĠDubai": 8900,
      ",,": 8901,
      "TO": 8902,
      "sin": 8903,
      "Honda": 8904,
      "ĠngÃ¡c": 8905,
      "Ġnghiáº¿n": 8906,
      "Ġap": 8907,
      "ĠÃºp": 8908,
      "aaaa": 8909,
      "ĠMedia": 8910,
      "Toyota": 8911,
      "Ġ999": 8912,
      "ĠKat": 8913,
      "ĠCá»§": 8914,
      "Ġ170": 8915,
      "Quáº§n": 8916,
      "VP": 8917,
      "ĊĠĠĠĠĠĠĠĠĠĠĠ": 8918,
      "299": 8919,
      "BÃ¡n": 8920,
      "EM": 8921,
      "ĠThuy": 8922,
      "ĠWat": 8923,
      "owski": 8924,
      "ĠUNESCO": 8925,
      "á»°C": 8926,
      "emy": 8927,
      "ĠÄĲá»ĳc": 8928,
      "ĠClinton": 8929,
      "ĠSanta": 8930,
      "dio": 8931,
      "Äĳt": 8932,
      "Ġlogic": 8933,
      "ĠChat": 8934,
      "ĠGab": 8935,
      "ĠCB": 8936,
      "Ġcháº¡p": 8937,
      "ĠNgÃ´n": 8938,
      "ĠElizabeth": 8939,
      "?âĢĵ": 8940,
      "ĠBiá»ĥu": 8941,
      "ĠLÃ²": 8942,
      "\"),": 8943,
      "Ġ210": 8944,
      "ĠnhÃ´": 8945,
      "ĠLÃ´": 8946,
      "Ġeff": 8947,
      "Ġlove": 8948,
      "ĠATP": 8949,
      "ĠDay": 8950,
      "ĠPHÃį": 8951,
      "123": 8952,
      "ĠlÃ¹n": 8953,
      "ĠWag": 8954,
      "Phil": 8955,
      "ramework": 8956,
      "Ãģnh": 8957,
      "ĠAgribank": 8958,
      "ĠChrys": 8959,
      "ĠRol": 8960,
      "stal": 8961,
      "alli": 8962,
      "ĠCarol": 8963,
      "Ġviet": 8964,
      "á»¦A": 8965,
      "Ġbáº©y": 8966,
      "Ġcáº¡o": 8967,
      "anks": 8968,
      "ĠAwards": 8969,
      "hÆ¡n": 8970,
      "ðŁ¥°ðŁ¥°": 8971,
      "ĠNext": 8972,
      "ĠCross": 8973,
      "ĠGrab": 8974,
      "Ġtá»īa": 8975,
      "ĠÃįt": 8976,
      "ĠRoll": 8977,
      "Ġtá»§i": 8978,
      "ĠchÆ°á»Ľc": 8979,
      "ĠEuropa": 8980,
      "Ġmá»³": 8981,
      "ĠtÆ°ng": 8982,
      "ĠNGH": 8983,
      "Ġnháº¥c": 8984,
      "ault": 8985,
      "ĠsoÃ¡i": 8986,
      "Giáº£": 8987,
      "Ġhihi": 8988,
      "ThÆ°á»Ŀng": 8989,
      "á»Ī": 8990,
      "ĠBitcoin": 8991,
      "izza": 8992,
      "Google": 8993,
      "ĠXÃ¡c": 8994,
      "Ġeconom": 8995,
      "ĠPalestine": 8996,
      "Ġstress": 8997,
      "ocker": 8998,
      "Ġsoc": 8999,
      "Phá»¥c": 9000,
      "tn": 9001,
      ":&": 9002,
      "ĠThuáº§n": 9003,
      "rad": 9004,
      "Æ¯á»¢": 9005,
      "Ġfanpage": 9006,
      "ĠSk": 9007,
      "Ġprom": 9008,
      "ĠPle": 9009,
      "val": 9010,
      "ĠDV": 9011,
      "ĠIELTS": 9012,
      "ĠLuk": 9013,
      "ĠNoel": 9014,
      "ogba": 9015,
      "ÄĲinh": 9016,
      "Har": 9017,
      "ĠRÃªu": 9018,
      "rol": 9019,
      "icron": 9020,
      "atic": 9021,
      "Ġquáº¿": 9022,
      "Ġtrau": 9023,
      "gl": 9024,
      "QP": 9025,
      "ĠMike": 9026,
      "PGS": 9027,
      "ĠSin": 9028,
      "ingham": 9029,
      "ĠWales": 9030,
      "Cháº¿": 9031,
      "ource": 9032,
      "Rob": 9033,
      "thuá»Ļc": 9034,
      "ĠnÃŃu": 9035,
      "260": 9036,
      "âĻ¥ï¸ı": 9037,
      "esterol": 9038,
      "ĠTIáº¾T": 9039,
      "ĠhÃ³c": 9040,
      "Táº¡m": 9041,
      "Da": 9042,
      "ĠnÃł": 9043,
      "\").": 9044,
      "Ġfree": 9045,
      "hd": 9046,
      "ĠHymenoptera": 9047,
      "ĠGÃ³c": 9048,
      "Er": 9049,
      "abase": 9050,
      "\":": 9051,
      "ĠÄĲÆ°Æ¡ng": 9052,
      "Ná»Ĺi": 9053,
      "ÄĲáº·ng": 9054,
      "lÃ´": 9055,
      "ifolia": 9056,
      "HC": 9057,
      "Ġteh": 9058,
      "Ġngá»¥y": 9059,
      "ĠphÃłn": 9060,
      "emen": 9061,
      "ĠMary": 9062,
      "ĠMÃ¢y": 9063,
      "ĠJin": 9064,
      "Tra": 9065,
      "ete": 9066,
      "ĠngÃ²i": 9067,
      "Ġ105": 9068,
      "ĠTáº£": 9069,
      "ĠSM": 9070,
      "ĠDar": 9071,
      "ping": 9072,
      "ĠNewcastle": 9073,
      "ĠHáº¡c": 9074,
      "Viá»ĩn": 9075,
      "ppo": 9076,
      "ĠMTTQ": 9077,
      "ĠYamaha": 9078,
      "room": 9079,
      "Ġvá»ĵ": 9080,
      "oller": 9081,
      "HS": 9082,
      "ĠSIM": 9083,
      "...âĢĿ.": 9084,
      "ĠÄĲK": 9085,
      "Ġ1968": 9086,
      "ĠÄĲÃ¡": 9087,
      "Ġmáº©n": 9088,
      "GameSao": 9089,
      "Ġthy": 9090,
      "Ġhk": 9091,
      "En": 9092,
      "Chuyáº¿n": 9093,
      "Ġnem": 9094,
      "TuyÃªn": 9095,
      "ĠSwift": 9096,
      "ouch": 9097,
      "Ġbreak": 9098,
      "unc": 9099,
      "gar": 9100,
      "ĠLáº§u": 9101,
      "Mang": 9102,
      "Tá»«ng": 9103,
      "TÃ²a": 9104,
      "Ġphao": 9105,
      "Loáº¡i": 9106,
      "Ġyour": 9107,
      "Ġcat": 9108,
      "apa": 9109,
      "Káº¿": 9110,
      "ville": 9111,
      "iii": 9112,
      "ĠXÃ©t": 9113,
      "alle": 9114,
      "athan": 9115,
      "ĠHarv": 9116,
      "Ġbá»«a": 9117,
      "Ġtehsil": 9118,
      "ĠGlobal": 9119,
      "Gáº¥u": 9120,
      "ĠEdward": 9121,
      "ĠColl": 9122,
      "Ġ1983": 9123,
      "ĠOai": 9124,
      "ogan": 9125,
      "Ġass": 9126,
      "ÃĶI": 9127,
      "ĠphÃł": 9128,
      "QuÃ½": 9129,
      "ĠSud": 9130,
      "Ġ1950": 9131,
      "ility": 9132,
      "ĠVK": 9133,
      "ika": 9134,
      "áĢľ": 9135,
      "Re": 9136,
      "Ġvis": 9137,
      "Ġcorona": 9138,
      "ĠTaylor": 9139,
      "Ġlm": 9140,
      "ĠFox": 9141,
      "Ġcountries": 9142,
      "Ġlim": 9143,
      "ĠNgáº¡n": 9144,
      "Æ°á»Ľn": 9145,
      "oda": 9146,
      "Yáº¿n": 9147,
      "ĠxÃŃt": 9148,
      "ĠgÆ°Æ¡m": 9149,
      "Ġ1979": 9150,
      "Ġ1981": 9151,
      "ĠPhÃŃ": 9152,
      "ĠCX": 9153,
      "NgÆ°Æ¡i": 9154,
      "Ġ_": 9155,
      "Mo": 9156,
      "add": 9157,
      "ĠTak": 9158,
      "Ġhacker": 9159,
      "Ġchá»ĩ": 9160,
      "BO": 9161,
      "sao": 9162,
      "ĠnÃªm": 9163,
      "Ġ:))))": 9164,
      "Ġnhuyá»ħn": 9165,
      "ĠSá»ĳng": 9166,
      "ĠDonetsk": 9167,
      "iku": 9168,
      "ĠVá»ļI": 9169,
      "Tiáº¿t": 9170,
      "ĠcÆ°a": 9171,
      "Duy": 9172,
      "ĠhoÃ¡n": 9173,
      "agn": 9174,
      "ĠNissan": 9175,
      "fter": 9176,
      "Ġchuyen": 9177,
      "ĠHáº¡t": 9178,
      "ĠðŁĻĤ": 9179,
      "Ġsum": 9180,
      "Trá»Ł": 9181,
      "ĠSur": 9182,
      "ĠnÄĥn": 9183,
      "Ġ:((": 9184,
      "TTP": 9185,
      "Ġ94": 9186,
      "Ġthá»ĳn": 9187,
      "ĠnhÃºng": 9188,
      "anta": 9189,
      "Ser": 9190,
      "oucher": 9191,
      "Ġnghiá»ģn": 9192,
      "ĠLion": 9193,
      "ĠcÆ°á»£c": 9194,
      "ĠphÃ¡ch": 9195,
      "ĠĠĠĠĠĠĠĠĠĠĠĠ": 9196,
      "ĠTá»Ŀ": 9197,
      "kraina": 9198,
      "raph": 9199,
      "ĠLÃ£": 9200,
      "ðŁĴ°": 9201,
      "ðŁĨ": 9202,
      "Ang": 9203,
      "andra": 9204,
      "sá»±": 9205,
      "ĠLav": 9206,
      "Ġnheo": 9207,
      "mut": 9208,
      "ience": 9209,
      "ĠBáº§u": 9210,
      "ĠTRá»¢": 9211,
      "ĠKCN": 9212,
      "Ġráº«y": 9213,
      "ĠMess": 9214,
      "tuáº§n": 9215,
      "ĠnhÃŃch": 9216,
      "ĠPháº¡t": 9217,
      "lus": 9218,
      "google": 9219,
      "urt": 9220,
      "ĠRT": 9221,
      "ĠEa": 9222,
      "ĠBrid": 9223,
      "Ġhoc": 9224,
      "ĠOut": 9225,
      "ĠphÃ´ng": 9226,
      "mÃ¬nh": 9227,
      ":âĢľ": 9228,
      "ĠrÆ¡m": 9229,
      "ĠMr": 9230,
      "Ġpass": 9231,
      "ĠMiá»ħn": 9232,
      "khi": 9233,
      "Ġbung": 9234,
      "ĠCry": 9235,
      "ĠChÄĥm": 9236,
      "ough": 9237,
      "ĠRad": 9238,
      "Ġmáº£i": 9239,
      "Ġgroup": 9240,
      "Ġri": 9241,
      "giÃ¡": 9242,
      "ĠBÃ´ng": 9243,
      "miá»ħn": 9244,
      "LVT": 9245,
      "ĠCáº·p": 9246,
      "ĠDec": 9247,
      "ĠSom": 9248,
      "ĠSS": 9249,
      "890": 9250,
      "ĠRap": 9251,
      "igan": 9252,
      "mua": 9253,
      "eph": 9254,
      "Äĥk": 9255,
      "Ġcountry": 9256,
      "Ġhom": 9257,
      "Thá»ĥ": 9258,
      "ĠUEFA": 9259,
      "Ġrock": 9260,
      "Ġtua": 9261,
      "LE": 9262,
      "sch": 9263,
      "Gg": 9264,
      "Ġnua": 9265,
      "At": 9266,
      "ĠngÆ°á»£ng": 9267,
      "Ġins": 9268,
      "ĠtrÃ¹": 9269,
      "Bay": 9270,
      "appy": 9271,
      "Ġdáº«u": 9272,
      "ĠFerrari": 9273,
      "SCL": 9274,
      "áĢķ": 9275,
      "ĠAR": 9276,
      "ĠLÃ²ng": 9277,
      "asa": 9278,
      "ĠnÃŃn": 9279,
      "ĠðŁĳī": 9280,
      "kÃŃp": 9281,
      "ĠTiá»ĩp": 9282,
      "TÃ³c": 9283,
      "ĠKrem": 9284,
      "ĠÄĲá»Ŀi": 9285,
      "ðŁĳı": 9286,
      "ĠBoe": 9287,
      "tent": 9288,
      "ĠJean": 9289,
      "ĠsÃło": 9290,
      "ĠxÃ¡o": 9291,
      "ĠAFC": 9292,
      "ĠTrÃ£i": 9293,
      "iph": 9294,
      "áº¬N": 9295,
      "ĠXÃ¡": 9296,
      "ÄĲá»įc": 9297,
      "ĠTi": 9298,
      "ĠAug": 9299,
      "ĠNHNN": 9300,
      "ĠBro": 9301,
      "ĠXá»Ń": 9302,
      "ĠJackson": 9303,
      "á»ģnh": 9304,
      "ĠHá»Į": 9305,
      "SA": 9306,
      "ĠBá»©c": 9307,
      "ðŁĴµ": 9308,
      "ĠJung": 9309,
      "ĠCá»©u": 9310,
      "Ġdiá»ģu": 9311,
      "Ġáº¯t": 9312,
      "erus": 9313,
      "yt": 9314,
      "ĠchÃ¡t": 9315,
      "ĠÆ¯á»Ľc": 9316,
      "Ġchan": 9317,
      "ray": 9318,
      "Ġlon": 9319,
      "Ġwere": 9320,
      "day": 9321,
      "ĠFri": 9322,
      "face": 9323,
      "ingroup": 9324,
      "LA": 9325,
      "ĠCáº£i": 9326,
      "Ġngá»«": 9327,
      "ovich": 9328,
      "nChá»ī": 9329,
      "ĠÄĲáº¥y": 9330,
      "chiáº¿n": 9331,
      "ĠBuff": 9332,
      "á»¥n": 9333,
      "Ġbáº§m": 9334,
      "ĠTá»«ng": 9335,
      "Gal": 9336,
      "ĠthÃ²": 9337,
      "ampton": 9338,
      "Dung": 9339,
      "Ġhá»Ŀn": 9340,
      "Ġdiá»ħu": 9341,
      "ĠLÃªn": 9342,
      "Ġimpl": 9343,
      "ĠScotland": 9344,
      "ĠÄĲá»ĭch": 9345,
      "ask": 9346,
      "ĠBKS": 9347,
      "Camp": 9348,
      "bach": 9349,
      "ĠNgÃłnh": 9350,
      "ĠNGÆ¯á»ľI": 9351,
      "ĠAPEC": 9352,
      "Ġest": 9353,
      "Ġláº¡ng": 9354,
      "yb": 9355,
      "ĠLeon": 9356,
      "Ġchol": 9357,
      "ĠÄĳá»ĳm": 9358,
      "ÄŁ": 9359,
      "Nháº±m": 9360,
      "por": 9361,
      "ĠIM": 9362,
      "\";": 9363,
      "ĠClub": 9364,
      "Ġhis": 9365,
      "ÄĳÃ¡nh": 9366,
      "Ġabout": 9367,
      "Ġmn": 9368,
      "ĠHiÃªn": 9369,
      "Ġtá»ĳp": 9370,
      "ify": 9371,
      "Ġab": 9372,
      "Ġvun": 9373,
      "ĠView": 9374,
      "estay": 9375,
      "evin": 9376,
      "Ġxiáº¿t": 9377,
      "ĠWagner": 9378,
      "Sáº¯p": 9379,
      "ĠNhiá»ĩm": 9380,
      "jaer": 9381,
      "Ġresp": 9382,
      "Ġexport": 9383,
      "ĠÃģp": 9384,
      "trol": 9385,
      "ĠSÃ¢m": 9386,
      "Ġtá»ĭnh": 9387,
      "Ġrá»¥i": 9388,
      "Ġ:âĢĵ": 9389,
      "jk": 9390,
      "ĠAnth": 9391,
      "Ġdáº§m": 9392,
      "ĠÄĲá»©ng": 9393,
      "Ãī": 9394,
      "vv": 9395,
      "ĠPay": 9396,
      "ĠAsh": 9397,
      "ChÆ¡i": 9398,
      "ĠVÃłi": 9399,
      "ĠSáº¯c": 9400,
      "Tá»ĳt": 9401,
      "Cr": 9402,
      "ĠKn": 9403,
      "Ste": 9404,
      "ĠServer": 9405,
      "Ġvá»Ľ": 9406,
      "Há»£p": 9407,
      "ĠsÃ²ng": 9408,
      "He": 9409,
      "ĠSung": 9410,
      "Ġhon": 9411,
      "ĠPenn": 9412,
      "Ġá»©": 9413,
      "thy": 9414,
      "ĠTrÃ¡ch": 9415,
      "ĠSerg": 9416,
      "nÄĲÄĥng": 9417,
      "ĠthÃ²i": 9418,
      "ased": 9419,
      "Ġsdt": 9420,
      "Huyá»ĩn": 9421,
      "Chao": 9422,
      "ashford": 9423,
      "ĠtÃ¢u": 9424,
      "CÃº": 9425,
      "Ġbiáº¿u": 9426,
      "trÃªn": 9427,
      "bledon": 9428,
      "ĠBul": 9429,
      "iams": 9430,
      "ĠTIá»ĢN": 9431,
      "áº¶": 9432,
      "ĠPha": 9433,
      "ĠAle": 9434,
      "ĠÄĲá»ķi": 9435,
      "imbledon": 9436,
      "ĠIns": 9437,
      "ĠtÃ¡nh": 9438,
      "ĠCang": 9439,
      "224": 9440,
      "ĠxoÃ¡": 9441,
      "Binh": 9442,
      "Ġmiá»ĩn": 9443,
      "ĠNag": 9444,
      "Ġder": 9445,
      "Ġmillion": 9446,
      "VÄ©nh": 9447,
      "Tháº±ng": 9448,
      "ĠLove": 9449,
      "âĢįâĻ": 9450,
      "ĠEst": 9451,
      "ĠBloomberg": 9452,
      "Ġgáº¯m": 9453,
      "gggg": 9454,
      "ĠTranh": 9455,
      "ession": 9456,
      "SP": 9457,
      "áº¤U": 9458,
      "ĠvÃµng": 9459,
      "ĠRai": 9460,
      "ĠVar": 9461,
      "ĠKit": 9462,
      "elly": 9463,
      "ĠDD": 9464,
      "ĠDaniel": 9465,
      "Ġnháº±n": 9466,
      "ĠMusic": 9467,
      "KhÃ³": 9468,
      "ips": 9469,
      "Ġlaser": 9470,
      "Roy": 9471,
      "inus": 9472,
      "Ġtanh": 9473,
      "ĠGÃł": 9474,
      "ĠAD": 9475,
      "ÄĲá»©ng": 9476,
      "ĠgÃ¹": 9477,
      "ĠThiá»ģn": 9478,
      "ChÃ¡y": 9479,
      "ourn": 9480,
      "ĠVinaphone": 9481,
      "tro": 9482,
      "ball": 9483,
      "ĠJapan": 9484,
      "Ġmá»ĭt": 9485,
      "ĠAnt": 9486,
      "HoÃłi": 9487,
      "VAY": 9488,
      "ĠQLDA": 9489,
      "Ġcas": 9490,
      "ĠLeicester": 9491,
      "Ġcholesterol": 9492,
      "bass": 9493,
      "ĠAth": 9494,
      "Ġdem": 9495,
      "well": 9496,
      "Ġitem": 9497,
      "ĠngÃł": 9498,
      "phi": 9499,
      "ThÃ¢n": 9500,
      "ÃĴ": 9501,
      "ashion": 9502,
      "ĠXiaomi": 9503,
      "ĠBA": 9504,
      "ĠÄĲam": 9505,
      "Tá»Ń": 9506,
      "Ha": 9507,
      "ĠBrit": 9508,
      "ĠUkraina": 9509,
      "ĠcÃ¡u": 9510,
      "ĠMarket": 9511,
      "ĠAudi": 9512,
      "ĠCÃĵ": 9513,
      "Ġdáº¥y": 9514,
      "???": 9515,
      "pop": 9516,
      "Ġquáº©n": 9517,
      "ĠÄĲá»Ļt": 9518,
      "ĠPhÃ¡o": 9519,
      "ĠMÃłu": 9520,
      "ĠEverton": 9521,
      "ThÃŃch": 9522,
      "DF": 9523,
      "ĠCá»¦A": 9524,
      "Mac": 9525,
      "ulata": 9526,
      "formation": 9527,
      "Ġinclud": 9528,
      "Ġsáº£ng": 9529,
      "Fan": 9530,
      "ĠNick": 9531,
      "Ġte": 9532,
      "ahoo": 9533,
      "Ġhá»ħ": 9534,
      "Miá»ħn": 9535,
      "ÄĲá»ķi": 9536,
      "ĠÂ«": 9537,
      "ĠDen": 9538,
      "á»Ĩ": 9539,
      "iy": 9540,
      "ĠGáº·p": 9541,
      "ĠGetty": 9542,
      "wan": 9543,
      "Ġother": 9544,
      "ĠSteve": 9545,
      "ðŁĴķ": 9546,
      "fael": 9547,
      "ĠLind": 9548,
      "ĠOmicron": 9549,
      "ador": 9550,
      "Máº¥t": 9551,
      "ĠBenz": 9552,
      "alin": 9553,
      "ĠEV": 9554,
      "ðŁĳĮ": 9555,
      "zb": 9556,
      "ecial": 9557,
      "ĠForm": 9558,
      "round": 9559,
      "Sang": 9560,
      "Háº¿t": 9561,
      "Ġteen": 9562,
      "Ġ1978": 9563,
      "ĠJeff": 9564,
      "esel": 9565,
      "ï¸ıâ": 9566,
      "ĠBy": 9567,
      "ĠÃĲáº¡i": 9568,
      "ĠOcean": 9569,
      "set": 9570,
      "ĠloÃ©t": 9571,
      "há»įc": 9572,
      "Ġ1976": 9573,
      "ĠBell": 9574,
      "ĠnhÃ¡i": 9575,
      "Ã¢t": 9576,
      "Nhu": 9577,
      "Ġchá»¯ng": 9578,
      "etooth": 9579,
      "ĠCre": 9580,
      "Inter": 9581,
      "UI": 9582,
      "ĠbÄĥm": 9583,
      "Oh": 9584,
      "Ġthun": 9585,
      "iller": 9586,
      "áĢĢ": 9587,
      "CA": 9588,
      "ĠAct": 9589,
      "ĠChá»Ŀ": 9590,
      "ĠEv": 9591,
      "Vui": 9592,
      "ĠPogba": 9593,
      "Pro": 9594,
      "echn": 9595,
      "Cá»Ńa": 9596,
      "ĠMÃłn": 9597,
      "urs": 9598,
      "ĠBrasil": 9599,
      "Ġ175": 9600,
      "ĠMasters": 9601,
      "skjaer": 9602,
      "ðŁĳĩ\\": 9603,
      "ĠTer": 9604,
      "ĠrÃªn": 9605,
      "eman": 9606,
      "CO": 9607,
      "ĠWood": 9608,
      "áº¤N": 9609,
      "Cal": 9610,
      "ibaba": 9611,
      "ĠphÆ°á»£ng": 9612,
      "Ġ103": 9613,
      "ĠFil": 9614,
      "Ġden": 9615,
      "Ġ1973": 9616,
      "Hoáº¡t": 9617,
      "Thá»ĳng": 9618,
      "Bá»Ĺng": 9619,
      "Kiá»ģu": 9620,
      "ĠKem": 9621,
      "ĠRanh": 9622,
      "ĠNASA": 9623,
      "ĠAustral": 9624,
      "ĠJon": 9625,
      "ĠDig": 9626,
      "nhanh": 9627,
      "ĠhÃº": 9628,
      "ĠMik": 9629,
      "ettings": 9630,
      "ĠGea": 9631,
      "RI": 9632,
      "ĠlÃ¬nh": 9633,
      "ĠPetr": 9634,
      "Ġvisa": 9635,
      "ĠSteph": 9636,
      "ĠQUANG": 9637,
      "ĠMaster": 9638,
[...]
